
#ifdef __has_attribute
#define HAVE_ATTRIBUTE(x) __has_attribute(x)
#else
#define HAVE_ATTRIBUTE(x) 0
#endif
#if HAVE_ATTRIBUTE(aligned) || (defined(__GNUC__) && !defined(__clang__))
#define DATA_ALIGN_ATTRIBUTE __attribute__((aligned(4)))
#else
#define DATA_ALIGN_ATTRIBUTE
#endif

const unsigned char model_data[] DATA_ALIGN_ATTRIBUTE = {0x1c, 0x00, 0x00, 0x00, 0x54, 0x46, 0x4c, 0x33, 0x14, 0x00, 0x20, 0x00, 0x1c, 0x00, 0x18, 0x00, 0x14, 0x00, 0x10, 0x00, 0x0c, 0x00, 0x00, 0x00, 0x08, 0x00, 0x04, 0x00, 0x14, 0x00, 0x00, 0x00, 0x1c, 0x00, 0x00, 0x00, 0x98, 0x00, 0x00, 0x00, 0xf0, 0x00, 0x00, 0x00, 0xe8, 0x45, 0x00, 0x00, 0xf8, 0x45, 0x00, 0x00, 0x4c, 0x4a, 0x00, 0x00, 0x03, 0x00, 0x00, 0x00, 0x01, 0x00, 0x00, 0x00, 0x10, 0x00, 0x00, 0x00, 0x00, 0x00, 0x0a, 0x00, 0x10, 0x00, 0x0c, 0x00, 0x08, 0x00, 0x04, 0x00, 0x0a, 0x00, 0x00, 0x00, 0x0c, 0x00, 0x00, 0x00, 0x1c, 0x00, 0x00, 0x00, 0x3c, 0x00, 0x00, 0x00, 0x0f, 0x00, 0x00, 0x00, 0x73, 0x65, 0x72, 0x76, 0x69, 0x6e, 0x67, 0x5f, 0x64, 0x65, 0x66, 0x61, 0x75, 0x6c, 0x74, 0x00, 0x01, 0x00, 0x00, 0x00, 0x04, 0x00, 0x00, 0x00, 0x90, 0xff, 0xff, 0xff, 0x07, 0x00, 0x00, 0x00, 0x04, 0x00, 0x00, 0x00, 0x08, 0x00, 0x00, 0x00, 0x64, 0x65, 0x6e, 0x73, 0x65, 0x5f, 0x31, 0x31, 0x00, 0x00, 0x00, 0x00, 0x01, 0x00, 0x00, 0x00, 0x04, 0x00, 0x00, 0x00, 0x02, 0xba, 0xff, 0xff, 0x04, 0x00, 0x00, 0x00, 0x0e, 0x00, 0x00, 0x00, 0x64, 0x65, 0x6e, 0x73, 0x65, 0x5f, 0x31, 0x30, 0x5f, 0x69, 0x6e, 0x70, 0x75, 0x74, 0x00, 0x00, 0x02, 0x00, 0x00, 0x00, 0x34, 0x00, 0x00, 0x00, 0x04, 0x00, 0x00, 0x00, 0xdc, 0xff, 0xff, 0xff, 0x0a, 0x00, 0x00, 0x00, 0x04, 0x00, 0x00, 0x00, 0x13, 0x00, 0x00, 0x00, 0x43, 0x4f, 0x4e, 0x56, 0x45, 0x52, 0x53, 0x49, 0x4f, 0x4e, 0x5f, 0x4d, 0x45, 0x54, 0x41, 0x44, 0x41, 0x54, 0x41, 0x00, 0x08, 0x00, 0x0c, 0x00, 0x08, 0x00, 0x04, 0x00, 0x08, 0x00, 0x00, 0x00, 0x09, 0x00, 0x00, 0x00, 0x04, 0x00, 0x00, 0x00, 0x13, 0x00, 0x00, 0x00, 0x6d, 0x69, 0x6e, 0x5f, 0x72, 0x75, 0x6e, 0x74, 0x69, 0x6d, 0x65, 0x5f, 0x76, 0x65, 0x72, 0x73, 0x69, 0x6f, 0x6e, 0x00, 0x0b, 0x00, 0x00, 0x00, 0xf4, 0x44, 0x00, 0x00, 0xec, 0x44, 0x00, 0x00, 0xd0, 0x44, 0x00, 0x00, 0xc0, 0x43, 0x00, 0x00, 0xb0, 0x03, 0x00, 0x00, 0xa0, 0x00, 0x00, 0x00, 0x98, 0x00, 0x00, 0x00, 0x90, 0x00, 0x00, 0x00, 0x88, 0x00, 0x00, 0x00, 0x68, 0x00, 0x00, 0x00, 0x04, 0x00, 0x00, 0x00, 0xaa, 0xba, 0xff, 0xff, 0x04, 0x00, 0x00, 0x00, 0x54, 0x00, 0x00, 0x00, 0x0c, 0x00, 0x00, 0x00, 0x08, 0x00, 0x0e, 0x00, 0x08, 0x00, 0x04, 0x00, 0x08, 0x00, 0x00, 0x00, 0x10, 0x00, 0x00, 0x00, 0x24, 0x00, 0x00, 0x00, 0x00, 0x00, 0x06, 0x00, 0x08, 0x00, 0x04, 0x00, 0x06, 0x00, 0x00, 0x00, 0x04, 0x00, 0x00, 0x00, 0x00, 0x00, 0x00, 0x00, 0x00, 0x00, 0x0a, 0x00, 0x10, 0x00, 0x0c, 0x00, 0x08, 0x00, 0x04, 0x00, 0x0a, 0x00, 0x00, 0x00, 0x02, 0x00, 0x00, 0x00, 0x02, 0x00, 0x00, 0x00, 0x04, 0x00, 0x00, 0x00, 0x05, 0x00, 0x00, 0x00, 0x32, 0x2e, 0x39, 0x2e, 0x32, 0x00, 0x00, 0x00, 0x0a, 0xbb, 0xff, 0xff, 0x04, 0x00, 0x00, 0x00, 0x10, 0x00, 0x00, 0x00, 0x31, 0x2e, 0x35, 0x2e, 0x30, 0x00, 0x00, 0x00, 0x00, 0x00, 0x00, 0x00, 0x00, 0x00, 0x00, 0x00, 0x80, 0xb7, 0xff, 0xff, 0x84, 0xb7, 0xff, 0xff, 0x88, 0xb7, 0xff, 0xff, 0x32, 0xbb, 0xff, 0xff, 0x04, 0x00, 0x00, 0x00, 0x00, 0x03, 0x00, 0x00, 0x79, 0x13, 0xbd, 0x3d, 0x95, 0x8c, 0xb6, 0x3d, 0x59, 0x5c, 0x9c, 0x3d, 0x50, 0x7b, 0x4a, 0x3e, 0x4b, 0x9a, 0x68, 0x3e, 0x63, 0x1a, 0xf6, 0xbd, 0xf3, 0xd9, 0x3d, 0xbb, 0xd9, 0x78, 0x68, 0xbe, 0x11, 0xfa, 0x3d, 0x3d, 0x8d, 0x0e, 0x6f, 0x3e, 0xf4, 0x1f, 0x88, 0x3e, 0x2c, 0x34, 0x18, 0x3e, 0x5e, 0xbe, 0x94, 0xbe, 0x01, 0xfd, 0x62, 0xbe, 0x46, 0xd6, 0xa4, 0xbd, 0xe5, 0xbf, 0x5f, 0x3e, 0xad, 0xd5, 0x62, 0xbe, 0x6c, 0xf2, 0x0c, 0x3e, 0x46, 0xc6, 0xbb, 0x39, 0x12, 0xbd, 0x39, 0xbe, 0xd3, 0x1a, 0x41, 0x3d, 0x50, 0x26, 0x35, 0x3e, 0xd8, 0xaa, 0x76, 0xbe, 0xf6, 0x29, 0xef, 0xbd, 0x95, 0x65, 0x0b, 0xbe, 0xac, 0x27, 0x22, 0xbd, 0x05, 0xd2, 0x0d, 0x3c, 0x25, 0x22, 0x11, 0x3e, 0xc9, 0x0e, 0x52, 0x3e, 0xe9, 0x6b, 0x9a, 0xbd, 0xe8, 0xd3, 0x30, 0x3d, 0xf0, 0x5f, 0x52, 0xbd, 0x80, 0xcd, 0xe9, 0x3c, 0x21, 0x17, 0xcb, 0x3c, 0x20, 0xfe, 0x3e, 0xbe, 0x52, 0x37, 0x13, 0xbc, 0x5e, 0x17, 0xda, 0x3b, 0xe9, 0x71, 0x6d, 0xbe, 0x62, 0xfa, 0x8a, 0xbe, 0x29, 0xa7, 0xc6, 0xbd, 0x2e, 0x10, 0x18, 0xbe, 0x78, 0x2d, 0x10, 0x3e, 0xaa, 0x83, 0x13, 0xbe, 0x60, 0x94, 0x07, 0x3d, 0xeb, 0x82, 0x7b, 0xbe, 0x34, 0x94, 0xd9, 0xbe, 0x63, 0x47, 0xb4, 0xbb, 0x4a, 0x83, 0xbe, 0xbd, 0x6a, 0xe0, 0x17, 0x3e, 0xec, 0x4a, 0x11, 0x3e, 0x1a, 0xa0, 0x6f, 0xbe, 0x4b, 0x82, 0x28, 0x3e, 0x0e, 0x2d, 0x44, 0x3e, 0x76, 0xc9, 0x46, 0x3e, 0x72, 0x25, 0x12, 0x3e, 0x09, 0x31, 0x29, 0x3e, 0x70, 0x93, 0x63, 0x3e, 0xf0, 0x0d, 0x15, 0xbe, 0xae, 0x45, 0x00, 0x3e, 0x3a, 0x85, 0x1f, 0xbe, 0x39, 0x3a, 0xba, 0xbd, 0xba, 0x50, 0x6e, 0xbd, 0x7f, 0x22, 0xa0, 0x3c, 0xad, 0x03, 0x2b, 0xbe, 0xfe, 0xbc, 0xe4, 0xbd, 0xfc, 0x56, 0x68, 0xbe, 0x17, 0xc2, 0x9a, 0x3d, 0x34, 0xe7, 0x29, 0x3e, 0x39, 0xb2, 0x60, 0xbe, 0x64, 0xdf, 0xb2, 0x3d, 0x2f, 0xad, 0x64, 0x3e, 0xf4, 0xe0, 0x8c, 0xbe, 0xcd, 0xf8, 0x03, 0xbc, 0x10, 0xd8, 0x1b, 0x3d, 0x97, 0x83, 0x58, 0xbe, 0xb9, 0x74, 0x86, 0x3c, 0x2e, 0xe4, 0xe6, 0x3d, 0xe0, 0xbb, 0xe7, 0xbc, 0x92, 0x29, 0x37, 0x3d, 0xee, 0x4b, 0x25, 0x3e, 0x37, 0x7e, 0x92, 0xbe, 0xa8, 0x68, 0x27, 0x3e, 0x91, 0xfb, 0x2d, 0xbe, 0xfd, 0xd7, 0xa0, 0x3e, 0x99, 0x26, 0x59, 0x3e, 0x2c, 0x0a, 0x81, 0x3e, 0x46, 0x7d, 0xfa, 0xbb, 0x37, 0xf5, 0xe4, 0x3d, 0x50, 0x79, 0x9f, 0x3d, 0x37, 0xff, 0x81, 0xbd, 0x1d, 0x4b, 0xb5, 0x3e, 0x04, 0xbf, 0xb9, 0x3c, 0x14, 0x3c, 0x24, 0xbc, 0xd4, 0xb1, 0x11, 0x3e, 0x6c, 0x0f, 0x58, 0xbd, 0x8e, 0x43, 0x75, 0xbe, 0xc6, 0xee, 0x67, 0x3d, 0x88, 0xd9, 0x4b, 0xbe, 0xfd, 0x63, 0x8a, 0xbd, 0x2e, 0x5f, 0x5a, 0xbe, 0xca, 0x54, 0x71, 0x3e, 0x66, 0x02, 0x89, 0xbe, 0x0e, 0xd9, 0x56, 0xbe, 0x14, 0xc7, 0x6c, 0x3e, 0xf0, 0x10, 0x5b, 0x3e, 0xf5, 0x40, 0x14, 0x3e, 0x14, 0xc8, 0xbe, 0xbd, 0xb4, 0x72, 0xb6, 0x3d, 0x97, 0x12, 0x41, 0xbe, 0x9d, 0x7a, 0xb3, 0xbc, 0x6c, 0x91, 0x6a, 0x3e, 0xa6, 0x60, 0x3e, 0x3d, 0x95, 0x34, 0x4e, 0xbe, 0xf4, 0x6d, 0x52, 0x3e, 0xd9, 0x3c, 0x1a, 0x3d, 0x79, 0x5b, 0x61, 0xbe, 0x3c, 0x96, 0xad, 0x3a, 0xfa, 0x6b, 0x18, 0xbe, 0x1a, 0x91, 0xd6, 0x3c, 0xc8, 0x65, 0x50, 0xbe, 0x1e, 0x32, 0x2b, 0xbe, 0xd2, 0x3b, 0x9d, 0x3d, 0xc9, 0xc4, 0x11, 0xbe, 0xa5, 0x9d, 0x11, 0xbe, 0xee, 0xa7, 0x70, 0xbe, 0x8d, 0xd6, 0x90, 0xbe, 0x0d, 0x26, 0x77, 0xbe, 0xb5, 0x4e, 0x9b, 0xbe, 0x24, 0xce, 0xc4, 0x3d, 0xe1, 0x89, 0x09, 0xbe, 0xd1, 0xa5, 0x9c, 0xbd, 0xbd, 0x35, 0x17, 0xbe, 0x80, 0x1e, 0xc5, 0x3c, 0xc4, 0x34, 0x52, 0x3c, 0xd5, 0xda, 0xb5, 0x3d, 0xdb, 0x68, 0xf9, 0xbc, 0x63, 0xfd, 0xdc, 0x3d, 0x92, 0xfc, 0x92, 0x3e, 0x69, 0x7f, 0xac, 0xbd, 0x16, 0x6c, 0x55, 0x3e, 0x9e, 0x99, 0x1b, 0x3e, 0xd5, 0xd4, 0x1b, 0xbe, 0xa4, 0x0f, 0x3b, 0x3e, 0x84, 0x8c, 0x1b, 0x3d, 0xb0, 0xf2, 0x17, 0x3e, 0xa3, 0xc7, 0x06, 0xbd, 0x5c, 0xfe, 0x1b, 0xbe, 0xd9, 0x9e, 0xa1, 0xbd, 0x7c, 0xcb, 0x50, 0xbe, 0xb9, 0xb0, 0xef, 0xbd, 0xd7, 0x25, 0x61, 0x3d, 0x70, 0x80, 0xc9, 0x3d, 0xef, 0x95, 0x63, 0xbe, 0xe7, 0xf9, 0x31, 0x3e, 0x87, 0x9f, 0x51, 0x3e, 0xe0, 0x0f, 0x8c, 0xbe, 0x15, 0xd2, 0x27, 0xbe, 0x6d, 0xcf, 0xfb, 0x3d, 0xb1, 0x3c, 0x15, 0xbe, 0x17, 0x97, 0x9a, 0xbc, 0x72, 0xf0, 0x70, 0xbe, 0x68, 0xa3, 0x80, 0x3d, 0xbb, 0x57, 0xd3, 0xbd, 0x5c, 0x4a, 0xde, 0xbd, 0x0f, 0x18, 0xed, 0x3d, 0x61, 0x5d, 0x7b, 0x3e, 0xad, 0x14, 0x7f, 0x3d, 0xe2, 0x27, 0x39, 0x3d, 0xb9, 0x54, 0xcb, 0xbc, 0xb5, 0x81, 0x11, 0xbe, 0x33, 0x24, 0x90, 0xbe, 0x00, 0xa8, 0x7a, 0xbb, 0x33, 0xea, 0x00, 0x3d, 0x8d, 0xf6, 0xaa, 0x3d, 0x5c, 0x44, 0x59, 0x3e, 0x71, 0xe8, 0x9b, 0x3e, 0x0a, 0xd3, 0x92, 0xbe, 0xe2, 0x17, 0xd0, 0x3d, 0x54, 0x41, 0xdc, 0xbc, 0x8a, 0xaa, 0xc1, 0x3c, 0x92, 0x63, 0x55, 0xbe, 0xc0, 0xcb, 0x8f, 0xbe, 0x77, 0x45, 0xd0, 0xbd, 0x94, 0x51, 0x4c, 0x3e, 0x0e, 0x8d, 0xa6, 0xbd, 0xc4, 0x81, 0x8d, 0x3e, 0xaf, 0x5e, 0x0a, 0x3e, 0x15, 0x2d, 0xd3, 0x3d, 0x00, 0x44, 0x73, 0x3c, 0x4f, 0x1d, 0x80, 0x3d, 0x4b, 0x48, 0x98, 0xbd, 0xd1, 0xc9, 0xec, 0xbd, 0x3e, 0xbe, 0xff, 0xff, 0x04, 0x00, 0x00, 0x00, 0x00, 0x40, 0x00, 0x00, 0x21, 0x25, 0xba, 0x3d, 0xca, 0xb1, 0x8b, 0xbc, 0x8c, 0xc5, 0x02, 0x3e, 0xaa, 0x46, 0x63, 0x3e, 0xf3, 0x81, 0x06, 0xbe, 0x9e, 0x9a, 0x24, 0xbe, 0xbb, 0x45, 0x4d, 0x3d, 0xae, 0x0a, 0x73, 0xbc, 0x70, 0x58, 0x0d, 0xbe, 0xf3, 0xbd, 0x71, 0xbe, 0x5f, 0xdc, 0x33, 0xbe, 0x63, 0xb7, 0x47, 0x3d, 0x6e, 0x8e, 0x3a, 0x3e, 0xa3, 0x83, 0x3a, 0xbe, 0xc7, 0x1c, 0x2c, 0xbd, 0x4c, 0x23, 0xd9, 0xbc, 0x0d, 0xe6, 0x4f, 0x3e, 0xbb, 0xbc, 0x83, 0xbd, 0xd4, 0x63, 0xb3, 0x3d, 0x0b, 0xde, 0x7a, 0x3c, 0xa4, 0xa6, 0x0f, 0x3e, 0x17, 0x9a, 0xe3, 0xbd, 0x3e, 0xd8, 0x1a, 0xbe, 0x44, 0xd0, 0x3f, 0xbd, 0x46, 0x77, 0x3a, 0xbd, 0xb3, 0x48, 0xae, 0xbd, 0xe3, 0x13, 0x1f, 0xbd, 0xbd, 0x32, 0xc1, 0x3b, 0x55, 0x0d, 0xb4, 0xbc, 0x69, 0xb5, 0xb3, 0xbb, 0x34, 0x7c, 0xe4, 0x3d, 0xe7, 0x24, 0x16, 0x3e, 0x28, 0xf4, 0x47, 0x3d, 0x2e, 0x9e, 0x8d, 0xbd, 0x50, 0xa4, 0xff, 0xbd, 0x97, 0xce, 0x90, 0xbd, 0x67, 0x50, 0x0e, 0x3d, 0x98, 0xb8, 0xf4, 0xbd, 0xc8, 0x6c, 0xfc, 0x3d, 0x97, 0xdc, 0x66, 0x3d, 0x35, 0xd8, 0x2e, 0x3e, 0xf8, 0xe4, 0x39, 0x3e, 0x37, 0x61, 0x27, 0xbd, 0x5a, 0x52, 0x30, 0xbe, 0x60, 0xb3, 0xc6, 0xbd, 0xab, 0xc2, 0xfc, 0x3d, 0x29, 0x10, 0xe4, 0xbd, 0x37, 0x4a, 0xfc, 0x3d, 0xaa, 0x22, 0x17, 0x3d, 0xe2, 0x76, 0xe6, 0xbc, 0x4c, 0xd7, 0xb5, 0xbd, 0x06, 0x4c, 0x10, 0x3e, 0xea, 0xaa, 0x9e, 0xbc, 0x2d, 0x48, 0x19, 0x3e, 0x9e, 0xe5, 0x01, 0x3c, 0x03, 0xca, 0xda, 0x3d, 0x31, 0xd7, 0xc0, 0x3c, 0xd7, 0x97, 0xed, 0xbd, 0x16, 0x71, 0x43, 0x3d, 0x48, 0x5d, 0x6d, 0xbd, 0x87, 0xd7, 0x34, 0xbd, 0x69, 0x41, 0x40, 0x3e, 0x5d, 0xc8, 0x2c, 0x3e, 0x8a, 0xbe, 0x46, 0x3e, 0xa8, 0x9c, 0xa2, 0x3d, 0x29, 0xf4, 0x1d, 0x3d, 0x1b, 0x46, 0xed, 0xbd, 0x3c, 0x00, 0x9e, 0x3d, 0xad, 0x18, 0x8d, 0xbd, 0x75, 0x73, 0x07, 0x3e, 0x19, 0x08, 0xd1, 0x3d, 0xbe, 0x51, 0x83, 0x3e, 0x8d, 0x69, 0x50, 0x3e, 0x76, 0xf6, 0x2f, 0xbe, 0x1a, 0x4c, 0x73, 0xbd, 0x8a, 0x43, 0x5c, 0xbe, 0x7f, 0xce, 0x75, 0x3b, 0xa0, 0x44, 0x1f, 0xbe, 0xbe, 0xee, 0x4e, 0xbe, 0xed, 0x69, 0xf9, 0xbd, 0x5b, 0x9d, 0xc2, 0x3d, 0xa1, 0x61, 0x9a, 0xbe, 0x3d, 0xac, 0x97, 0xbe, 0x3b, 0x6e, 0x63, 0xbe, 0xf0, 0xb4, 0x55, 0x3d, 0x38, 0x77, 0xd6, 0x3d, 0xdf, 0xb8, 0x9b, 0xbd, 0x7d, 0xde, 0x19, 0x3e, 0x74, 0xa6, 0x69, 0xbe, 0x48, 0x52, 0x46, 0x3d, 0xe1, 0x71, 0x16, 0x3e, 0x55, 0x3a, 0x06, 0xbe, 0x2a, 0xc4, 0x86, 0xbd, 0xb0, 0xe7, 0x5d, 0xbc, 0x95, 0x2b, 0x3c, 0xbc, 0x87, 0x81, 0x8d, 0xbc, 0x22, 0xa8, 0x88, 0x3e, 0xd9, 0x7c, 0x60, 0xbd, 0x0f, 0xfa, 0x93, 0x3d, 0xd8, 0xca, 0x3c, 0xbe, 0xf2, 0x2c, 0x6e, 0xbe, 0xc1, 0x7a, 0x94, 0xbd, 0x42, 0x31, 0xa0, 0x3d, 0x5e, 0xc5, 0x4a, 0xbe, 0x9a, 0x2e, 0xae, 0x3c, 0xe0, 0xe8, 0x9a, 0xbc, 0xf4, 0x33, 0x9a, 0xbd, 0x5f, 0xd1, 0x88, 0xbd, 0x14, 0xf6, 0x9d, 0xbd, 0xdb, 0x8d, 0x65, 0x3d, 0x90, 0x90, 0x4d, 0x3e, 0x58, 0x42, 0x3f, 0x3d, 0x42, 0xa0, 0xe6, 0x3d, 0x86, 0xe0, 0xfe, 0x3d, 0x75, 0x11, 0x81, 0x3d, 0xfd, 0x7c, 0x5f, 0x3d, 0x48, 0x94, 0x3c, 0xbe, 0x92, 0xe8, 0xc7, 0xbc, 0x24, 0x7a, 0x08, 0x3e, 0xf7, 0x08, 0x26, 0xbe, 0x15, 0xf7, 0x08, 0xbe, 0x0f, 0x2c, 0x45, 0x3e, 0xfd, 0x7a, 0x21, 0x3e, 0x01, 0xf8, 0xdb, 0x3c, 0xd3, 0x69, 0xdd, 0x3d, 0x7c, 0x17, 0x88, 0xbe, 0xbd, 0xea, 0x4d, 0xbe, 0x1a, 0x03, 0x1b, 0x3b, 0x02, 0x6d, 0x41, 0xbe, 0x9d, 0x66, 0xe1, 0x3d, 0x18, 0x91, 0x8f, 0x3d, 0x73, 0x65, 0xf8, 0x3d, 0xc5, 0x1b, 0x12, 0x3e, 0x85, 0x51, 0xe6, 0xbd, 0xf7, 0xe8, 0x6d, 0xbe, 0xbb, 0xa9, 0x1a, 0xbe, 0xbd, 0x91, 0x5b, 0x3d, 0xc8, 0x40, 0x84, 0x3c, 0xb1, 0x35, 0x48, 0xbe, 0x3f, 0xea, 0xce, 0x3d, 0x06, 0xa4, 0xf4, 0x3d, 0x60, 0xe0, 0x95, 0xbd, 0x0d, 0x55, 0x17, 0x3d, 0x88, 0x4a, 0x55, 0xbe, 0x8d, 0x8e, 0xfb, 0x3d, 0xf6, 0x43, 0xb9, 0x3d, 0xb8, 0x65, 0xdc, 0x3d, 0x53, 0x87, 0x1e, 0xbc, 0x21, 0x66, 0x29, 0xbe, 0x13, 0x50, 0x0e, 0xbe, 0xc9, 0xea, 0x68, 0xbe, 0xb2, 0x8d, 0x94, 0xbb, 0xe4, 0x23, 0xb1, 0x3d, 0xd0, 0x88, 0x1e, 0x3e, 0x96, 0x5e, 0x0c, 0xbe, 0xfd, 0x20, 0x49, 0xbe, 0x03, 0x75, 0x27, 0x3b, 0x8b, 0x9b, 0xc8, 0x3d, 0x6f, 0x63, 0xb9, 0xbc, 0x5d, 0x44, 0x2a, 0xbe, 0x04, 0xe7, 0x27, 0xbe, 0x27, 0x81, 0x32, 0x3d, 0xa4, 0x90, 0x09, 0xbe, 0x1d, 0x4a, 0x37, 0xbd, 0x27, 0x7f, 0x14, 0x3e, 0x1f, 0xd9, 0x20, 0x3e, 0xba, 0xb0, 0xae, 0x3d, 0x8e, 0x8f, 0x84, 0xbd, 0x13, 0xeb, 0xdc, 0x3d, 0x0e, 0x04, 0x5f, 0xbd, 0x45, 0x5f, 0xd5, 0x3d, 0xa2, 0x11, 0x28, 0x3e, 0xd2, 0x6a, 0x80, 0xbd, 0xf8, 0xea, 0xfd, 0xbd, 0x07, 0x4c, 0x0b, 0x3e, 0xb8, 0x07, 0xa8, 0x3d, 0xc2, 0x4b, 0x08, 0xbe, 0xe5, 0x0a, 0x14, 0xbd, 0x84, 0x14, 0xf7, 0x3c, 0xa3, 0xb5, 0xf9, 0x3d, 0xf0, 0xee, 0x19, 0xbe, 0xb4, 0x1d, 0x39, 0xbe, 0x65, 0xf9, 0x8d, 0xbd, 0x10, 0xc9, 0xd0, 0x3d, 0x1b, 0xc3, 0x2a, 0xbe, 0xee, 0x0a, 0x5c, 0xbe, 0x93, 0x51, 0x40, 0x3e, 0x8e, 0x7b, 0x6c, 0xbe, 0x76, 0xf7, 0x4b, 0xbe, 0x43, 0xe5, 0x21, 0x3e, 0x1b, 0x14, 0xcc, 0xbd, 0x46, 0x0d, 0x5d, 0x3e, 0x6f, 0x5f, 0x8b, 0xbb, 0xa0, 0xdd, 0x0e, 0x39, 0x82, 0x5d, 0x22, 0xbd, 0xc3, 0x56, 0xe4, 0x3c, 0xf8, 0x7d, 0x5e, 0x3d, 0xa1, 0x54, 0x26, 0x3d, 0x17, 0x3c, 0x79, 0xbd, 0xd6, 0xbd, 0x48, 0x3e, 0x11, 0xb0, 0x09, 0x3d, 0x66, 0xab, 0x03, 0x3e, 0xa5, 0xad, 0xc7, 0x3d, 0xa8, 0x2d, 0x92, 0xbd, 0x81, 0xf8, 0xde, 0x3d, 0xdf, 0x1a, 0xbf, 0xba, 0xa1, 0x4c, 0x3c, 0x3e, 0xc8, 0xb9, 0x09, 0x3e, 0xeb, 0xda, 0x57, 0xbe, 0x37, 0xca, 0xb3, 0x3d, 0x93, 0x04, 0x04, 0xbd, 0xc4, 0x27, 0xeb, 0x3d, 0x7e, 0xe5, 0xa2, 0xbd, 0x08, 0xc8, 0x77, 0x3d, 0x52, 0xff, 0xb4, 0xbd, 0x36, 0x47, 0x10, 0x3d, 0xf7, 0x4d, 0xa7, 0x3c, 0xe5, 0x2b, 0x49, 0xbe, 0x5c, 0xbb, 0x12, 0xbe, 0xba, 0xc5, 0x08, 0xbe, 0xed, 0x5a, 0x60, 0xbd, 0xbc, 0x01, 0x1a, 0xb9, 0x61, 0xd9, 0x5c, 0xbe, 0x55, 0x1b, 0x33, 0xbe, 0x1a, 0x5d, 0xad, 0x3d, 0xb3, 0x35, 0x7f, 0xbe, 0x63, 0x1b, 0x97, 0xbd, 0x81, 0x21, 0xce, 0x3d, 0x28, 0x4b, 0x7f, 0xbe, 0x29, 0x8d, 0x30, 0xbd, 0xaa, 0x93, 0xab, 0xbd, 0x77, 0xd5, 0x32, 0xbe, 0x79, 0xe3, 0x71, 0xbd, 0xf6, 0x84, 0x11, 0xbe, 0xb6, 0x2e, 0xa8, 0xbd, 0x1f, 0xfc, 0xb2, 0xbd, 0x67, 0xda, 0x54, 0x3e, 0x8e, 0x76, 0xfc, 0xbd, 0xdb, 0x60, 0xc6, 0xbd, 0x85, 0x83, 0x06, 0x3e, 0xe3, 0xc1, 0xd5, 0xbd, 0x6d, 0xb4, 0x5c, 0xbe, 0x97, 0xb3, 0x1e, 0x3d, 0x89, 0xd7, 0x26, 0x3e, 0x7a, 0x96, 0x25, 0xbe, 0x7e, 0xbe, 0x01, 0x3d, 0xeb, 0x69, 0xc6, 0xbd, 0x5c, 0x45, 0xb5, 0xbd, 0x30, 0xd7, 0x02, 0xbe, 0x27, 0x7e, 0x5a, 0x3d, 0x85, 0x5c, 0x16, 0x3e, 0x8f, 0xf9, 0x3d, 0x3d, 0xca, 0x78, 0xc1, 0xbd, 0xa7, 0x9f, 0x8a, 0xbd, 0x53, 0x13, 0xde, 0x3c, 0xa9, 0xa2, 0x69, 0xbd, 0x1b, 0xba, 0x15, 0x3d, 0x06, 0xdb, 0xe6, 0x3c, 0x43, 0x76, 0x87, 0x3d, 0xb7, 0x40, 0xae, 0xbd, 0xe8, 0xc5, 0x3f, 0x3e, 0xef, 0xdc, 0x44, 0xbc, 0x5c, 0x5c, 0x1c, 0x3e, 0x2c, 0x87, 0xea, 0xbd, 0xf6, 0x6b, 0xaf, 0x3c, 0x9e, 0x19, 0xe7, 0xbb, 0x84, 0xbc, 0xf1, 0xbd, 0xd6, 0xba, 0x9e, 0xbd, 0x78, 0x1e, 0x37, 0xbe, 0x7a, 0xa8, 0x81, 0x3d, 0xf7, 0x53, 0x80, 0xbe, 0x85, 0xe4, 0x9d, 0x3d, 0x1a, 0x99, 0xb7, 0xbd, 0x35, 0x53, 0xc2, 0x3d, 0x69, 0x6d, 0x78, 0xbe, 0x6c, 0xcf, 0x33, 0xbe, 0xda, 0xf5, 0x8e, 0x3d, 0x69, 0x26, 0x33, 0xbe, 0xba, 0xd9, 0xa6, 0x3d, 0x12, 0x60, 0xc3, 0xbd, 0xb6, 0x8b, 0x1d, 0xbc, 0x2e, 0x64, 0x03, 0xbe, 0x59, 0x71, 0xe9, 0xbd, 0x6b, 0x83, 0x1a, 0xbe, 0x20, 0x6f, 0x81, 0xbe, 0x96, 0x89, 0xca, 0x3d, 0x24, 0xca, 0xd9, 0x3d, 0x73, 0xc5, 0x24, 0x3e, 0x1d, 0xb9, 0x23, 0x3e, 0xed, 0x69, 0x83, 0x3d, 0xd4, 0x1d, 0x27, 0x3e, 0x32, 0xcb, 0xbf, 0x3d, 0x78, 0x3a, 0x0f, 0xbe, 0x13, 0x01, 0xe1, 0x3c, 0x76, 0xcd, 0x33, 0xbe, 0x54, 0x87, 0xe9, 0x3d, 0x50, 0x6b, 0x9d, 0x3d, 0xc6, 0xb3, 0x28, 0x3e, 0x9e, 0xcf, 0x1d, 0xbe, 0x32, 0xa3, 0x3f, 0xbe, 0x78, 0xee, 0xdc, 0x3d, 0x52, 0x40, 0xe9, 0x3d, 0x69, 0xc5, 0xdd, 0x3d, 0xb3, 0x21, 0x27, 0x3e, 0x03, 0x17, 0x27, 0x3d, 0x3c, 0x52, 0xc2, 0x3c, 0xc9, 0xc4, 0x1c, 0x3e, 0x80, 0x4b, 0x28, 0xbe, 0x70, 0x4f, 0xd1, 0xbd, 0x8d, 0xdf, 0x54, 0xbe, 0x29, 0x51, 0x3c, 0xbe, 0x6e, 0xf1, 0x7c, 0xbe, 0x45, 0x06, 0xbf, 0x3d, 0xcc, 0x58, 0xcc, 0x3d, 0x1d, 0x61, 0xc8, 0x3d, 0x70, 0x01, 0xe8, 0x3d, 0x24, 0x11, 0xdd, 0xbd, 0xfc, 0x07, 0xdb, 0x3c, 0xa7, 0x9b, 0x28, 0x3e, 0xf3, 0x6b, 0x2d, 0xbd, 0xb7, 0xe6, 0xd9, 0xbd, 0x44, 0x65, 0x3f, 0x3d, 0x69, 0x04, 0x91, 0xbd, 0xd9, 0x4f, 0x56, 0x3d, 0x40, 0x5d, 0xe1, 0x3d, 0xac, 0xcf, 0xab, 0xbd, 0x54, 0x15, 0xfa, 0x3d, 0x48, 0xf7, 0x7e, 0xbe, 0x04, 0x52, 0x75, 0xba, 0xe0, 0x5d, 0x94, 0xbd, 0x04, 0xd8, 0xa3, 0x3b, 0x11, 0x11, 0xe7, 0x3c, 0x9b, 0x0d, 0x40, 0x3d, 0xff, 0xf3, 0x07, 0xbe, 0x95, 0x50, 0xad, 0x3d, 0x4e, 0xb7, 0xc8, 0x3d, 0x72, 0xc5, 0x0a, 0xbe, 0xca, 0xb7, 0xfe, 0x3c, 0xe7, 0x5b, 0xbb, 0xbd, 0x48, 0x21, 0x23, 0xbd, 0xe4, 0xef, 0xb5, 0x3d, 0x90, 0x65, 0x20, 0x3e, 0xcd, 0x13, 0xae, 0xbd, 0xe2, 0xa5, 0x00, 0x3e, 0x71, 0x33, 0x54, 0x3e, 0x88, 0x6c, 0x2b, 0xbe, 0xe4, 0xef, 0xf5, 0xbd, 0x3f, 0x72, 0x9b, 0xbd, 0x94, 0xca, 0x99, 0x3d, 0x9c, 0x33, 0x29, 0x3d, 0x1d, 0x59, 0xd8, 0x3d, 0xcd, 0xd6, 0x1a, 0x3e, 0xac, 0xb1, 0x1c, 0xbe, 0xec, 0xa9, 0x4b, 0x3e, 0xbd, 0x36, 0xed, 0xbc, 0xe2, 0xaa, 0x26, 0x3d, 0x20, 0x5d, 0x8f, 0x3d, 0x0d, 0xda, 0x53, 0xbd, 0xfc, 0x72, 0xf3, 0x3d, 0xf3, 0xaf, 0xc7, 0x3d, 0xfb, 0x98, 0x1f, 0xbd, 0x25, 0x4b, 0x32, 0xbe, 0xf2, 0xfc, 0xd1, 0xbd, 0x35, 0xf1, 0x00, 0xbe, 0xa6, 0x24, 0xb1, 0xbd, 0x78, 0x9d, 0xc6, 0xbd, 0x6b, 0x69, 0x0f, 0x3e, 0xec, 0x42, 0xca, 0xbd, 0x66, 0x0b, 0x1a, 0x3d, 0xa7, 0xba, 0xf7, 0xbd, 0x5e, 0xf7, 0x70, 0xbe, 0xa4, 0x33, 0x06, 0x3e, 0x53, 0x18, 0x4a, 0x3e, 0xa9, 0x75, 0x75, 0xbe, 0x3f, 0x6a, 0xd3, 0x3d, 0xfb, 0x91, 0x3e, 0x3e, 0x80, 0x95, 0xd4, 0x3d, 0xb6, 0xfb, 0x3c, 0xbe, 0xff, 0x76, 0x99, 0xbd, 0x52, 0x7f, 0x5d, 0xbe, 0x95, 0xdb, 0xab, 0xbd, 0xbb, 0x36, 0xfd, 0xbd, 0xf8, 0xb4, 0x03, 0xbe, 0x1a, 0x99, 0x40, 0xbc, 0xb7, 0xb9, 0x50, 0xbe, 0xa6, 0x51, 0x99, 0x3d, 0x78, 0x06, 0xa9, 0xbc, 0x2b, 0x9c, 0x23, 0x3e, 0x3b, 0xa5, 0x62, 0x3a, 0xff, 0x8a, 0xcf, 0xbc, 0x69, 0x2c, 0x99, 0x3c, 0x6e, 0x2b, 0xdb, 0xb9, 0x70, 0x93, 0x3c, 0x3d, 0x9d, 0x13, 0x05, 0x3e, 0x44, 0xd4, 0xd0, 0xbd, 0x82, 0x47, 0x9d, 0x3a, 0x20, 0x73, 0x05, 0x3e, 0x55, 0xba, 0x46, 0xbd, 0x38, 0xea, 0xbb, 0xbd, 0x72, 0xa8, 0x59, 0xbe, 0x81, 0xed, 0x32, 0xbe, 0xe0, 0xff, 0x47, 0x3c, 0x65, 0x24, 0x0a, 0x3c, 0xe8, 0x42, 0x40, 0xbe, 0x80, 0x6c, 0x1e, 0xbd, 0x91, 0x19, 0x45, 0xbe, 0x81, 0x88, 0xfd, 0x3d, 0x5a, 0x47, 0x6b, 0xbe, 0xf6, 0xf1, 0xc1, 0xbd, 0x40, 0x52, 0xb1, 0xbd, 0x23, 0x33, 0x1c, 0x3d, 0xb7, 0x43, 0xbd, 0xbd, 0x29, 0xdd, 0x34, 0xbe, 0x88, 0xf9, 0x7a, 0xbc, 0x29, 0xc0, 0x0e, 0x3e, 0x90, 0x60, 0xcb, 0xbd, 0xb8, 0x0f, 0xe3, 0xbc, 0xae, 0xa9, 0x14, 0xbe, 0xbd, 0x38, 0x29, 0xbe, 0x58, 0x0d, 0xd1, 0xbd, 0x99, 0x84, 0xb7, 0xbd, 0x27, 0x3a, 0xfe, 0xbb, 0x2b, 0xaf, 0x4f, 0xbe, 0x7f, 0x14, 0xc4, 0xbd, 0x61, 0xac, 0xf9, 0xbd, 0xfe, 0xea, 0x1a, 0x3e, 0xb6, 0x1e, 0x8d, 0xbd, 0x2a, 0x44, 0xb8, 0x3d, 0x2d, 0x52, 0x0d, 0x3e, 0x43, 0x45, 0xaa, 0xbd, 0x30, 0xc8, 0x5a, 0xbd, 0xd3, 0x06, 0x28, 0xbe, 0xa1, 0x9c, 0x40, 0x3e, 0x22, 0x50, 0x0c, 0xbe, 0xc0, 0xbf, 0x50, 0xbe, 0xa8, 0xdc, 0x54, 0xbe, 0x40, 0x12, 0x01, 0xbe, 0x1b, 0xbe, 0x38, 0x3e, 0xc1, 0xad, 0x11, 0x3e, 0x80, 0x60, 0x92, 0x3d, 0xc6, 0x2a, 0x4a, 0x3e, 0x46, 0x49, 0x87, 0x3b, 0xd8, 0x7f, 0x8b, 0x3d, 0x9e, 0x54, 0x30, 0x3d, 0x8e, 0x78, 0x36, 0x3e, 0x9c, 0x46, 0x04, 0x3e, 0xe1, 0x2f, 0xe4, 0x3c, 0xe9, 0xce, 0x3b, 0xbc, 0xe1, 0x52, 0x66, 0xbe, 0x19, 0xe0, 0x13, 0x3e, 0x71, 0x0d, 0x16, 0x3d, 0x46, 0xdb, 0x62, 0xbd, 0x9b, 0x3e, 0x0e, 0x3e, 0x60, 0x80, 0xe8, 0x3c, 0x52, 0x5c, 0xb3, 0x3d, 0x57, 0x89, 0x8c, 0xbd, 0xc0, 0xd7, 0x18, 0xbe, 0x5c, 0xc9, 0x4a, 0x3e, 0x7f, 0x19, 0xab, 0xbd, 0x48, 0x70, 0x05, 0x3e, 0x8e, 0x77, 0x8c, 0xbe, 0xf4, 0xda, 0x19, 0x3e, 0xa7, 0xa6, 0x22, 0x3d, 0x38, 0xbe, 0x4c, 0xbd, 0xe9, 0xa3, 0xd3, 0xbd, 0xad, 0xa3, 0x03, 0xbe, 0x7f, 0x19, 0xc3, 0x3c, 0xd8, 0x67, 0xb2, 0xbd, 0x3c, 0x83, 0xb3, 0xbd, 0x68, 0xb8, 0xce, 0x3c, 0xe7, 0x47, 0xa4, 0x3b, 0xd2, 0x41, 0x47, 0x3e, 0xee, 0x32, 0x15, 0x3e, 0xb7, 0x7a, 0xb5, 0xbc, 0x42, 0xa1, 0x0e, 0x3d, 0x2e, 0x21, 0x09, 0x3e, 0xd0, 0x18, 0x09, 0xbe, 0x85, 0xf2, 0x55, 0x3e, 0x5f, 0x0b, 0x4c, 0xbe, 0xe7, 0x49, 0x0f, 0xbe, 0xfb, 0x50, 0x73, 0x3d, 0xef, 0x93, 0x04, 0x3e, 0x54, 0x5d, 0x91, 0xbd, 0x76, 0x1c, 0x54, 0x3e, 0x19, 0xca, 0x09, 0xbc, 0xa1, 0x7b, 0x90, 0xbd, 0x52, 0x67, 0x5c, 0xbe, 0x27, 0x6f, 0x15, 0xbe, 0x27, 0xee, 0x36, 0xbd, 0xec, 0x16, 0xd8, 0x3d, 0x60, 0xf1, 0xe4, 0xbd, 0x2f, 0xa0, 0x30, 0xbe, 0xb4, 0xfc, 0xca, 0x3d, 0xb7, 0x26, 0xfd, 0x3d, 0x01, 0xc9, 0x7e, 0xbe, 0xd0, 0x78, 0x88, 0x3d, 0x1c, 0x6a, 0x5d, 0xbd, 0x94, 0xed, 0x60, 0xbe, 0xde, 0x2a, 0x04, 0xbd, 0xca, 0x6d, 0x8e, 0xbd, 0xae, 0xd3, 0x50, 0x3e, 0x05, 0x1a, 0x50, 0xbd, 0xda, 0xa1, 0x18, 0xbe, 0xb6, 0x04, 0x3d, 0xbe, 0x60, 0x71, 0xb5, 0xbd, 0x6a, 0x46, 0x51, 0x3d, 0x0a, 0x80, 0x43, 0xbe, 0x9d, 0xc3, 0xae, 0xbe, 0x02, 0xa8, 0x95, 0x3b, 0xd7, 0x43, 0x5e, 0xbe, 0x34, 0x58, 0x6a, 0xbe, 0x5c, 0x8f, 0xc8, 0xbc, 0xf6, 0xfb, 0x3d, 0xbe, 0xf0, 0xeb, 0x42, 0x3e, 0x06, 0x57, 0xfc, 0x3a, 0xb7, 0xb5, 0x3c, 0xbd, 0x8b, 0x75, 0x21, 0xbe, 0x06, 0xbb, 0x3d, 0x3e, 0x85, 0x28, 0xe9, 0x3d, 0xb1, 0x69, 0x51, 0xbc, 0x4e, 0x57, 0x34, 0xbe, 0x2c, 0x0a, 0xd0, 0xbc, 0x19, 0x16, 0xf1, 0xbd, 0xbc, 0xae, 0x97, 0x3d, 0x6a, 0xcc, 0x72, 0x3d, 0xd8, 0x8f, 0x80, 0x3d, 0x4e, 0xa4, 0x59, 0x3d, 0x2e, 0x19, 0x61, 0x3d, 0xe9, 0x7f, 0xed, 0x3c, 0xcf, 0x15, 0xa1, 0x3d, 0x5c, 0xfa, 0x70, 0xbc, 0x8c, 0xdd, 0x00, 0x3e, 0x5e, 0x45, 0x69, 0xbd, 0xdf, 0xac, 0x02, 0x3e, 0x3b, 0x5d, 0xca, 0x3d, 0xd2, 0x6d, 0xb3, 0xbd, 0xb3, 0x43, 0x98, 0xbd, 0x27, 0x85, 0x9e, 0x3c, 0xdb, 0x35, 0xb3, 0x3d, 0xc2, 0xf8, 0x38, 0xbd, 0x34, 0x11, 0xb0, 0x3c, 0x9b, 0x9a, 0x8a, 0x3c, 0x0f, 0x03, 0x33, 0x3d, 0xff, 0xdc, 0xba, 0x3c, 0xff, 0x4a, 0xf7, 0x3d, 0x99, 0x1a, 0x30, 0x3d, 0x0b, 0xd2, 0x47, 0x3d, 0x3d, 0xc4, 0x6e, 0xbe, 0x30, 0x78, 0xeb, 0xbd, 0x20, 0xad, 0x02, 0x3d, 0x58, 0x75, 0x33, 0xbe, 0x58, 0xee, 0x51, 0xbe, 0xee, 0x30, 0xf8, 0x3d, 0x31, 0xa3, 0x90, 0x3c, 0x8a, 0x3e, 0xf7, 0xbd, 0xeb, 0xa8, 0xf3, 0xbc, 0x70, 0xcc, 0x1a, 0xbe, 0x7b, 0x0e, 0x37, 0xbd, 0x3b, 0xeb, 0x47, 0x3d, 0xb3, 0x2b, 0x89, 0x3d, 0xa8, 0x85, 0x30, 0x3e, 0xc5, 0x00, 0x53, 0xbc, 0xf3, 0xb4, 0x5b, 0x3e, 0xa3, 0x08, 0xba, 0xbc, 0xdd, 0x97, 0x06, 0x3e, 0x42, 0x25, 0x1d, 0xbe, 0x84, 0x01, 0x5e, 0xbe, 0xe5, 0x3a, 0x4f, 0xbe, 0x2f, 0x44, 0x25, 0xbe, 0x21, 0x2b, 0xab, 0x3d, 0xc5, 0x11, 0xe4, 0xbc, 0x29, 0xb6, 0x49, 0xbd, 0x6e, 0x96, 0xc8, 0x3d, 0x51, 0xab, 0x9b, 0xbd, 0x95, 0x80, 0xa1, 0xbd, 0x1a, 0x35, 0xb8, 0x3d, 0xae, 0x9c, 0xa5, 0xbc, 0xc1, 0xb8, 0x2b, 0x3e, 0xd6, 0x68, 0x4f, 0xbe, 0x61, 0xbd, 0xa9, 0xbd, 0x56, 0x86, 0xea, 0xbc, 0x82, 0x84, 0xe0, 0xbc, 0xe5, 0xb7, 0xf1, 0x3d, 0xc0, 0x73, 0x57, 0x3d, 0xbe, 0x2d, 0x67, 0xbe, 0x6a, 0xf8, 0x9f, 0x3d, 0xf2, 0x74, 0xad, 0x3d, 0xa9, 0x13, 0x11, 0xbd, 0xb1, 0xea, 0xd8, 0xbd, 0x7e, 0x59, 0x82, 0xbb, 0x23, 0x9d, 0xcb, 0x3d, 0x12, 0xd0, 0x9d, 0xbc, 0x6c, 0x68, 0xc3, 0xbc, 0x0f, 0x23, 0x00, 0xbe, 0xf3, 0x7d, 0xef, 0xbc, 0xa8, 0x95, 0x2c, 0x3e, 0x2c, 0x5c, 0x5a, 0xbd, 0xe6, 0xa0, 0x85, 0xbd, 0x83, 0xd7, 0xf6, 0x3d, 0xb2, 0x30, 0x1f, 0x3e, 0x65, 0x02, 0xd4, 0x3d, 0x96, 0x6c, 0x9b, 0xbd, 0x1c, 0x90, 0x52, 0xbc, 0xd5, 0x0b, 0xd3, 0x3d, 0x19, 0x8a, 0x20, 0x3d, 0x71, 0xe2, 0xf6, 0xbd, 0x5d, 0x26, 0xd5, 0xbd, 0x46, 0x55, 0xf8, 0xbd, 0xb3, 0x9d, 0x0f, 0x3e, 0xc4, 0x57, 0x0f, 0xbe, 0xf1, 0xc9, 0xa8, 0xbd, 0x1b, 0xa8, 0xbd, 0xbd, 0x08, 0x5c, 0xd2, 0xbd, 0x95, 0x83, 0x34, 0xbe, 0x7c, 0xc4, 0x83, 0xbc, 0x4c, 0x4b, 0xb4, 0xbd, 0xf6, 0xaa, 0x40, 0xbe, 0xc2, 0x5e, 0x19, 0x3d, 0x5f, 0x36, 0x72, 0x3e, 0x01, 0x27, 0xdd, 0xbd, 0xf5, 0x6f, 0x37, 0x3c, 0xaf, 0xa0, 0x03, 0x3d, 0x8f, 0x2d, 0x45, 0x3e, 0x93, 0x6e, 0x0f, 0x3e, 0x38, 0x3f, 0x03, 0x3e, 0x35, 0x2d, 0x50, 0xbe, 0xa4, 0x3e, 0x70, 0x3d, 0xa5, 0xb7, 0x23, 0xbe, 0xa3, 0x61, 0x4c, 0xbd, 0xce, 0x6b, 0x26, 0x3e, 0x7a, 0xf5, 0x49, 0xbd, 0x03, 0xa4, 0x4f, 0xbc, 0x84, 0x56, 0xbd, 0x3d, 0xb1, 0x03, 0x55, 0xbe, 0xa6, 0x82, 0x1c, 0xbe, 0xda, 0x2e, 0xce, 0xbd, 0xf0, 0x74, 0x91, 0xbc, 0x22, 0x14, 0x07, 0xbd, 0x8f, 0x2d, 0x9c, 0xbc, 0x7f, 0xbf, 0x36, 0xbe, 0x72, 0x54, 0xcb, 0x3d, 0xea, 0x66, 0x7e, 0xbd, 0x68, 0x81, 0xe1, 0x3d, 0xd6, 0xda, 0x03, 0xbe, 0x93, 0x7c, 0x81, 0x3d, 0xcb, 0x4a, 0x9d, 0x3c, 0xb8, 0x3e, 0xe8, 0xba, 0x0b, 0x32, 0x93, 0xbc, 0x8f, 0x2b, 0x62, 0x3e, 0x40, 0xf6, 0x4c, 0x3d, 0xe1, 0xd2, 0x3c, 0xbe, 0xfa, 0x7b, 0x31, 0xbe, 0xb7, 0xe9, 0x50, 0x3d, 0x42, 0x09, 0x84, 0x3a, 0x89, 0xd7, 0x1c, 0x3e, 0x05, 0xe6, 0x16, 0x3e, 0xe2, 0xc8, 0x68, 0xbc, 0x40, 0xe3, 0xc3, 0x3c, 0x9d, 0xf4, 0x86, 0xbd, 0xe6, 0x31, 0x5c, 0xbe, 0x76, 0xc9, 0x19, 0x3e, 0xe1, 0xa3, 0xb6, 0x3d, 0xbd, 0xf7, 0x0e, 0xbe, 0x74, 0x66, 0xe0, 0xbd, 0x37, 0xfa, 0x1e, 0xbc, 0x34, 0x72, 0x66, 0x3c, 0x01, 0x81, 0xf3, 0x3d, 0x9d, 0x49, 0xb4, 0x3c, 0x11, 0x2c, 0x13, 0xbe, 0x6e, 0xd4, 0x92, 0xbe, 0xc5, 0xc6, 0xf2, 0xbd, 0x72, 0xcc, 0xef, 0xbd, 0xa0, 0x9f, 0x70, 0xbd, 0x1c, 0x67, 0x5e, 0xbe, 0x64, 0xe7, 0x4f, 0xbe, 0xa9, 0x7c, 0x97, 0xbd, 0x7c, 0xbc, 0x91, 0x3d, 0x71, 0x4f, 0xf7, 0xbc, 0xbb, 0xce, 0x92, 0x3d, 0x2f, 0x5c, 0xe5, 0xbd, 0x87, 0xcb, 0x18, 0xbe, 0x0c, 0x11, 0xc7, 0xbc, 0xc9, 0xb0, 0x41, 0x3c, 0x2a, 0x6e, 0x06, 0xbe, 0xdb, 0x61, 0x3a, 0x3e, 0xf1, 0x45, 0x8a, 0x3c, 0xc9, 0x4c, 0x85, 0x3d, 0xaa, 0xd6, 0x35, 0x3e, 0x74, 0x77, 0x99, 0x3d, 0x74, 0xd6, 0x05, 0x3e, 0x72, 0xb8, 0x3d, 0xbe, 0xd3, 0x0d, 0x8d, 0x3c, 0xa2, 0xa5, 0x30, 0x3e, 0x5d, 0xf4, 0x13, 0xbc, 0xf3, 0x0e, 0x22, 0x3e, 0xcc, 0xf8, 0xb0, 0xbd, 0x1e, 0xed, 0x01, 0xbe, 0x7f, 0x3d, 0x23, 0xbd, 0x32, 0x91, 0x29, 0xbe, 0x7a, 0x5a, 0xea, 0xbd, 0xc4, 0x1e, 0x50, 0xbe, 0xf4, 0xcf, 0x0f, 0x3e, 0x7c, 0x98, 0x4b, 0xbe, 0xb2, 0xfa, 0x00, 0xbe, 0x6a, 0x9e, 0x6c, 0xbe, 0xde, 0x1e, 0x41, 0x3d, 0x99, 0x01, 0x2c, 0xbe, 0x96, 0x9e, 0x0e, 0xbc, 0x9a, 0x70, 0x6b, 0xbe, 0xc0, 0x48, 0x08, 0xbd, 0x28, 0xff, 0x6b, 0x3d, 0xc4, 0x2f, 0xa9, 0xbd, 0x61, 0x3d, 0xdb, 0x3d, 0xdb, 0x69, 0x21, 0x3e, 0x40, 0x77, 0x43, 0xbe, 0xf9, 0x84, 0x9c, 0xbd, 0x95, 0x11, 0xb3, 0xbd, 0x65, 0x8d, 0x87, 0x3d, 0xc2, 0x2b, 0xe1, 0x3c, 0x86, 0xc3, 0xb9, 0x3d, 0x55, 0xe1, 0x38, 0xbd, 0x4c, 0x8f, 0x03, 0x3e, 0xd2, 0xd7, 0x2b, 0x3a, 0x9b, 0xd0, 0x32, 0x3e, 0x0f, 0x45, 0x98, 0x3c, 0x5f, 0xe3, 0x5c, 0x3c, 0xef, 0x5e, 0x8b, 0x39, 0xae, 0x30, 0x35, 0xbe, 0x93, 0xb6, 0x29, 0xbe, 0xa9, 0x6a, 0x29, 0xbd, 0x7b, 0x8d, 0x3a, 0xbe, 0xcc, 0x32, 0xf4, 0x3c, 0xea, 0x60, 0x4b, 0xbd, 0x4b, 0x42, 0x5b, 0xbe, 0xdc, 0x1a, 0x1a, 0xbe, 0xdc, 0xc3, 0xd3, 0xbd, 0x7c, 0x02, 0x74, 0xbc, 0x4d, 0x4b, 0x66, 0xbe, 0xb9, 0xca, 0x67, 0xbd, 0x94, 0x85, 0x69, 0x3d, 0x1f, 0xfe, 0x18, 0x3d, 0x1a, 0x24, 0x4e, 0xbb, 0xd0, 0xd3, 0x20, 0x3e, 0xe0, 0xcb, 0x6a, 0xbd, 0x96, 0xf1, 0x1d, 0x3e, 0x55, 0x00, 0x21, 0x3e, 0x4a, 0x1e, 0x54, 0xbe, 0x57, 0x17, 0xbe, 0x3d, 0x6e, 0x27, 0x5b, 0xbe, 0x8e, 0x42, 0xe0, 0xbd, 0x11, 0x02, 0xea, 0x3c, 0xff, 0x72, 0x22, 0xbe, 0x92, 0x10, 0x82, 0x3d, 0x8f, 0x16, 0x12, 0x3e, 0x76, 0x31, 0x30, 0xbe, 0x1c, 0xe8, 0xe3, 0x3d, 0xdc, 0x14, 0x19, 0x3b, 0x99, 0xcf, 0xa6, 0xbd, 0x54, 0x2d, 0x3f, 0x3e, 0x69, 0xdc, 0xd4, 0x3d, 0xc4, 0xd0, 0x48, 0x3e, 0xfb, 0x55, 0xb4, 0xbc, 0x41, 0xb7, 0xf4, 0x3d, 0xda, 0xf3, 0x54, 0xbd, 0xd8, 0x7a, 0xcf, 0xbd, 0xd5, 0xae, 0x42, 0x3e, 0x46, 0xe4, 0x32, 0x3e, 0x2a, 0xda, 0xdc, 0xbd, 0x93, 0xb3, 0x3b, 0x3e, 0x82, 0x15, 0xe9, 0xbb, 0x1e, 0x41, 0x8f, 0x3d, 0xd8, 0xe4, 0x31, 0xbe, 0x3a, 0xd9, 0xb3, 0xbd, 0xb2, 0xce, 0x4e, 0xbe, 0x9c, 0x7a, 0x06, 0x3d, 0x1c, 0x05, 0x3e, 0xbe, 0x43, 0x7e, 0x37, 0x3d, 0x93, 0x95, 0xeb, 0x3d, 0x89, 0x0c, 0x23, 0xbd, 0xe9, 0x10, 0x1e, 0x3e, 0x65, 0x3b, 0x34, 0x3e, 0x4c, 0xd2, 0x59, 0xbe, 0xcf, 0xdf, 0xf4, 0xbd, 0x57, 0x08, 0x01, 0x3b, 0x8a, 0x7e, 0x75, 0xbc, 0x16, 0x0c, 0x13, 0xbe, 0xe0, 0x5d, 0xb7, 0xbd, 0xd7, 0x02, 0x5a, 0xbe, 0x03, 0xf5, 0x76, 0x3c, 0x3b, 0xe6, 0x7d, 0x3d, 0x23, 0xa9, 0xa5, 0xbd, 0x06, 0x89, 0x2b, 0x3e, 0x0b, 0xf9, 0xed, 0x3d, 0x6a, 0xc6, 0x16, 0xbe, 0xc6, 0x4e, 0x38, 0xbe, 0x83, 0x54, 0xdf, 0x3d, 0x76, 0x9a, 0x28, 0xbe, 0xf1, 0x6d, 0x78, 0x3d, 0xda, 0x9f, 0xd4, 0xbd, 0xbf, 0x3d, 0x29, 0x3d, 0x13, 0xa9, 0x92, 0xbd, 0x65, 0xf1, 0xc1, 0xbd, 0x70, 0x7b, 0x22, 0x3d, 0x85, 0x8e, 0x07, 0x3e, 0x69, 0x4d, 0x0a, 0xbe, 0x21, 0xff, 0xf4, 0xbd, 0x96, 0x44, 0x6b, 0x3e, 0x0a, 0x45, 0x06, 0x3e, 0xc6, 0xd1, 0x3b, 0xbe, 0xe9, 0xf5, 0xa1, 0x3d, 0xbb, 0x61, 0x32, 0xbe, 0x96, 0xd8, 0x69, 0xbe, 0x49, 0x1c, 0x3d, 0xbe, 0xff, 0xe9, 0xc4, 0xbd, 0xae, 0x42, 0x35, 0xbe, 0xfb, 0xf2, 0x20, 0x3d, 0x54, 0x86, 0x7d, 0xbc, 0x1d, 0x3b, 0x6b, 0xbe, 0x01, 0x07, 0x0e, 0xbd, 0xde, 0x40, 0xec, 0x3c, 0x0d, 0xb3, 0x40, 0x3e, 0x5e, 0x43, 0xb0, 0x3c, 0x15, 0xad, 0x31, 0xbe, 0xef, 0xe8, 0x0f, 0x3e, 0x87, 0x66, 0x5e, 0x3d, 0x97, 0xd0, 0x81, 0x3d, 0x15, 0x0e, 0x40, 0x3d, 0xc0, 0x2e, 0xf2, 0x3d, 0x42, 0xd8, 0x23, 0xbe, 0xa0, 0x15, 0x39, 0x3e, 0x1e, 0x0a, 0xa0, 0x3b, 0x21, 0x62, 0xe3, 0x3d, 0x8a, 0x48, 0x01, 0xbe, 0xe0, 0x79, 0x22, 0x3c, 0xe0, 0xdf, 0x9b, 0x3b, 0x07, 0xd6, 0x5c, 0x3e, 0x00, 0x10, 0xf8, 0xba, 0x2a, 0x7c, 0x97, 0x3d, 0xf3, 0x62, 0x4e, 0xbe, 0x7e, 0x04, 0x07, 0xbe, 0x42, 0x92, 0xe4, 0x3d, 0x00, 0x66, 0x57, 0xbe, 0x96, 0x9f, 0x05, 0xbe, 0xf1, 0xd8, 0x14, 0xbe, 0x78, 0x2d, 0xb8, 0x3c, 0x80, 0x90, 0x0d, 0x3b, 0xb8, 0x9d, 0xad, 0x3c, 0x10, 0xa2, 0xdb, 0xbc, 0xbe, 0x70, 0xd4, 0xbd, 0x2a, 0x30, 0xe1, 0x3d, 0x28, 0x1e, 0xd3, 0xbc, 0x14, 0xec, 0x18, 0xbd, 0xb3, 0x05, 0x2e, 0xbe, 0x24, 0x4e, 0x0b, 0xbe, 0xb4, 0x5c, 0x69, 0x3d, 0xef, 0x55, 0xbc, 0xbd, 0x5c, 0x25, 0x8b, 0xbd, 0x54, 0xce, 0xa6, 0xbd, 0x65, 0xd8, 0x18, 0xbe, 0x01, 0x71, 0x0f, 0x3e, 0x2b, 0x16, 0x34, 0x3e, 0xea, 0x6f, 0xf7, 0x3d, 0xa4, 0xc9, 0x22, 0xbe, 0xbe, 0x47, 0xad, 0x3d, 0xcc, 0x20, 0x37, 0xbe, 0x60, 0xf2, 0x39, 0xbc, 0x78, 0x52, 0x49, 0xbd, 0x90, 0x73, 0x94, 0x3c, 0x3e, 0x95, 0x33, 0xbe, 0x8d, 0x29, 0x5b, 0x3e, 0x00, 0x20, 0xc7, 0x37, 0x8e, 0x0a, 0xaf, 0x3d, 0x7a, 0xde, 0xec, 0xbd, 0xec, 0xe2, 0x5a, 0x3d, 0x81, 0x1c, 0xc6, 0xbd, 0x92, 0x7d, 0xb7, 0xbd, 0x5c, 0x95, 0xba, 0xbd, 0x98, 0xa6, 0xec, 0x3c, 0x7c, 0x16, 0x5f, 0xbd, 0x8f, 0x66, 0x5a, 0x3e, 0x8a, 0xe8, 0xf6, 0xbd, 0x1c, 0x6c, 0x54, 0xbd, 0xc0, 0x8b, 0xef, 0xbb, 0x3a, 0xaa, 0x06, 0xbe, 0x6b, 0x99, 0x37, 0xbe, 0xe0, 0x83, 0x6d, 0xbc, 0xce, 0x6e, 0xe7, 0x3d, 0x23, 0x56, 0xff, 0xbd, 0x1f, 0x33, 0x11, 0x3e, 0x56, 0xd2, 0x1b, 0xbe, 0x53, 0x2c, 0x0e, 0x3e, 0x00, 0x04, 0x06, 0xba, 0xbd, 0xaf, 0x53, 0x3e, 0x9c, 0x89, 0x53, 0xbe, 0x25, 0x87, 0xef, 0xbd, 0x62, 0xa0, 0x8b, 0x3d, 0xba, 0xad, 0x9b, 0x3d, 0xf5, 0x00, 0x9f, 0xbd, 0xf1, 0x3a, 0xe2, 0xbd, 0xab, 0x8e, 0x09, 0x3e, 0x59, 0xb9, 0x01, 0x3c, 0x27, 0xdd, 0x8a, 0xbd, 0xb5, 0xc0, 0xc9, 0xbc, 0x5a, 0x7a, 0x21, 0xbd, 0xde, 0xb7, 0xdc, 0x3d, 0x18, 0x26, 0x75, 0x3c, 0xfc, 0x8b, 0xa9, 0xbd, 0x3c, 0x41, 0xb5, 0xbd, 0xad, 0x87, 0x00, 0x3c, 0x1b, 0x20, 0x2b, 0x3e, 0x3c, 0x4c, 0x17, 0xbd, 0xb5, 0x2f, 0x02, 0xbe, 0x1c, 0x75, 0x0f, 0x3e, 0x9f, 0xeb, 0xaa, 0xbd, 0x7d, 0x32, 0x94, 0xbd, 0x87, 0x6a, 0xab, 0xbd, 0x1e, 0x45, 0xe4, 0xbd, 0xc6, 0xca, 0x22, 0x3e, 0x8f, 0x15, 0x24, 0xbc, 0x41, 0xc9, 0xf3, 0xbd, 0x22, 0x4e, 0x28, 0x3e, 0x1c, 0xd6, 0xde, 0xbd, 0xb3, 0x3a, 0xab, 0xbd, 0x0f, 0xd9, 0x17, 0x3e, 0x85, 0xef, 0x34, 0xbe, 0xc0, 0x9a, 0x56, 0xbe, 0x6b, 0xc4, 0x26, 0x3e, 0xdd, 0x09, 0x2e, 0xbe, 0x74, 0xd1, 0xa5, 0x3c, 0xdc, 0x18, 0x44, 0x3b, 0xc2, 0x2b, 0x2d, 0x3d, 0x28, 0x3d, 0x34, 0xbe, 0xf2, 0x87, 0x7b, 0xbc, 0x5c, 0xa2, 0xcd, 0xbd, 0x98, 0xe1, 0x2d, 0x3d, 0xa0, 0x3d, 0x1b, 0xbe, 0x8d, 0xae, 0xad, 0x3c, 0x68, 0x7a, 0x0c, 0xbe, 0x9e, 0xe7, 0x49, 0x3e, 0x00, 0x86, 0x0a, 0xbe, 0xe2, 0xcb, 0x2e, 0x3e, 0xe8, 0xf8, 0x57, 0xbe, 0x0d, 0xb3, 0x85, 0x3d, 0x06, 0xb8, 0x39, 0xbc, 0x4d, 0xe1, 0x2b, 0x3e, 0xde, 0xf3, 0x09, 0xbe, 0x37, 0xae, 0x60, 0xbe, 0x58, 0xfe, 0x45, 0xbe, 0x5e, 0x20, 0x21, 0xbe, 0x4f, 0xcf, 0x89, 0xbc, 0x13, 0xb0, 0xa2, 0x3d, 0x9b, 0x53, 0x4b, 0x3e, 0x2f, 0x63, 0x06, 0xbe, 0x20, 0x74, 0xc1, 0x3c, 0x47, 0xd9, 0xe8, 0xbc, 0xe1, 0xd4, 0x42, 0x3e, 0x44, 0x8d, 0x46, 0xbd, 0x3c, 0x19, 0xaa, 0xbc, 0x9f, 0xd9, 0x18, 0xbe, 0x5a, 0x92, 0xe3, 0xbb, 0x6b, 0x6f, 0x87, 0xbc, 0x0f, 0xff, 0x0a, 0x3e, 0x9d, 0x6b, 0x11, 0xbe, 0x1d, 0x83, 0xa0, 0x3d, 0xc7, 0x03, 0x2d, 0x3e, 0xec, 0x39, 0x0d, 0x3e, 0x31, 0xcf, 0x7c, 0x3c, 0xa7, 0x7e, 0x01, 0xbd, 0x76, 0x9b, 0xaf, 0xbd, 0x43, 0xa0, 0x2e, 0xbe, 0x1a, 0x09, 0x0b, 0x3e, 0xd5, 0x48, 0xee, 0xbb, 0xb7, 0x37, 0x63, 0x3e, 0xb8, 0x85, 0xe0, 0x3d, 0x14, 0x08, 0x96, 0x3d, 0x3e, 0xac, 0x07, 0x3e, 0x4c, 0x9c, 0x28, 0xbe, 0x53, 0xa1, 0x14, 0xbe, 0x50, 0x95, 0xa8, 0x3d, 0x8b, 0xa9, 0x87, 0xbe, 0x18, 0x8c, 0x02, 0x3e, 0x16, 0xdb, 0x37, 0xbe, 0xf3, 0x53, 0x72, 0xbe, 0x0f, 0xd3, 0xa3, 0xbd, 0x4e, 0x93, 0x98, 0xbd, 0xfb, 0x45, 0x00, 0x3d, 0xe0, 0xb6, 0x68, 0xbe, 0x2f, 0xbc, 0xb6, 0x3d, 0xca, 0x75, 0x36, 0xbe, 0x4c, 0x77, 0x92, 0xbd, 0xa7, 0xe8, 0x4a, 0x3d, 0xca, 0x78, 0xe5, 0xbc, 0xac, 0xa8, 0xda, 0x3d, 0x8e, 0x87, 0x9d, 0xbe, 0x41, 0xdf, 0x99, 0xbe, 0xe5, 0x0a, 0xa1, 0x3d, 0xf4, 0x47, 0x9a, 0x3c, 0x50, 0x13, 0x8c, 0x3d, 0xcc, 0x5e, 0x24, 0xbe, 0x9c, 0xa8, 0x59, 0xbd, 0xae, 0x01, 0x02, 0xbe, 0xae, 0x93, 0xec, 0x3c, 0x4f, 0x78, 0x74, 0xbb, 0xb3, 0xba, 0xed, 0xbd, 0x88, 0xf6, 0x0b, 0x3c, 0x13, 0xa3, 0x1c, 0x3c, 0x05, 0x52, 0x1a, 0x3e, 0xab, 0xf6, 0x23, 0xbe, 0x8d, 0xf7, 0x5b, 0xbd, 0x1a, 0x05, 0xaa, 0xbd, 0xa1, 0x12, 0x4e, 0x3c, 0xb1, 0x7f, 0x7c, 0xbe, 0x6e, 0x12, 0x79, 0xbd, 0x48, 0xac, 0x3a, 0x3e, 0xb9, 0xd5, 0xbc, 0xbb, 0x1c, 0xb1, 0x5a, 0x3e, 0x69, 0xf9, 0x3c, 0xbe, 0x2d, 0xbb, 0x44, 0xbc, 0x33, 0x42, 0x42, 0x3e, 0x6e, 0x9b, 0xa5, 0xbc, 0x6d, 0xca, 0x4c, 0x3e, 0xf9, 0x3c, 0xfe, 0xbd, 0x52, 0x61, 0x90, 0xbd, 0x70, 0x7d, 0xbb, 0x3d, 0x29, 0xfe, 0xe0, 0x3d, 0x64, 0xf8, 0x21, 0x3e, 0x94, 0x3c, 0x72, 0xbe, 0x6e, 0x19, 0x58, 0x3c, 0xf5, 0x81, 0x0c, 0x3e, 0xa9, 0x74, 0x70, 0xbd, 0xb0, 0x49, 0x0a, 0xbe, 0x73, 0x6f, 0x05, 0xbe, 0xb2, 0xef, 0x19, 0xbe, 0x5d, 0x0f, 0x08, 0xbe, 0x61, 0xb5, 0x1f, 0xbe, 0xcd, 0xce, 0xf8, 0xbd, 0xb8, 0x95, 0x18, 0xbe, 0x3a, 0xab, 0xa5, 0x3d, 0xe6, 0x3d, 0x54, 0xba, 0x58, 0xc6, 0xb5, 0xbd, 0xd1, 0xf1, 0xc6, 0xbd, 0x9a, 0x70, 0xe4, 0x3d, 0x61, 0x57, 0xf6, 0xbc, 0x4d, 0x3a, 0xc6, 0xbd, 0x43, 0x18, 0xfe, 0x3d, 0xfb, 0xe9, 0x10, 0x3e, 0x2a, 0xf6, 0x30, 0x3d, 0xdd, 0x0b, 0x40, 0x3e, 0x35, 0x89, 0x2d, 0xbe, 0x72, 0xdf, 0xc0, 0xbd, 0xb1, 0x3d, 0x3a, 0xbd, 0x79, 0x8c, 0x25, 0x3d, 0x78, 0x1f, 0x55, 0x3e, 0x13, 0x22, 0x4d, 0xbb, 0xa5, 0x8d, 0x09, 0x3e, 0x2a, 0xdf, 0x99, 0xbd, 0xdd, 0x92, 0xff, 0x3c, 0xb8, 0xb3, 0x90, 0x3d, 0x4f, 0xcb, 0x65, 0xbe, 0x13, 0xaa, 0xde, 0xbd, 0xcc, 0x15, 0xd4, 0xbd, 0xa3, 0x27, 0x21, 0x3e, 0x13, 0xc7, 0xca, 0x3d, 0xc9, 0x92, 0x3f, 0x3d, 0xc8, 0x25, 0x3a, 0xbe, 0xbf, 0xc6, 0xd7, 0x3c, 0xc6, 0x6e, 0x25, 0x3e, 0x9c, 0x1f, 0x8f, 0x3d, 0x99, 0x1f, 0x92, 0xba, 0xd1, 0x61, 0x30, 0xbe, 0x1e, 0x23, 0x8c, 0x3d, 0x90, 0x41, 0x21, 0x3e, 0x9a, 0xba, 0x54, 0xbe, 0x49, 0x84, 0x0e, 0xbd, 0x07, 0xd8, 0x6e, 0xbe, 0xa6, 0xd4, 0xd7, 0xbd, 0xf4, 0x20, 0xef, 0xbd, 0x88, 0xc8, 0x3b, 0xbe, 0x7b, 0x0f, 0x6e, 0x3d, 0xad, 0x76, 0x66, 0xbe, 0x77, 0x53, 0x06, 0x3d, 0x17, 0x52, 0x1f, 0xbe, 0x8f, 0x13, 0x3b, 0x3d, 0x1c, 0x22, 0xe9, 0x3d, 0x28, 0x32, 0x17, 0xba, 0xc4, 0x92, 0x21, 0x3e, 0x5d, 0xf6, 0x80, 0xbd, 0xdb, 0x6b, 0x1d, 0x3a, 0xc6, 0x54, 0xf1, 0x3d, 0x3b, 0xb7, 0x14, 0xbe, 0xbd, 0xfc, 0x0b, 0x3d, 0xe5, 0xc7, 0x6e, 0x3d, 0x31, 0xcf, 0x5a, 0x3d, 0x1b, 0x4f, 0x92, 0xbd, 0x79, 0x85, 0x6c, 0x3d, 0xa6, 0x84, 0x8e, 0x3d, 0xb2, 0x00, 0x97, 0xbc, 0xd0, 0xe9, 0xbb, 0x3d, 0xc2, 0xd8, 0x54, 0xbc, 0xe2, 0x02, 0x3b, 0x3d, 0xd3, 0x8b, 0x98, 0xbd, 0xd5, 0x8d, 0x98, 0xbd, 0x33, 0xb0, 0x91, 0xbe, 0xd8, 0x7e, 0x18, 0xbe, 0x2f, 0xb2, 0xd3, 0x3d, 0x91, 0x3e, 0x35, 0xbd, 0xf1, 0x25, 0x39, 0xbd, 0x9b, 0x2e, 0x07, 0x3e, 0x33, 0x4e, 0xd1, 0xbd, 0x43, 0x63, 0x3a, 0xbd, 0x11, 0x1f, 0x94, 0xbe, 0xf8, 0x36, 0xce, 0xbd, 0x3b, 0x41, 0x64, 0xbe, 0x01, 0x51, 0x9c, 0xbc, 0x89, 0xc3, 0x19, 0xbe, 0x8f, 0xc1, 0x58, 0xbd, 0xe9, 0x06, 0x4b, 0xbe, 0x63, 0x74, 0x94, 0xbb, 0x74, 0x5c, 0xf3, 0x3d, 0x5c, 0xe4, 0x5f, 0x3d, 0x42, 0xc5, 0x83, 0xbe, 0xfb, 0xf8, 0x0b, 0xbd, 0x82, 0xbb, 0x0e, 0x3e, 0x79, 0x9f, 0x03, 0xbd, 0x96, 0xf4, 0xa8, 0xbd, 0x2a, 0x77, 0xb4, 0x3d, 0x0d, 0x7c, 0x8e, 0x3d, 0x72, 0x9a, 0x74, 0xbe, 0xdf, 0x35, 0x37, 0x3d, 0x2e, 0x8a, 0xd1, 0x3d, 0x1f, 0x80, 0x0c, 0x3e, 0x57, 0xcc, 0x13, 0x3d, 0x09, 0x2f, 0x61, 0xbd, 0x2e, 0x3b, 0x8e, 0x3d, 0x3b, 0x0a, 0x5f, 0xbe, 0xf9, 0x99, 0x8e, 0xbd, 0x27, 0x75, 0xbd, 0x3b, 0x1f, 0x0a, 0xcb, 0xbd, 0x3a, 0x93, 0xfd, 0x3d, 0xae, 0x53, 0xec, 0x3d, 0x57, 0x78, 0x19, 0xbd, 0x9d, 0x93, 0xb8, 0xbd, 0x5f, 0xde, 0x15, 0x3e, 0x66, 0x51, 0x03, 0xbe, 0xab, 0xdf, 0xf5, 0x3d, 0xc1, 0x90, 0x4f, 0xbd, 0xb6, 0x5b, 0xbf, 0x3c, 0x4f, 0x51, 0xd6, 0x3b, 0x8c, 0x64, 0x4f, 0xbe, 0x26, 0x57, 0x1e, 0xbe, 0xdd, 0x4e, 0x0c, 0xbe, 0xe2, 0x94, 0xc9, 0x3c, 0x0f, 0xc7, 0x55, 0xbd, 0xd0, 0x96, 0x0a, 0x3e, 0x0f, 0xec, 0x31, 0x3d, 0xa1, 0x78, 0x8b, 0xbd, 0xd2, 0x6c, 0xf0, 0x3d, 0x20, 0x28, 0xb4, 0x3d, 0x6d, 0xde, 0xce, 0x3d, 0x3c, 0xa9, 0xb6, 0x3d, 0xac, 0xdf, 0x07, 0xbe, 0x37, 0x96, 0x29, 0xbe, 0x1d, 0x1c, 0x2d, 0xbd, 0xa6, 0x4a, 0x80, 0x3d, 0x65, 0x58, 0x3d, 0x3e, 0x9e, 0xde, 0x69, 0xbd, 0x56, 0xc3, 0x16, 0x3e, 0xaa, 0x5b, 0xc5, 0xbd, 0x7c, 0x6f, 0xb4, 0x3d, 0x7c, 0xe0, 0x32, 0xbe, 0xf4, 0xbb, 0xb3, 0xbd, 0x43, 0xc8, 0x0a, 0xbe, 0x6c, 0xa3, 0xd4, 0x3d, 0xdb, 0x6b, 0x4c, 0x3e, 0xd5, 0x53, 0xaa, 0xbd, 0x67, 0xa3, 0x54, 0xbe, 0x40, 0xec, 0x3f, 0xbe, 0x3d, 0xb7, 0xe4, 0x3d, 0x7b, 0xb9, 0xca, 0xbd, 0xf9, 0x45, 0x63, 0xbe, 0x7d, 0x5e, 0x7f, 0xbe, 0xbf, 0x64, 0x9f, 0xbe, 0x7f, 0xaf, 0x93, 0xbe, 0x8a, 0xe6, 0x95, 0xbe, 0x4d, 0x43, 0x6d, 0xbd, 0xa2, 0x89, 0x23, 0xbe, 0xa8, 0x77, 0x3f, 0xbe, 0x56, 0x3a, 0xb1, 0xbd, 0xf7, 0xe9, 0x6d, 0xbd, 0xf7, 0x62, 0xca, 0xbc, 0x9d, 0xf7, 0x1e, 0xbe, 0x30, 0xba, 0xff, 0xbd, 0x9a, 0x91, 0x41, 0x3d, 0x5a, 0xab, 0x5c, 0x3d, 0xce, 0x37, 0x99, 0xbd, 0xe5, 0x3a, 0x35, 0xbe, 0x97, 0x58, 0x9a, 0x3b, 0xd7, 0xc5, 0x31, 0x3e, 0x6a, 0x8e, 0x1d, 0x3e, 0xa5, 0xa8, 0x38, 0xbd, 0xea, 0x6f, 0x9a, 0x3d, 0x1d, 0x31, 0x87, 0x3e, 0x80, 0x3e, 0xe4, 0x3d, 0x4f, 0x4d, 0xb5, 0x3d, 0xba, 0x40, 0x4a, 0xbd, 0x45, 0xe4, 0x8b, 0x3d, 0x57, 0x2b, 0x55, 0x3c, 0x92, 0x54, 0xee, 0x3d, 0x81, 0xf3, 0x1c, 0x3e, 0xc9, 0xb2, 0xe6, 0xbd, 0x5b, 0xf0, 0x95, 0x3e, 0x08, 0x46, 0x0c, 0xbd, 0xb8, 0x75, 0x2c, 0x3e, 0x3a, 0x4c, 0x82, 0x3e, 0x43, 0x83, 0x5c, 0x3e, 0xc0, 0x46, 0xa0, 0x3e, 0xa6, 0x60, 0xce, 0x3d, 0x87, 0xa6, 0x44, 0x3d, 0x20, 0xb8, 0x35, 0xbe, 0x6a, 0xc3, 0xa1, 0xbd, 0xfc, 0x14, 0x48, 0xbe, 0x27, 0x9f, 0x5e, 0xbe, 0xb2, 0x39, 0x81, 0xbc, 0xa1, 0x6e, 0x71, 0x3e, 0xeb, 0x1c, 0x10, 0x3e, 0x2e, 0xd4, 0xda, 0x3a, 0x70, 0x5c, 0x51, 0xbe, 0xab, 0x61, 0x59, 0xbc, 0xdf, 0xbb, 0x15, 0xbe, 0x98, 0x09, 0xaa, 0x3d, 0xc3, 0xda, 0x35, 0xbe, 0xbe, 0x7c, 0x28, 0xbe, 0x2b, 0x57, 0xce, 0x3d, 0x41, 0x3e, 0x00, 0xbe, 0x48, 0x89, 0x21, 0x3e, 0xe1, 0xae, 0xa1, 0x3c, 0xf5, 0xe1, 0x03, 0xbe, 0xf8, 0x62, 0xab, 0xbd, 0xec, 0x43, 0xcd, 0xbc, 0xa2, 0xd3, 0xc7, 0x3c, 0x37, 0x59, 0x53, 0x3e, 0x5f, 0xcd, 0x73, 0xbd, 0x20, 0x2e, 0x93, 0x3d, 0x7e, 0xc3, 0x8c, 0xbd, 0xba, 0xc8, 0x3c, 0x3e, 0x88, 0x11, 0x61, 0x3e, 0xd7, 0x82, 0x79, 0x3d, 0xac, 0x21, 0xad, 0xbc, 0x31, 0xd4, 0x14, 0xbe, 0x7a, 0x74, 0x3b, 0xbe, 0xe6, 0x1b, 0x35, 0xbd, 0xd5, 0x4f, 0x44, 0x3e, 0x82, 0xb3, 0x79, 0xbd, 0x85, 0xda, 0xc5, 0x3c, 0xb3, 0x11, 0x94, 0xbd, 0x51, 0x55, 0xac, 0x3d, 0x82, 0x04, 0x3a, 0xbe, 0x16, 0x4b, 0x59, 0xbe, 0x00, 0x4f, 0xe1, 0xbd, 0x59, 0x20, 0x0d, 0xbc, 0x6c, 0x10, 0x12, 0xbe, 0x96, 0xc2, 0x0a, 0xbe, 0x9d, 0x3c, 0x27, 0x3e, 0xe1, 0xb3, 0x89, 0x3d, 0x24, 0xa0, 0x53, 0x3e, 0x23, 0xd9, 0xb1, 0xbd, 0x0d, 0xa9, 0x23, 0x3e, 0x5b, 0x9e, 0x15, 0x3d, 0xcb, 0x7e, 0xcc, 0x3d, 0xbb, 0x39, 0x9b, 0xbc, 0x3a, 0xc5, 0x33, 0xbe, 0x18, 0x72, 0x1a, 0xbe, 0x78, 0xf7, 0x2e, 0x3e, 0x53, 0xf2, 0xad, 0x3c, 0xdb, 0x68, 0x40, 0xbe, 0xaa, 0x1d, 0x8b, 0x3d, 0x15, 0x88, 0x1e, 0x3b, 0xfa, 0x87, 0xe2, 0x3a, 0x2e, 0x22, 0xdb, 0xbd, 0x98, 0x9c, 0xe6, 0x3c, 0x69, 0x87, 0x7f, 0x3d, 0x83, 0xcb, 0xa7, 0x3d, 0xbc, 0x4c, 0x91, 0x3c, 0xee, 0x0a, 0x21, 0xbe, 0x39, 0x42, 0x82, 0xbe, 0xd9, 0x2b, 0x80, 0xbc, 0x22, 0x4e, 0x09, 0xbe, 0x4f, 0xe1, 0x38, 0x3e, 0x95, 0x9f, 0x7b, 0xbd, 0xd6, 0x35, 0xac, 0x3b, 0x72, 0x18, 0x09, 0xbe, 0x7e, 0x4c, 0xeb, 0x3d, 0x1b, 0x16, 0x4b, 0x3e, 0x76, 0xed, 0x30, 0xbe, 0x67, 0xc2, 0xdb, 0xbc, 0xcb, 0x89, 0x28, 0x3e, 0x7f, 0x05, 0xe1, 0xbd, 0x04, 0x6c, 0x47, 0xbc, 0x8e, 0x36, 0x48, 0xbe, 0x36, 0x8d, 0x01, 0x3e, 0x77, 0xb3, 0x9e, 0xbd, 0x2e, 0x3f, 0x94, 0xbd, 0xc2, 0xae, 0x1c, 0xbe, 0x60, 0xc8, 0xb1, 0x3d, 0x9c, 0xd8, 0x2f, 0x3e, 0xed, 0x74, 0x24, 0x3e, 0x21, 0xe4, 0xd2, 0xbd, 0x97, 0xf7, 0xd9, 0xbd, 0x74, 0x63, 0x59, 0xbe, 0x37, 0xa3, 0x0e, 0x3e, 0x9a, 0x7f, 0x13, 0x3e, 0x28, 0x07, 0x84, 0xbd, 0x94, 0xb1, 0x43, 0xbe, 0x5f, 0xe5, 0x08, 0xbe, 0x3c, 0xc9, 0xe8, 0xbd, 0x31, 0x39, 0x55, 0xbd, 0xfe, 0x76, 0x07, 0x3d, 0x60, 0x13, 0x0d, 0x3e, 0x87, 0x6a, 0x45, 0xbc, 0xd3, 0x83, 0x02, 0x3e, 0x6d, 0x2e, 0xb6, 0x3c, 0xb6, 0x5d, 0x1a, 0x3e, 0x99, 0x80, 0xb6, 0xbc, 0xf1, 0xe6, 0x7b, 0xbd, 0x0b, 0x25, 0x71, 0xbe, 0xe9, 0xcc, 0x1f, 0x3d, 0x76, 0x78, 0xb0, 0x3d, 0x80, 0x4b, 0x1a, 0xbe, 0xaa, 0x7c, 0xfb, 0x3d, 0xbb, 0x31, 0x3e, 0xbe, 0x6c, 0x08, 0x28, 0x3e, 0xfc, 0x48, 0xa3, 0x3b, 0x88, 0xe0, 0x0d, 0x3e, 0x2e, 0xa5, 0x75, 0xbe, 0x74, 0xde, 0x53, 0xbe, 0xa2, 0x72, 0xc0, 0xbd, 0x98, 0xe1, 0x6f, 0xbe, 0xc8, 0x7a, 0xbc, 0x3c, 0x9e, 0x61, 0x16, 0x3e, 0xbf, 0x9a, 0x89, 0xbd, 0x06, 0xce, 0xb7, 0xbd, 0xc2, 0x51, 0x84, 0x3d, 0x2b, 0x08, 0x28, 0x3e, 0xe2, 0xca, 0x5e, 0x3d, 0xc6, 0xf3, 0xdc, 0xbd, 0x29, 0x33, 0xcd, 0xbd, 0xc9, 0x87, 0x44, 0xbd, 0xa7, 0xb9, 0x1e, 0x3e, 0x8b, 0x68, 0x39, 0x3d, 0x24, 0x9d, 0x42, 0xbe, 0xa9, 0x16, 0x51, 0xbe, 0xfd, 0xff, 0x57, 0xbd, 0x89, 0xfe, 0x2b, 0xbe, 0x48, 0x75, 0x46, 0x3e, 0xbf, 0x6c, 0x97, 0x3d, 0x2f, 0x25, 0x32, 0x3e, 0x4c, 0x39, 0xf2, 0x3d, 0xd2, 0x52, 0xf2, 0xbd, 0xfe, 0xb7, 0xa2, 0xbd, 0xa7, 0x59, 0x71, 0xbe, 0xd0, 0xb5, 0xd9, 0x3d, 0xb9, 0x43, 0x29, 0xbe, 0x77, 0x10, 0xfe, 0xbd, 0x5e, 0x4b, 0x6a, 0xbe, 0xba, 0x0b, 0xc8, 0x3d, 0x4f, 0x92, 0x0d, 0xbe, 0x92, 0xfe, 0x4c, 0xbe, 0x7c, 0x75, 0x9f, 0xbc, 0x25, 0x71, 0x7a, 0x3d, 0x4e, 0xb7, 0x15, 0xbc, 0x2a, 0xe8, 0x8b, 0x3c, 0xea, 0x9c, 0xc6, 0x3d, 0x0d, 0x95, 0x3c, 0x3c, 0xd8, 0x1a, 0x16, 0xbd, 0x07, 0x5b, 0xf9, 0xbd, 0xdc, 0xac, 0xc3, 0xbd, 0x0c, 0x0a, 0xec, 0xbc, 0xc2, 0x53, 0x74, 0xbd, 0x3b, 0xc2, 0xf0, 0x3c, 0xdf, 0x42, 0x94, 0xbd, 0xc7, 0x35, 0x13, 0x3e, 0x49, 0xc8, 0xc3, 0xbb, 0x25, 0x54, 0x10, 0xbe, 0xc3, 0xe4, 0xeb, 0x3d, 0xa8, 0xbf, 0xc9, 0x3c, 0xb4, 0x6f, 0x95, 0x3d, 0x52, 0x37, 0xaf, 0x3d, 0x13, 0x49, 0xa8, 0x3d, 0xf1, 0x9b, 0xbf, 0xbd, 0x1c, 0xd4, 0x8f, 0x3d, 0x3d, 0xd2, 0xbf, 0x3d, 0xcc, 0x15, 0x29, 0x3e, 0xf9, 0xf8, 0xf9, 0x3d, 0xb4, 0x0e, 0xc9, 0xbd, 0xb4, 0x3e, 0x41, 0x3d, 0x05, 0x43, 0xe3, 0x3d, 0xe0, 0x9d, 0x99, 0xbd, 0x4d, 0x7b, 0x1b, 0xbe, 0x06, 0xb2, 0x9a, 0xbd, 0x08, 0x00, 0xe4, 0x3c, 0xd0, 0x2c, 0xfe, 0xbc, 0xf2, 0x8d, 0x10, 0xbe, 0xd1, 0x00, 0xb6, 0xbd, 0xea, 0x16, 0x48, 0xbe, 0x30, 0x7c, 0x20, 0x3e, 0xf6, 0x59, 0xa1, 0xbd, 0x2c, 0x61, 0xec, 0x3d, 0x99, 0x81, 0x98, 0x3d, 0x42, 0xa7, 0x24, 0x3e, 0xd1, 0xb4, 0x45, 0xbd, 0xbe, 0xc8, 0xda, 0xbc, 0x3d, 0xc4, 0x7e, 0xbd, 0x21, 0x60, 0x37, 0x3e, 0x7c, 0x6c, 0x60, 0xbe, 0xe1, 0x5b, 0xf0, 0xbc, 0xeb, 0xc3, 0x7c, 0x3d, 0x53, 0x35, 0x06, 0xbe, 0xd9, 0xdd, 0x8b, 0xbd, 0x2a, 0x6f, 0xe5, 0x3d, 0x04, 0x1b, 0x81, 0xbd, 0xfe, 0x72, 0x52, 0xbe, 0xb1, 0x72, 0x41, 0xbe, 0x31, 0xf4, 0xc2, 0xbd, 0x5e, 0x23, 0x0b, 0xbe, 0xde, 0x35, 0x39, 0x3e, 0x03, 0x42, 0x82, 0xbd, 0xf1, 0xda, 0x16, 0x3e, 0xeb, 0x54, 0xf2, 0xbc, 0x1e, 0xe9, 0x0d, 0x3e, 0x72, 0x6b, 0x38, 0xbd, 0x63, 0xec, 0xdd, 0x3d, 0x0f, 0x7a, 0x13, 0x3e, 0x16, 0x3f, 0xb5, 0x3c, 0x94, 0x76, 0xe8, 0xbd, 0xd7, 0xaf, 0x48, 0xbe, 0x99, 0xa0, 0xc0, 0xbd, 0x6d, 0xaf, 0x03, 0xbd, 0x81, 0xf2, 0xc9, 0x3d, 0x1c, 0x09, 0xb5, 0xbd, 0x61, 0x1f, 0x54, 0x3e, 0x43, 0xfc, 0xac, 0xbc, 0x57, 0x46, 0x38, 0x3c, 0xef, 0x01, 0x51, 0xbe, 0x83, 0x74, 0x4d, 0x3e, 0xe6, 0x2d, 0x1e, 0x3d, 0x90, 0xeb, 0x06, 0xbe, 0x42, 0xcf, 0x05, 0xbe, 0xae, 0x7f, 0x3f, 0x3e, 0x9b, 0xc2, 0x02, 0xbe, 0x2d, 0x34, 0x5e, 0xbe, 0xfa, 0x8c, 0xdb, 0xbd, 0x3b, 0x91, 0x4b, 0xbd, 0xac, 0x43, 0xa6, 0x3d, 0xe8, 0x80, 0x84, 0xbd, 0x0a, 0xd7, 0x1d, 0x3e, 0x72, 0xf2, 0x9e, 0x3c, 0xc4, 0x9a, 0xd4, 0xbc, 0x4e, 0xc8, 0x77, 0xbe, 0x2e, 0x29, 0x84, 0xbe, 0x64, 0xdb, 0x17, 0x3e, 0x02, 0xb4, 0xdf, 0xbd, 0x4e, 0xf8, 0xda, 0x3d, 0x1e, 0xc3, 0x48, 0xbe, 0x10, 0x3c, 0x72, 0xbe, 0xf0, 0xc9, 0xc2, 0xbd, 0x3c, 0x61, 0x20, 0xbe, 0x25, 0x4a, 0xc0, 0xbb, 0x55, 0xe8, 0xb3, 0x3d, 0xe4, 0xed, 0x24, 0x3e, 0xda, 0x06, 0xb1, 0xbd, 0x2c, 0xdf, 0x4c, 0x3d, 0xdc, 0xf5, 0xd7, 0xbd, 0x3a, 0x1a, 0x51, 0xbe, 0xa2, 0x34, 0x40, 0x3d, 0x24, 0x3f, 0x89, 0x3c, 0x89, 0x37, 0xb0, 0x3d, 0x9f, 0x26, 0x18, 0xbe, 0xd3, 0xaa, 0x25, 0x3e, 0x17, 0x68, 0x91, 0xbd, 0xda, 0x74, 0xe4, 0xbc, 0x0c, 0xe1, 0x74, 0x3d, 0x6e, 0x7c, 0x6c, 0xbd, 0x99, 0x51, 0x49, 0x3e, 0x74, 0x5b, 0xd0, 0x3c, 0x41, 0x9a, 0xee, 0x3c, 0xbc, 0xb5, 0x97, 0xbe, 0xfe, 0xc7, 0x06, 0x3d, 0x60, 0x69, 0x2a, 0xbe, 0x77, 0x12, 0x90, 0xbd, 0x60, 0xa8, 0x08, 0x3e, 0x38, 0xc0, 0xba, 0x3d, 0x97, 0x3f, 0x09, 0xbc, 0x3c, 0xbe, 0xf5, 0x3c, 0x57, 0x4b, 0x5f, 0xbd, 0x28, 0x59, 0x5a, 0xbe, 0x10, 0xfa, 0xb1, 0x3d, 0x05, 0x3a, 0x6d, 0xbd, 0x35, 0x8c, 0xf7, 0x3d, 0x7c, 0x35, 0x3b, 0x3e, 0xb4, 0xca, 0xad, 0x3d, 0xc1, 0xbc, 0x91, 0x3d, 0x33, 0x44, 0xa0, 0x3d, 0x95, 0x66, 0x61, 0xbe, 0x7a, 0xf5, 0xfc, 0xbd, 0x75, 0x64, 0x23, 0x3e, 0x44, 0xef, 0xec, 0xbc, 0x6a, 0x55, 0x1b, 0x3e, 0x3c, 0xcb, 0x1e, 0xbe, 0xbb, 0xa7, 0x79, 0x3e, 0x93, 0x3e, 0xf8, 0x3d, 0x2f, 0x5e, 0xae, 0xbd, 0xf2, 0x81, 0xb1, 0x3d, 0xf9, 0xed, 0x98, 0xbd, 0x87, 0x32, 0x21, 0x3d, 0x71, 0xee, 0x4c, 0xbe, 0x0b, 0xc7, 0x4a, 0x3e, 0xe7, 0xc1, 0x70, 0xbd, 0x14, 0x2b, 0xfa, 0xbd, 0xbd, 0x3e, 0x28, 0x3d, 0xe2, 0x91, 0xfd, 0x3d, 0x3c, 0xdd, 0x35, 0xbe, 0x2e, 0x5b, 0x28, 0xbe, 0x34, 0x7f, 0x0a, 0x3d, 0xdc, 0xc6, 0x1f, 0xbe, 0x81, 0x0d, 0x0a, 0xbe, 0xbe, 0xb7, 0x08, 0x3e, 0x0b, 0x30, 0xda, 0x3c, 0xcd, 0x86, 0xf9, 0x3d, 0x48, 0x4b, 0x5a, 0x3e, 0x96, 0x84, 0x72, 0xbd, 0xa0, 0x95, 0xda, 0x3d, 0xe8, 0x7b, 0xd2, 0x3d, 0x17, 0xe8, 0x20, 0xbd, 0xb2, 0x21, 0xbd, 0xbc, 0x3c, 0xbe, 0x8e, 0xbb, 0x19, 0x65, 0x9b, 0xbd, 0x6e, 0x60, 0x62, 0xbd, 0x7e, 0x5f, 0x90, 0x3d, 0x32, 0x5f, 0xb2, 0x3b, 0x36, 0xae, 0x15, 0x3e, 0xf3, 0xad, 0x05, 0xbe, 0x04, 0xbd, 0x9a, 0x3b, 0xe3, 0xa1, 0x6c, 0xbd, 0x99, 0x84, 0x08, 0xbd, 0x93, 0x4c, 0x54, 0xbe, 0x68, 0x35, 0x8c, 0x3d, 0x8d, 0xe5, 0x7b, 0xbd, 0x95, 0x98, 0x60, 0xbe, 0xe6, 0x11, 0xe4, 0x3c, 0xe8, 0xb8, 0xe8, 0xbd, 0x9b, 0x15, 0xfa, 0xbd, 0xb2, 0xeb, 0x06, 0xbd, 0xff, 0xd3, 0x0d, 0x3e, 0x7b, 0x18, 0x8b, 0x3d, 0xc5, 0x7a, 0x0e, 0xbe, 0x34, 0x39, 0x56, 0x3d, 0x11, 0x3f, 0x4e, 0x3e, 0x41, 0xc8, 0x79, 0x3c, 0x58, 0xac, 0x28, 0x3e, 0x02, 0x69, 0x09, 0x3e, 0x78, 0xc3, 0xab, 0xbd, 0x51, 0xdf, 0xe3, 0x3d, 0xef, 0xde, 0x1e, 0xbe, 0x71, 0x6d, 0x49, 0x3e, 0xa9, 0x38, 0x65, 0xbe, 0xfa, 0xea, 0xa2, 0xbd, 0xd4, 0xba, 0x87, 0xbd, 0x92, 0x06, 0x55, 0xbe, 0x16, 0x34, 0x63, 0xbe, 0xfb, 0x90, 0x07, 0xbe, 0xca, 0x70, 0x0d, 0x3c, 0xab, 0x5d, 0xc2, 0x3d, 0x63, 0xcb, 0xca, 0x3d, 0xed, 0xdc, 0xc8, 0x3d, 0xa6, 0x5c, 0x36, 0x3c, 0x92, 0x7e, 0x0d, 0x3e, 0x2c, 0xc1, 0x63, 0xbe, 0x80, 0x1c, 0x1a, 0xbe, 0x40, 0x7f, 0x00, 0x3e, 0x70, 0xb9, 0x07, 0x3e, 0xac, 0x20, 0xce, 0xbd, 0x5f, 0xe9, 0xa9, 0xbd, 0xc6, 0x48, 0x0b, 0x3e, 0xda, 0x52, 0x09, 0x3d, 0x69, 0x25, 0xa8, 0x3d, 0x1b, 0xc8, 0x73, 0xbe, 0xf6, 0xd1, 0x23, 0x3d, 0xa7, 0xaf, 0x1a, 0x3e, 0x5b, 0x10, 0x57, 0xbe, 0x07, 0xa7, 0x6d, 0x3d, 0x0e, 0x3b, 0x2d, 0x3e, 0x9f, 0x19, 0xc9, 0xbd, 0x61, 0x3e, 0x3a, 0x3e, 0x10, 0x0e, 0x4c, 0xbe, 0x1c, 0x43, 0x42, 0xbe, 0xf4, 0xfc, 0x43, 0xbe, 0x44, 0x8e, 0xe2, 0xbb, 0xde, 0xdb, 0x2a, 0x3d, 0x9e, 0x6b, 0x66, 0x3d, 0xc7, 0x18, 0x85, 0xbd, 0x7b, 0x78, 0x08, 0x3e, 0xc2, 0xbe, 0x17, 0xbe, 0xb3, 0xb6, 0x51, 0xbe, 0x06, 0x1c, 0x84, 0x3e, 0x9d, 0x09, 0xd9, 0xbc, 0x9d, 0xa6, 0xea, 0xbd, 0x74, 0x19, 0x99, 0x3d, 0x45, 0x6a, 0x94, 0xb9, 0x99, 0x58, 0x21, 0x3d, 0x23, 0xe3, 0x60, 0xbd, 0xae, 0x69, 0xe8, 0xbd, 0x05, 0xec, 0xf1, 0xbd, 0x9c, 0x60, 0x03, 0x3d, 0xcc, 0x13, 0xb1, 0xbd, 0x60, 0x5e, 0x60, 0xbe, 0x90, 0xa3, 0xd2, 0x3d, 0x1a, 0x49, 0x4c, 0x3c, 0x5c, 0xdf, 0x3d, 0x3e, 0xd6, 0x63, 0x19, 0xbd, 0xec, 0x5b, 0xdf, 0xbc, 0xb7, 0x05, 0x98, 0x3c, 0x83, 0xb8, 0x42, 0x3e, 0x9b, 0x89, 0x18, 0x3d, 0x25, 0x9f, 0xa6, 0xbd, 0x76, 0xac, 0x35, 0x3e, 0xdb, 0x31, 0x74, 0xbd, 0x58, 0x97, 0x22, 0xbe, 0xe6, 0x81, 0xbc, 0xbb, 0x33, 0x57, 0x3e, 0x3e, 0x45, 0xc6, 0xce, 0x3d, 0x93, 0x8b, 0x68, 0xbd, 0x34, 0x6e, 0x4e, 0xbb, 0xa4, 0x41, 0x22, 0xbe, 0x5a, 0x45, 0xbb, 0xbd, 0x7b, 0x95, 0x24, 0xbd, 0x89, 0xc9, 0x23, 0xbe, 0xb0, 0x9c, 0x65, 0x3d, 0x8f, 0x43, 0x11, 0x3e, 0xe6, 0x15, 0x34, 0xbe, 0x15, 0xb9, 0x06, 0x3d, 0xcc, 0x0b, 0x9d, 0xbb, 0x5c, 0x1c, 0x2f, 0xbe, 0xb0, 0x1a, 0x3e, 0x3e, 0x92, 0x20, 0xb8, 0xbc, 0x03, 0x1e, 0x37, 0xbd, 0x15, 0x57, 0xeb, 0x3d, 0x19, 0xcf, 0x69, 0x3e, 0x18, 0xa5, 0x29, 0xbe, 0x62, 0x04, 0x96, 0xbc, 0xe5, 0x3a, 0x42, 0xbe, 0x83, 0xe1, 0x93, 0x3d, 0x31, 0x7b, 0x4a, 0x3b, 0x44, 0xdd, 0x2e, 0x3e, 0xa2, 0x6c, 0x08, 0xbe, 0xd8, 0x0b, 0xdb, 0x3d, 0xc6, 0x68, 0x05, 0xbe, 0x6d, 0xfe, 0xd7, 0xbd, 0xa9, 0xa1, 0x5b, 0x3d, 0x09, 0x73, 0x3e, 0xbe, 0x06, 0x86, 0x63, 0xbe, 0x87, 0x4e, 0x85, 0xbe, 0x9e, 0x86, 0xd1, 0x3d, 0x4b, 0x7e, 0xd8, 0x3d, 0x23, 0x25, 0x0c, 0x3e, 0xaa, 0x7d, 0xc0, 0x3d, 0x6a, 0xc6, 0x0f, 0x3c, 0x0b, 0xb2, 0xa6, 0x3c, 0x88, 0x92, 0xda, 0x3b, 0x0e, 0x07, 0x83, 0xbe, 0xa1, 0x5c, 0x93, 0xbd, 0xb2, 0x48, 0x71, 0x3b, 0x91, 0x00, 0x38, 0xbd, 0x23, 0xbd, 0x52, 0x3e, 0x84, 0x48, 0x00, 0xbe, 0x66, 0xd4, 0xbb, 0x3d, 0xe6, 0x09, 0xbd, 0x3c, 0xf3, 0x1f, 0x7d, 0xbd, 0xd2, 0x46, 0x23, 0x3e, 0xfb, 0xf7, 0x38, 0x3e, 0xff, 0x36, 0xe9, 0xbd, 0xa0, 0x5b, 0x70, 0xbd, 0x95, 0x8a, 0x04, 0xbe, 0x0a, 0xc4, 0x10, 0x3d, 0xb9, 0x8f, 0x8d, 0x3d, 0xe1, 0x3a, 0x1b, 0xbe, 0xdd, 0x18, 0x8b, 0xbe, 0xe9, 0xf1, 0x27, 0x3d, 0x67, 0x6a, 0x2a, 0xbe, 0xd6, 0x83, 0x0a, 0xbe, 0x27, 0xad, 0x2e, 0x3e, 0x27, 0x05, 0x61, 0x3e, 0x62, 0x61, 0xc7, 0xbd, 0xa3, 0x72, 0x43, 0x3d, 0x0e, 0x2d, 0xce, 0xbd, 0x74, 0xe5, 0x72, 0xbe, 0x2a, 0x90, 0x32, 0x3d, 0x4c, 0x3c, 0x0f, 0x3d, 0x47, 0x78, 0xab, 0xbd, 0x9b, 0x4f, 0x2d, 0x3e, 0x9b, 0x39, 0x12, 0x3e, 0x3c, 0x5b, 0x19, 0x3e, 0x7b, 0x30, 0x98, 0x3d, 0x61, 0x24, 0xc2, 0xbd, 0xf1, 0x85, 0x9b, 0xbc, 0xd8, 0x7e, 0x40, 0x3e, 0x16, 0xa4, 0x67, 0xbe, 0xb6, 0x66, 0x66, 0xbe, 0xa1, 0xa4, 0x80, 0x3d, 0x42, 0x93, 0x23, 0x3d, 0xbd, 0xce, 0xb3, 0xbd, 0x2e, 0x6c, 0xa8, 0xbc, 0xe0, 0x85, 0x8d, 0x3d, 0xb3, 0xbb, 0xf8, 0xbd, 0xc9, 0xea, 0xf9, 0x3d, 0x42, 0x39, 0xe8, 0xbd, 0xac, 0x81, 0x54, 0xbe, 0x68, 0xa4, 0x95, 0x3d, 0x40, 0x41, 0x2a, 0xbb, 0x7b, 0xe0, 0xa2, 0x3c, 0x13, 0xc3, 0x55, 0xbc, 0x2d, 0xdd, 0xf6, 0x3d, 0x94, 0xca, 0xab, 0xbc, 0x48, 0x98, 0xbe, 0xbb, 0xbc, 0xfd, 0x3b, 0xbc, 0x3e, 0x47, 0x23, 0xbd, 0xfc, 0xcf, 0x82, 0xbd, 0xa9, 0x9a, 0x70, 0xbe, 0x99, 0x6d, 0x36, 0xbd, 0xb5, 0xbf, 0x3d, 0xbe, 0x9f, 0x4e, 0x2b, 0x3e, 0xd6, 0x5b, 0xed, 0xbd, 0x19, 0x59, 0xb6, 0xbd, 0x58, 0x06, 0xc0, 0xbc, 0x9e, 0xbb, 0x0a, 0x3e, 0xce, 0xd4, 0x25, 0xbe, 0x4d, 0x70, 0xfd, 0x3d, 0x1c, 0x4d, 0xde, 0x3d, 0xf4, 0xa8, 0x37, 0x3d, 0x70, 0x15, 0xe8, 0xbb, 0x66, 0xf1, 0x4a, 0xbc, 0x0d, 0xae, 0x9b, 0x3d, 0x49, 0x29, 0x44, 0xbe, 0x73, 0x8f, 0x02, 0xbe, 0x69, 0x3d, 0x9f, 0xbd, 0xf8, 0xe7, 0x03, 0xbe, 0x3d, 0x2f, 0x3d, 0x3c, 0x3d, 0x58, 0x82, 0x3d, 0x07, 0xe6, 0xdd, 0x3d, 0xe4, 0x26, 0x4f, 0x3d, 0x35, 0xd6, 0x30, 0xbe, 0x6d, 0x3c, 0xe3, 0xbd, 0x1f, 0x8f, 0x08, 0xbe, 0x1e, 0x39, 0x28, 0xbe, 0xdb, 0xd7, 0x2c, 0x3e, 0x55, 0x26, 0xb2, 0x3d, 0xa1, 0xb4, 0xac, 0xbc, 0x3f, 0xca, 0xf0, 0xbd, 0x23, 0x16, 0x2a, 0x3e, 0x7b, 0x52, 0xf3, 0x3c, 0x52, 0xa4, 0x51, 0xbe, 0xa7, 0x32, 0x8a, 0x3d, 0x56, 0x61, 0x51, 0x3d, 0xc9, 0x3b, 0xd7, 0x3d, 0x34, 0xa4, 0x8b, 0xbd, 0x70, 0x80, 0x07, 0xbd, 0xef, 0x1e, 0x25, 0xbe, 0xf8, 0x9f, 0x67, 0x3c, 0xfb, 0x99, 0x37, 0xbe, 0xed, 0x13, 0xb0, 0xbd, 0x39, 0x96, 0xbf, 0x3d, 0xbd, 0x0a, 0x49, 0xbe, 0xfe, 0x57, 0x50, 0x3d, 0xef, 0x18, 0x6d, 0xbd, 0x7b, 0x47, 0x24, 0x3e, 0x51, 0x20, 0x0c, 0x3e, 0x01, 0x46, 0xa7, 0xbc, 0x19, 0x7f, 0x97, 0xbd, 0x45, 0x5a, 0x45, 0xbe, 0x59, 0xf0, 0x52, 0xbe, 0x15, 0x75, 0xc1, 0x3d, 0x82, 0x08, 0xcd, 0x3d, 0xa1, 0x40, 0x1f, 0xbe, 0xb7, 0x51, 0xc0, 0xbd, 0xd7, 0xfb, 0xcb, 0x3d, 0xfd, 0xfc, 0x6c, 0xbb, 0x74, 0x73, 0x22, 0x3e, 0x3f, 0x9c, 0x34, 0xbe, 0x3c, 0x8a, 0x0c, 0x3e, 0x6e, 0xcb, 0x45, 0xbe, 0x63, 0x66, 0x08, 0xbe, 0x29, 0x12, 0x4f, 0x3d, 0xa8, 0x22, 0xe0, 0x3d, 0x52, 0xcc, 0xae, 0xbd, 0x1e, 0x07, 0xa9, 0xbd, 0x6e, 0x06, 0x24, 0xbe, 0x98, 0x8b, 0xd0, 0x3d, 0xb0, 0x2a, 0x88, 0xbd, 0x38, 0xf2, 0xd5, 0x3d, 0x51, 0x17, 0x37, 0x3e, 0xd5, 0xab, 0xea, 0x3d, 0x96, 0xfc, 0xd3, 0xbd, 0x47, 0x0e, 0x27, 0xbe, 0xe1, 0x1c, 0x67, 0xbe, 0x5b, 0xa2, 0x36, 0xbe, 0x6f, 0xf4, 0x2e, 0x3e, 0xa5, 0x30, 0x28, 0x3e, 0x5b, 0xe5, 0xe1, 0xbd, 0xae, 0xcd, 0xaf, 0x3d, 0x12, 0xe3, 0x27, 0xbe, 0xcc, 0x92, 0x00, 0xbe, 0xd2, 0x32, 0xbe, 0x3b, 0x28, 0x43, 0xf3, 0x3d, 0x20, 0x6c, 0xc4, 0xbb, 0x4a, 0xce, 0x26, 0x3e, 0xc9, 0x7b, 0x77, 0xba, 0xa1, 0x10, 0x66, 0x3c, 0xc8, 0x99, 0x08, 0xbd, 0x17, 0x54, 0xda, 0x3d, 0xe5, 0xba, 0xc4, 0x3d, 0xa7, 0x5d, 0xd7, 0xbd, 0xec, 0x49, 0x8a, 0xbd, 0xde, 0xe3, 0x8a, 0xbe, 0x68, 0x6b, 0x71, 0xbe, 0x98, 0x43, 0x9d, 0xbd, 0x1b, 0x5b, 0x2f, 0xbe, 0x04, 0x0e, 0x8b, 0xbe, 0x46, 0xb4, 0x69, 0xbd, 0x2a, 0xbf, 0x0a, 0x3d, 0x93, 0x1c, 0x83, 0xbd, 0x4c, 0x6a, 0xa9, 0xbc, 0x19, 0x52, 0x7a, 0xbe, 0x3e, 0x5b, 0xd5, 0xbd, 0x19, 0xdf, 0x79, 0x3d, 0x0d, 0xc1, 0x04, 0x3e, 0x83, 0xd3, 0xb9, 0x3d, 0xdb, 0x33, 0x2f, 0x3e, 0x01, 0x93, 0x87, 0x3c, 0x99, 0x07, 0xb5, 0x3d, 0xfe, 0x7b, 0x0b, 0xbe, 0xb9, 0x7a, 0x4e, 0xbe, 0xde, 0x07, 0xdd, 0xbc, 0xbb, 0xc4, 0x96, 0xbc, 0x56, 0x04, 0x04, 0xbe, 0xca, 0x24, 0x11, 0x3e, 0x3b, 0x50, 0x23, 0x3e, 0x1d, 0x82, 0x73, 0xbe, 0x11, 0x58, 0x54, 0x3e, 0xa1, 0x45, 0x08, 0xbd, 0x52, 0xeb, 0xf3, 0x3d, 0xc9, 0x97, 0x63, 0xbe, 0x89, 0x4f, 0x05, 0x3e, 0xfa, 0x8a, 0x8d, 0xbc, 0x0e, 0x02, 0xfd, 0xbd, 0xb6, 0xc1, 0x49, 0xbe, 0x2b, 0x8c, 0x57, 0xbe, 0x7b, 0x85, 0xcf, 0x3c, 0x89, 0x91, 0x00, 0xbe, 0x3c, 0xfb, 0x18, 0xbb, 0x56, 0xab, 0x31, 0x3e, 0x69, 0x9a, 0x29, 0xbd, 0x9a, 0x26, 0x55, 0xbe, 0x67, 0x4a, 0xcb, 0x3c, 0x74, 0x2c, 0xbf, 0x3d, 0x21, 0x64, 0x6e, 0x3d, 0x3d, 0xf3, 0xc5, 0xbd, 0xc3, 0x8a, 0x24, 0x3d, 0x2b, 0x66, 0x82, 0x3e, 0xe3, 0xdd, 0x79, 0xbd, 0x6c, 0x68, 0x01, 0x3b, 0x81, 0x78, 0xb4, 0x3d, 0xbf, 0xe6, 0xb2, 0xbd, 0xae, 0x4a, 0x31, 0xbe, 0xca, 0x34, 0xc8, 0x3d, 0xbd, 0x95, 0x26, 0x3e, 0x5d, 0x36, 0x27, 0xbd, 0x93, 0xf9, 0x06, 0xbe, 0x3b, 0x7c, 0x25, 0xbd, 0x00, 0xee, 0x61, 0xbe, 0xa2, 0xeb, 0x1e, 0xbc, 0x21, 0x29, 0xe6, 0x3d, 0xce, 0x79, 0x12, 0x3e, 0xe9, 0xb7, 0xd5, 0xbd, 0xca, 0x1e, 0xa0, 0x3e, 0xff, 0x0c, 0x7f, 0xbd, 0xb2, 0x9c, 0x6e, 0x3e, 0x03, 0xb1, 0xef, 0xbd, 0x0d, 0xeb, 0x1e, 0x3d, 0x46, 0x0e, 0xf2, 0xbd, 0xb0, 0x65, 0x6b, 0xbe, 0xc9, 0x9d, 0x53, 0xbe, 0x59, 0x1d, 0x4c, 0xbe, 0x05, 0x38, 0x2c, 0x3e, 0x1c, 0x19, 0xd6, 0xbc, 0xe3, 0xe5, 0xf3, 0x3c, 0xe8, 0x89, 0x34, 0x3e, 0xc7, 0x3a, 0x32, 0x3d, 0x00, 0xd6, 0xb2, 0x3d, 0x64, 0xc6, 0x4a, 0xbd, 0x08, 0x3d, 0x99, 0x38, 0xeb, 0x6a, 0x45, 0xbe, 0xb1, 0x30, 0x22, 0xbe, 0x23, 0x8f, 0x5d, 0xbe, 0xb6, 0x2a, 0x12, 0x3e, 0x0d, 0xc5, 0xb7, 0x3d, 0x60, 0x83, 0x3e, 0x3e, 0x66, 0x2f, 0xe2, 0x3d, 0xf4, 0x53, 0xa4, 0x3d, 0x0c, 0x3d, 0x80, 0xbc, 0x2a, 0x22, 0xcf, 0x3d, 0xfc, 0x0a, 0x32, 0xbe, 0x33, 0x88, 0x50, 0xbd, 0x64, 0x65, 0x94, 0x3e, 0x6e, 0x03, 0x13, 0xbe, 0x4b, 0xb5, 0x09, 0xbe, 0x42, 0x58, 0xe1, 0x3d, 0x1a, 0x61, 0x81, 0x3d, 0xdc, 0xf5, 0x22, 0x3e, 0xc0, 0x42, 0x12, 0x3e, 0x08, 0xd6, 0xd8, 0xbd, 0x5b, 0x3d, 0x42, 0xbe, 0x8c, 0x01, 0x3a, 0xbd, 0x1d, 0xdc, 0xd3, 0xbd, 0xf5, 0xa6, 0x46, 0x3e, 0x7f, 0x96, 0x06, 0xbe, 0x76, 0xb8, 0xd0, 0x3d, 0x95, 0x65, 0x42, 0xbe, 0xa2, 0x98, 0x13, 0xbe, 0x51, 0x3c, 0x21, 0x3e, 0x6a, 0xda, 0x91, 0x3d, 0x99, 0xb8, 0x30, 0xbe, 0xcc, 0x85, 0x2a, 0xbe, 0xa0, 0x8f, 0x42, 0xbe, 0x8a, 0x8d, 0x86, 0xbd, 0xfd, 0xb5, 0x4b, 0x3e, 0x60, 0xe1, 0xa2, 0x3b, 0x02, 0x79, 0x9f, 0x3d, 0x68, 0x1a, 0x5d, 0xbe, 0x87, 0xcb, 0x20, 0x3e, 0x0c, 0x64, 0x41, 0xbe, 0x15, 0x40, 0x0b, 0xbe, 0x50, 0xe7, 0x92, 0xbd, 0x5c, 0xf7, 0x3e, 0x3d, 0x16, 0xea, 0x1c, 0xbe, 0xfc, 0x74, 0x8d, 0xbd, 0x08, 0x58, 0x23, 0xbd, 0x60, 0xee, 0x6a, 0xbd, 0x10, 0x00, 0x30, 0x3c, 0xdf, 0x55, 0x02, 0x3e, 0x47, 0xdc, 0x20, 0xbe, 0x2d, 0xed, 0x4b, 0xbe, 0x48, 0xd6, 0x8d, 0xbd, 0x7f, 0xa1, 0x03, 0x3e, 0xb3, 0x87, 0xf7, 0xbd, 0xc0, 0xc4, 0x59, 0x3b, 0xe1, 0x40, 0x2c, 0x3e, 0xd7, 0x11, 0x39, 0x3e, 0x4e, 0x9a, 0xf2, 0x3d, 0x7d, 0xac, 0x14, 0x3e, 0xe0, 0x22, 0x24, 0xbc, 0xcb, 0x17, 0x2f, 0x3e, 0x1e, 0xd3, 0x2f, 0xbe, 0x0e, 0x7b, 0x4a, 0xbe, 0xf2, 0xd9, 0xf7, 0x3d, 0xa8, 0xe5, 0x36, 0xbd, 0x78, 0x66, 0x7e, 0xbd, 0x7a, 0xd7, 0x23, 0xbe, 0x8d, 0x06, 0x4b, 0x3e, 0x00, 0xb2, 0x37, 0x3b, 0x8a, 0x98, 0xef, 0x3d, 0xf5, 0x74, 0x2e, 0xbe, 0xff, 0xd7, 0x55, 0xbe, 0xb7, 0x81, 0x1e, 0x3e, 0x9c, 0xb3, 0x2c, 0xbe, 0x48, 0xcc, 0x02, 0x3d, 0x24, 0x5a, 0x1f, 0xbe, 0x68, 0x6f, 0x03, 0xbd, 0x00, 0x5e, 0x4b, 0xba, 0x00, 0xd0, 0x5f, 0x39, 0x2b, 0x09, 0x44, 0x3e, 0x7d, 0xae, 0xdc, 0xbd, 0xa8, 0x66, 0x03, 0xbe, 0x38, 0x29, 0xe5, 0x3c, 0x74, 0xe8, 0x18, 0xbe, 0x50, 0x85, 0xb0, 0x3c, 0xe9, 0x51, 0x3d, 0xbe, 0x5c, 0x31, 0x15, 0x3e, 0x3b, 0x92, 0x0a, 0xbe, 0xd8, 0xd3, 0x39, 0x3e, 0x29, 0xc8, 0xb4, 0xbd, 0x5e, 0x5b, 0x65, 0x3e, 0xb1, 0xea, 0xe3, 0x3d, 0xd3, 0x27, 0x4c, 0x3d, 0x6d, 0x64, 0x7e, 0xbe, 0xaa, 0x1a, 0x4f, 0xbe, 0x2c, 0xbe, 0xc9, 0x3d, 0xa3, 0x8b, 0xcb, 0xbd, 0x19, 0xfa, 0x09, 0x3e, 0x92, 0x3a, 0x9a, 0xbd, 0x9e, 0xca, 0x7b, 0x3e, 0x87, 0x02, 0x90, 0xbd, 0x99, 0x5a, 0x50, 0xbd, 0x9a, 0x1b, 0x06, 0xbe, 0x69, 0x35, 0x46, 0x3e, 0x26, 0x02, 0x01, 0x3e, 0x88, 0x16, 0xc1, 0xba, 0xcc, 0x62, 0xa8, 0xbc, 0x22, 0x44, 0xf9, 0x3d, 0xda, 0x31, 0x2f, 0xbe, 0xde, 0xc4, 0x44, 0x3d, 0x23, 0x13, 0x80, 0xbd, 0x37, 0x22, 0x50, 0xbd, 0x7b, 0x8a, 0x68, 0x3c, 0x49, 0x0a, 0x2d, 0x3d, 0x6c, 0xda, 0x5c, 0x3e, 0x06, 0xce, 0xa3, 0x3d, 0x87, 0x7c, 0x35, 0x3e, 0xee, 0x50, 0x23, 0x3d, 0x9a, 0x5a, 0x0b, 0xbe, 0x0c, 0x5d, 0x04, 0x3e, 0x17, 0x22, 0x1e, 0x3e, 0x33, 0x1d, 0xad, 0xbd, 0x92, 0x63, 0x3d, 0xbe, 0x32, 0xea, 0x16, 0xbe, 0xdd, 0x06, 0xa8, 0xbd, 0x24, 0x3c, 0xfa, 0xbd, 0x34, 0x68, 0x08, 0xbd, 0xcd, 0xa1, 0x83, 0xbd, 0xc0, 0x11, 0xfb, 0xbd, 0xea, 0x44, 0xe8, 0xbd, 0xad, 0x9e, 0xed, 0x3d, 0xbf, 0xb8, 0x8f, 0x3d, 0xdb, 0x63, 0x05, 0x3c, 0x21, 0xcf, 0xe4, 0xbd, 0x45, 0xf1, 0x5e, 0xbd, 0xfc, 0xd7, 0xc5, 0x3e, 0xf3, 0x0e, 0x68, 0x3d, 0x96, 0xd2, 0x5e, 0x3e, 0xc5, 0xdc, 0xd0, 0x3d, 0x5d, 0xa8, 0x0e, 0x3e, 0x25, 0x78, 0x8b, 0xbe, 0x13, 0x10, 0xa1, 0xbe, 0x96, 0xc4, 0x81, 0xbe, 0x4f, 0xda, 0xa8, 0xbe, 0x63, 0x69, 0x15, 0xbe, 0x53, 0x55, 0xc8, 0xbd, 0x45, 0x36, 0xe7, 0x3d, 0x50, 0x85, 0x17, 0x3e, 0xa0, 0x97, 0xf8, 0xbb, 0xa3, 0x9b, 0xa7, 0xbd, 0x49, 0xe6, 0xb9, 0x3d, 0x01, 0x1b, 0xe8, 0x3d, 0xe5, 0x6a, 0x28, 0xbe, 0xcc, 0x4b, 0x68, 0xbe, 0xa3, 0xcf, 0x0c, 0x3e, 0x63, 0x5b, 0xc3, 0xbd, 0xfb, 0xc7, 0xf5, 0x3b, 0x79, 0x55, 0x73, 0x3e, 0xcf, 0x6b, 0x4b, 0x3d, 0xfc, 0x07, 0x04, 0x3e, 0x33, 0x6d, 0x01, 0x3e, 0xd8, 0x8d, 0x53, 0xbc, 0x66, 0x15, 0x17, 0xbe, 0x63, 0xb3, 0x16, 0xbe, 0x49, 0xfd, 0x0e, 0xbe, 0xde, 0xec, 0x3d, 0xbe, 0x5d, 0x02, 0xbb, 0x3d, 0x64, 0xd0, 0x45, 0xbc, 0xff, 0xe9, 0xac, 0x3d, 0x17, 0x91, 0x59, 0x3d, 0xdb, 0x81, 0xc6, 0xbd, 0x05, 0xe6, 0x1c, 0x3e, 0x5c, 0xba, 0x53, 0xbe, 0x70, 0x71, 0x12, 0xbe, 0x7d, 0xf3, 0x85, 0x3d, 0x16, 0xf0, 0x10, 0xbe, 0xa0, 0x22, 0x41, 0xbd, 0x23, 0x29, 0xfe, 0x3d, 0x63, 0x34, 0x11, 0xbe, 0xde, 0xb6, 0xb7, 0xbd, 0x78, 0x05, 0x67, 0x3d, 0xca, 0x2a, 0xfd, 0x3d, 0x11, 0x31, 0x0a, 0x3e, 0x0b, 0x28, 0xf9, 0x3d, 0xa4, 0xb8, 0x3f, 0x3e, 0x03, 0x6e, 0x01, 0xbe, 0x82, 0xc3, 0x0a, 0x3d, 0xc6, 0xcc, 0x52, 0x3e, 0xcc, 0x3d, 0xa9, 0xbd, 0xdb, 0x8e, 0x3b, 0xbe, 0x53, 0x60, 0x88, 0x3c, 0x73, 0x5c, 0x1b, 0xbe, 0x3b, 0x5e, 0x1e, 0xbe, 0x2f, 0x75, 0x98, 0xbd, 0xf4, 0x94, 0xf8, 0x3c, 0x11, 0xd1, 0x52, 0x3e, 0x76, 0xe1, 0x1a, 0xbe, 0x46, 0x22, 0x7e, 0x3c, 0x15, 0xcd, 0x5c, 0xbd, 0xc1, 0xf3, 0xb3, 0xbd, 0x99, 0xd0, 0x56, 0xbe, 0xc6, 0xcf, 0x8d, 0x3c, 0x82, 0x08, 0x1a, 0xbe, 0x06, 0x97, 0x70, 0xbe, 0x87, 0x4a, 0xe6, 0x3d, 0xd9, 0x0d, 0x32, 0xbe, 0x10, 0x99, 0x06, 0x3e, 0x68, 0xd9, 0x11, 0x3e, 0x0a, 0xa3, 0xba, 0x3d, 0x10, 0x83, 0x24, 0xbe, 0x3e, 0xa0, 0x6c, 0xbe, 0x96, 0x2a, 0x98, 0x3d, 0x2a, 0x2e, 0x5a, 0x3d, 0x66, 0x69, 0x69, 0x3e, 0xaf, 0xac, 0x0b, 0xbe, 0x78, 0x78, 0x44, 0x3d, 0x09, 0xeb, 0x21, 0xbd, 0x4c, 0x5f, 0x2d, 0xbe, 0x9c, 0xfe, 0x8a, 0xbd, 0x1f, 0xad, 0xf8, 0x3d, 0x68, 0x93, 0x6f, 0xbd, 0xb8, 0x72, 0x2c, 0x3e, 0x3a, 0x53, 0x13, 0x3e, 0x01, 0x84, 0x95, 0x3d, 0x09, 0xcf, 0x9e, 0x3c, 0xe2, 0xe0, 0x27, 0x3e, 0xee, 0x2c, 0x2f, 0xbe, 0x3e, 0xbe, 0xff, 0x3d, 0x84, 0x64, 0xa8, 0xbd, 0x4c, 0x59, 0x5a, 0xbd, 0x20, 0x3c, 0x1a, 0x3d, 0xaf, 0x61, 0x89, 0xbd, 0xd8, 0xc4, 0xf7, 0x3c, 0x7c, 0x70, 0xe4, 0x3d, 0x6d, 0x06, 0xd2, 0x3d, 0xda, 0xc3, 0x4d, 0xbe, 0x33, 0x6d, 0x61, 0x3d, 0x28, 0xc4, 0x13, 0xbe, 0x63, 0x57, 0x2f, 0xbe, 0xc5, 0x23, 0xfe, 0xbd, 0x8b, 0x78, 0x88, 0x3d, 0x78, 0x9d, 0x6d, 0xbe, 0xf6, 0xa5, 0x28, 0xbe, 0x4a, 0xa8, 0x8c, 0xbd, 0x06, 0xf5, 0xe9, 0x3d, 0xbe, 0x5e, 0x4f, 0xbe, 0x49, 0x95, 0x1e, 0xbe, 0x6c, 0x63, 0x3e, 0xbe, 0x6e, 0x6c, 0x18, 0x3e, 0xe7, 0xf5, 0x20, 0xbe, 0xa1, 0xb3, 0x05, 0x3e, 0x35, 0x75, 0xff, 0xbd, 0x79, 0x45, 0x52, 0xbe, 0x5f, 0x8f, 0x39, 0xbe, 0x13, 0x64, 0x9d, 0xbd, 0xd5, 0x47, 0x00, 0x3d, 0x17, 0x21, 0x76, 0xbc, 0x2a, 0xe8, 0xd0, 0x3d, 0xef, 0x40, 0x73, 0x3d, 0xd3, 0x36, 0x26, 0xbe, 0x44, 0x45, 0xf4, 0xbd, 0xce, 0x39, 0xd8, 0xbd, 0xb0, 0x47, 0xb1, 0xbc, 0x1b, 0x91, 0x13, 0x3e, 0xc3, 0x5c, 0xc4, 0x3d, 0x0e, 0xe5, 0x41, 0xbe, 0xd7, 0x11, 0x30, 0xbe, 0xe7, 0xb9, 0x3a, 0xbe, 0xed, 0x0b, 0x4b, 0xbe, 0x75, 0x83, 0x1b, 0xbe, 0x2a, 0x8e, 0x7e, 0x3d, 0x3c, 0x3f, 0x97, 0x3c, 0x67, 0xfc, 0x23, 0xbe, 0xc3, 0x39, 0x70, 0x3d, 0xe9, 0xf4, 0xc5, 0xbd, 0xe6, 0x89, 0xd3, 0xbd, 0x1c, 0xf2, 0x10, 0xbe, 0x6f, 0x5d, 0x37, 0x3d, 0x10, 0x99, 0xaf, 0x3c, 0xe5, 0x28, 0x49, 0xbe, 0x12, 0x75, 0x81, 0xbd, 0xe1, 0x4f, 0x00, 0x3e, 0x56, 0x6b, 0xe2, 0xbd, 0x68, 0x6e, 0xc4, 0xbc, 0x09, 0x18, 0x94, 0x3d, 0xb9, 0xa4, 0x00, 0x3e, 0x79, 0x87, 0xfd, 0xbd, 0xc1, 0x1a, 0x65, 0x3e, 0x71, 0xe3, 0x93, 0xbd, 0x72, 0x6a, 0xfe, 0x3d, 0x78, 0x8c, 0x94, 0xbd, 0x9b, 0x2c, 0x56, 0x3c, 0xf3, 0xed, 0xa7, 0xbd, 0xef, 0x60, 0x6a, 0xbe, 0x9d, 0x9c, 0x45, 0x3e, 0xe6, 0xc5, 0xde, 0x3d, 0x1b, 0x49, 0xc7, 0x3c, 0xc1, 0x47, 0xa9, 0x3d, 0xb5, 0x68, 0x93, 0xbe, 0xf9, 0x93, 0x4c, 0x3d, 0x0d, 0x9f, 0x1a, 0xbe, 0xed, 0xc8, 0x0f, 0xbe, 0x16, 0x88, 0x9c, 0xbd, 0xed, 0x76, 0x44, 0x3d, 0xbc, 0x0b, 0x35, 0xbe, 0x6d, 0xd5, 0x0d, 0x3e, 0xf4, 0x27, 0x59, 0x3e, 0x92, 0x1f, 0x2b, 0x3e, 0x7e, 0x5e, 0x23, 0x3e, 0x8d, 0xe5, 0x5a, 0xbe, 0xac, 0x7d, 0xfe, 0x3d, 0x6c, 0x4e, 0xb6, 0x3d, 0x10, 0xba, 0x25, 0x3e, 0xf9, 0x71, 0x8c, 0xbd, 0xae, 0x4e, 0x7c, 0x3d, 0x7e, 0x65, 0x35, 0x3d, 0x4e, 0xf0, 0xc8, 0xbc, 0x21, 0x45, 0xf6, 0xbd, 0x39, 0x1d, 0x0a, 0x3e, 0x2f, 0xee, 0x8a, 0xbe, 0x2b, 0xff, 0xfb, 0x3d, 0x7d, 0xd8, 0x8e, 0x3d, 0x91, 0x20, 0x33, 0xbe, 0xb9, 0x58, 0x17, 0xbe, 0x6a, 0x16, 0x3d, 0x3e, 0x37, 0x9a, 0xf2, 0x3d, 0x7a, 0x6c, 0x38, 0xbd, 0x6d, 0x01, 0x97, 0xbd, 0x2c, 0x50, 0x50, 0xbe, 0xf3, 0x8f, 0x6e, 0x3e, 0x8c, 0x2a, 0x38, 0xbe, 0x92, 0xac, 0xa9, 0xbd, 0x9a, 0x06, 0xba, 0x3d, 0x94, 0x99, 0x3b, 0xbe, 0xc3, 0xd1, 0x13, 0xbe, 0xa3, 0x65, 0x1d, 0xbe, 0x83, 0x6a, 0x45, 0xbe, 0xdb, 0x34, 0xdd, 0xbd, 0xaa, 0x7c, 0x2c, 0x3e, 0x01, 0xfa, 0x27, 0x3e, 0xb6, 0xcf, 0x6b, 0x3e, 0x7a, 0x8b, 0x2f, 0x3e, 0x58, 0xd7, 0x82, 0x3d, 0x9d, 0xde, 0xe2, 0xbd, 0x18, 0xa9, 0x40, 0xbe, 0x63, 0x6e, 0xae, 0xbd, 0x3a, 0x64, 0x45, 0x3e, 0xe5, 0xd4, 0x99, 0xbd, 0xbd, 0x88, 0x85, 0x3e, 0xaf, 0x25, 0x08, 0xbd, 0x41, 0x8d, 0x10, 0xbd, 0xc2, 0x4b, 0x04, 0xbe, 0xff, 0x04, 0x24, 0x3e, 0x97, 0x8f, 0xd5, 0xbd, 0x8b, 0x1a, 0xeb, 0xbc, 0x70, 0xfd, 0x3d, 0xbe, 0x27, 0xc5, 0xee, 0xbd, 0xb3, 0x05, 0x89, 0xbd, 0x59, 0xe2, 0x91, 0xbe, 0x5b, 0x06, 0x4b, 0xbe, 0xd0, 0xa7, 0x07, 0x3d, 0x90, 0x55, 0xc8, 0xbd, 0xcc, 0x78, 0xe2, 0x3d, 0x0f, 0x3b, 0x90, 0xbd, 0x26, 0x77, 0x14, 0xbe, 0x8a, 0x6b, 0x9d, 0x3b, 0x3c, 0x9f, 0x25, 0xbe, 0xe0, 0xad, 0x10, 0x3e, 0x31, 0x9a, 0xea, 0xbc, 0x75, 0xa4, 0xaf, 0x3d, 0x75, 0x86, 0x19, 0xbe, 0x73, 0xba, 0x69, 0x3d, 0x81, 0x76, 0xd3, 0x3d, 0x56, 0xec, 0xe1, 0xbd, 0xe2, 0x88, 0x7f, 0x3d, 0xc8, 0x09, 0x55, 0x3e, 0x76, 0xa7, 0x28, 0x3e, 0x1e, 0x75, 0x72, 0xbe, 0x50, 0x72, 0xb6, 0xbc, 0xbf, 0xf0, 0x08, 0xbe, 0x2d, 0x7f, 0xff, 0x3d, 0xeb, 0xa6, 0x5a, 0xbd, 0x6d, 0x6c, 0x72, 0x3d, 0x35, 0x4c, 0xcb, 0x3b, 0x40, 0x2e, 0x81, 0xbd, 0x8a, 0xc5, 0xd1, 0x3d, 0x32, 0xfb, 0xde, 0xbd, 0xb5, 0x91, 0xdf, 0xbd, 0xa2, 0x51, 0xe7, 0x3d, 0x11, 0xd8, 0xc8, 0xbc, 0x2e, 0x37, 0x62, 0x3e, 0xac, 0x61, 0xb7, 0x3d, 0x0a, 0x9a, 0x84, 0x3d, 0x7f, 0x5d, 0x29, 0xbe, 0xfc, 0x46, 0x62, 0xbe, 0x5f, 0x39, 0xc4, 0xbc, 0xba, 0x93, 0x97, 0x3d, 0x6f, 0xd9, 0xc9, 0xbd, 0x73, 0x80, 0x12, 0xbe, 0xba, 0x9c, 0x97, 0xbc, 0x54, 0x24, 0x2e, 0xbe, 0x8e, 0x22, 0x40, 0x3c, 0x88, 0x51, 0x0d, 0xbe, 0xaa, 0x6d, 0x11, 0xbd, 0x65, 0x3f, 0x67, 0x3b, 0xd7, 0x85, 0x60, 0xbe, 0x37, 0x8d, 0x64, 0xbe, 0x9e, 0xe4, 0x83, 0x3d, 0x67, 0x8b, 0x06, 0xbe, 0xe6, 0x08, 0x15, 0x3d, 0xc7, 0x79, 0xf7, 0x3b, 0x9c, 0x32, 0x4b, 0x3e, 0xf5, 0xb4, 0x44, 0xbe, 0xc9, 0x26, 0xaf, 0x3d, 0x03, 0x0f, 0xe9, 0xbd, 0x8d, 0xe6, 0xce, 0xbd, 0x71, 0x5b, 0x0a, 0x3e, 0x34, 0x89, 0xd0, 0xbc, 0x01, 0xe1, 0x25, 0x3e, 0xce, 0xa8, 0xdf, 0x3d, 0x75, 0x86, 0x0c, 0x3e, 0x8c, 0xff, 0x3e, 0xbc, 0x02, 0x13, 0x87, 0xbd, 0xc9, 0x69, 0xc3, 0xbd, 0xfb, 0x3f, 0xb8, 0x3d, 0x4d, 0xcd, 0x91, 0xbd, 0x76, 0xe9, 0x4d, 0x3e, 0x3e, 0xb1, 0x48, 0xbe, 0x6a, 0x72, 0x22, 0x3e, 0xdf, 0x9c, 0x67, 0xbe, 0xff, 0x70, 0x1a, 0xbe, 0x65, 0x93, 0x4e, 0xbd, 0xf0, 0x52, 0x3a, 0xbe, 0x62, 0x32, 0x3d, 0x3b, 0x8f, 0xeb, 0xfe, 0x3d, 0xd4, 0x7b, 0xe5, 0x3d, 0x76, 0x2b, 0xc4, 0x3b, 0x38, 0xe5, 0x34, 0xbe, 0x4d, 0xaa, 0x6d, 0xbd, 0x4f, 0xfe, 0x95, 0xbd, 0x7b, 0x5c, 0x8c, 0xbd, 0xda, 0x8e, 0x2c, 0xbe, 0x8d, 0x42, 0x18, 0x3d, 0x1b, 0x0a, 0x44, 0x3e, 0x3d, 0x95, 0x89, 0xbc, 0xac, 0xba, 0x9f, 0x3d, 0x36, 0xfd, 0x28, 0xbe, 0x6d, 0xe6, 0x93, 0xbd, 0x2c, 0x93, 0x16, 0xbe, 0x1f, 0x07, 0x10, 0xbe, 0x17, 0xf6, 0x3f, 0xbe, 0x94, 0x9d, 0xda, 0xbb, 0xe0, 0x7e, 0x2a, 0x3d, 0xbe, 0xd4, 0x07, 0xbe, 0xc4, 0xab, 0x1b, 0x3e, 0x28, 0xc9, 0x0e, 0x3d, 0xe1, 0x5a, 0x21, 0x3e, 0x06, 0x5d, 0x04, 0xbe, 0xca, 0xfd, 0x53, 0xbd, 0x4d, 0x74, 0xbf, 0x3c, 0xf3, 0xda, 0xb2, 0xbd, 0xc1, 0x81, 0xdf, 0xbd, 0x59, 0x22, 0xd6, 0x3d, 0xa2, 0x6d, 0x6b, 0xbd, 0x2f, 0xbe, 0xe1, 0xbc, 0x8b, 0xa5, 0x6b, 0xbb, 0x4a, 0x04, 0x96, 0x3c, 0x4b, 0xfc, 0x49, 0xbe, 0x3e, 0x3e, 0x48, 0x3e, 0xf9, 0x49, 0x78, 0xbd, 0x51, 0x01, 0x78, 0xbc, 0x9b, 0xbd, 0x75, 0xbe, 0x08, 0x06, 0xae, 0x3d, 0xe8, 0x3f, 0xf7, 0xbd, 0x4d, 0xea, 0xa9, 0x3d, 0xeb, 0xe7, 0xa9, 0x3d, 0xab, 0x26, 0x40, 0xbe, 0xbd, 0x04, 0x4c, 0xbe, 0x4a, 0x2e, 0x0e, 0x3e, 0x4f, 0xea, 0x4c, 0xbe, 0x30, 0x96, 0xf4, 0xbc, 0x71, 0x7e, 0x0c, 0x3e, 0x6b, 0xbc, 0xb6, 0x3b, 0x43, 0x5c, 0x4b, 0xbe, 0x22, 0x5b, 0x57, 0xbd, 0xc8, 0x7a, 0x23, 0x3e, 0x0b, 0x4e, 0x2b, 0x3d, 0x29, 0xc2, 0x5b, 0xbe, 0x09, 0x40, 0xd9, 0x3c, 0xbc, 0xb5, 0x45, 0xbc, 0xe9, 0x48, 0x03, 0xbe, 0x8c, 0xd8, 0x4b, 0x3e, 0x5e, 0xc0, 0x26, 0xbe, 0xee, 0xac, 0x98, 0xbd, 0x0d, 0x42, 0x21, 0x3e, 0xa4, 0xee, 0x35, 0xbe, 0x26, 0x51, 0xbb, 0x3d, 0x97, 0xae, 0x20, 0x3e, 0xaa, 0x55, 0xd4, 0xbd, 0x2e, 0xb7, 0x67, 0x3c, 0xe8, 0x80, 0xf3, 0x3d, 0x4b, 0xf6, 0x3f, 0x3d, 0x8b, 0x3e, 0x7c, 0x3d, 0x5f, 0xa3, 0x00, 0xbc, 0xd3, 0x45, 0x79, 0xbd, 0xdb, 0xef, 0x34, 0x3d, 0xdd, 0xd8, 0xc3, 0xbd, 0xc4, 0xd4, 0x05, 0xbe, 0x3f, 0x20, 0x39, 0x3d, 0xb3, 0x94, 0x6e, 0x3b, 0x0c, 0xad, 0xa8, 0x3d, 0x89, 0xfd, 0xdf, 0x3d, 0x81, 0xd3, 0xa0, 0xbd, 0xbc, 0x82, 0x57, 0x3d, 0x5a, 0x56, 0x1e, 0x3e, 0xa2, 0x21, 0xf5, 0x3d, 0x2d, 0xd0, 0x8f, 0x3d, 0x20, 0x36, 0x0b, 0x3e, 0x37, 0x05, 0x27, 0x3d, 0x99, 0x86, 0x31, 0x3e, 0x74, 0x5b, 0xf0, 0x3c, 0x17, 0xc4, 0x1c, 0x3e, 0xc7, 0x86, 0x33, 0x3e, 0x65, 0x44, 0x58, 0xbd, 0xf1, 0xec, 0xae, 0x3d, 0xac, 0xaa, 0x04, 0x3e, 0xcf, 0x44, 0x1f, 0xbe, 0x74, 0x9d, 0x28, 0x3e, 0xf5, 0x5b, 0x86, 0xbd, 0xe2, 0xf3, 0xcb, 0xbd, 0x56, 0x17, 0x5b, 0xbe, 0x64, 0x13, 0xa7, 0xbd, 0x9f, 0xf7, 0x5a, 0xbe, 0x0c, 0xf7, 0x93, 0x3d, 0x83, 0xbe, 0xde, 0xbd, 0x24, 0x47, 0x52, 0xbc, 0xc8, 0x14, 0xa5, 0xbd, 0x2d, 0x69, 0xf2, 0xbd, 0x4d, 0x84, 0x55, 0xbd, 0x01, 0xe9, 0xa5, 0xbc, 0x10, 0xc3, 0xaf, 0xbd, 0x46, 0x32, 0x33, 0xbd, 0xad, 0x61, 0x41, 0xbe, 0xfa, 0xd3, 0xd4, 0x3c, 0x20, 0xac, 0xaf, 0x3d, 0x9a, 0xae, 0x20, 0x3e, 0xcb, 0xe4, 0x5d, 0xbe, 0x74, 0x47, 0xea, 0x3d, 0x9b, 0xce, 0xf4, 0xbb, 0xd3, 0x9f, 0xae, 0xbd, 0x09, 0x16, 0x40, 0xbe, 0xe1, 0x35, 0x00, 0xbe, 0xc3, 0x88, 0x43, 0x3c, 0x48, 0x5f, 0xb1, 0x3c, 0x8b, 0xff, 0x97, 0x3d, 0x93, 0x97, 0x90, 0x3d, 0xa6, 0xf4, 0xed, 0x3d, 0x9a, 0x86, 0x1e, 0xbe, 0x27, 0xc2, 0xa4, 0xbb, 0xca, 0x94, 0xe3, 0x3d, 0x36, 0x8c, 0xce, 0x3d, 0x04, 0x48, 0x1e, 0xbe, 0x2a, 0x21, 0x43, 0x3e, 0x56, 0xb4, 0x6b, 0x3e, 0xf2, 0xe7, 0xda, 0x3d, 0x35, 0x1e, 0x5c, 0xbd, 0xc2, 0x0f, 0xd5, 0x3b, 0x29, 0xd4, 0x3c, 0xbe, 0xb4, 0x32, 0x8a, 0xbd, 0x98, 0x87, 0x44, 0x3e, 0x06, 0x76, 0xa6, 0xbc, 0x86, 0x0e, 0x6a, 0x3d, 0x7b, 0x94, 0x2d, 0xbe, 0x02, 0xe4, 0x8a, 0x3d, 0x07, 0x4d, 0xb7, 0x3d, 0x83, 0x2d, 0x60, 0x3e, 0xd8, 0xaa, 0x90, 0xbd, 0xc0, 0xb3, 0x95, 0xbb, 0x91, 0x60, 0xcd, 0xbc, 0x75, 0xc6, 0xbd, 0xbd, 0x8d, 0xac, 0xea, 0xb9, 0x8b, 0x30, 0x40, 0x3c, 0x79, 0x1c, 0xba, 0x3d, 0x72, 0xe1, 0x9a, 0x3c, 0xd3, 0xaf, 0xbf, 0xbd, 0x9f, 0x93, 0x0d, 0x3e, 0x26, 0x64, 0x49, 0x3e, 0xdb, 0xc3, 0xd9, 0xbd, 0x33, 0xa1, 0x5c, 0xbe, 0x9a, 0x24, 0x17, 0x3e, 0x39, 0x55, 0x68, 0xbd, 0xb9, 0xa6, 0x83, 0xbe, 0x4c, 0x78, 0x26, 0x3e, 0x41, 0x9b, 0x55, 0xbd, 0xda, 0x43, 0x4a, 0xbe, 0x3b, 0x3c, 0x88, 0xbb, 0xf1, 0xd3, 0x29, 0x3e, 0x05, 0x1d, 0xf0, 0xbc, 0x6f, 0xaa, 0x3b, 0x3e, 0xb6, 0xa3, 0x21, 0xbe, 0x62, 0x82, 0x02, 0xbd, 0xf4, 0x64, 0x13, 0xbe, 0x63, 0xad, 0x4d, 0xbd, 0x7d, 0x9c, 0xf3, 0xbd, 0xa4, 0x49, 0x3e, 0x3e, 0x73, 0xc8, 0xd8, 0xbd, 0x9f, 0x73, 0x34, 0xbd, 0xec, 0xeb, 0xc5, 0x3d, 0x90, 0x99, 0x17, 0x3d, 0x66, 0x66, 0x4c, 0xbe, 0x5c, 0x94, 0x0d, 0x3e, 0x7f, 0x8f, 0xc4, 0xbd, 0x82, 0x91, 0xc0, 0x3d, 0xcf, 0x02, 0xf2, 0x3d, 0x10, 0x70, 0x54, 0xbe, 0x41, 0x2a, 0xd4, 0x3d, 0xab, 0x6e, 0x0c, 0xbd, 0xdd, 0x7c, 0x89, 0xbd, 0xf4, 0xbb, 0xb3, 0x3d, 0x81, 0x6b, 0xfc, 0x3d, 0x25, 0xb0, 0x22, 0x3e, 0xdc, 0x4a, 0xf0, 0x3d, 0x1f, 0x80, 0x47, 0x3e, 0x5c, 0x49, 0x54, 0x3c, 0xa0, 0x58, 0xdd, 0x3d, 0x7b, 0x14, 0xe1, 0xbd, 0x62, 0xd4, 0x13, 0xbe, 0xea, 0x69, 0x0e, 0xbe, 0x18, 0x2c, 0x02, 0xbe, 0x65, 0x11, 0x5b, 0xbe, 0x35, 0x04, 0x91, 0xbe, 0x6c, 0x4c, 0x2b, 0x3e, 0x33, 0xd5, 0xf5, 0xbd, 0xec, 0xaf, 0x07, 0x3e, 0xfa, 0x58, 0xe9, 0x3c, 0x1b, 0x56, 0x1f, 0xbe, 0x57, 0x4f, 0x2f, 0x3e, 0x04, 0x5f, 0x30, 0xbd, 0x90, 0xba, 0x3c, 0x3e, 0x72, 0xf6, 0x2b, 0xbb, 0x60, 0x33, 0xd0, 0x3c, 0xeb, 0xac, 0x52, 0xbe, 0x5d, 0x54, 0x8a, 0x3b, 0x2d, 0x14, 0x62, 0xbe, 0x71, 0x2e, 0x5d, 0x3d, 0x5c, 0x3c, 0x42, 0x3d, 0x70, 0x42, 0x10, 0xbe, 0x79, 0x81, 0xfd, 0xbd, 0x32, 0xbc, 0x15, 0x3d, 0xdb, 0x83, 0x4d, 0xbe, 0xc6, 0x97, 0x77, 0xbe, 0x30, 0x63, 0x32, 0x3e, 0x9d, 0x1b, 0x4e, 0x3e, 0x45, 0xd7, 0x68, 0x3c, 0x24, 0x44, 0x02, 0x3e, 0x52, 0x26, 0xbd, 0xbd, 0xea, 0xd1, 0x81, 0xbd, 0xa2, 0x8c, 0x91, 0xbe, 0x9e, 0xbc, 0x0a, 0x3c, 0x7f, 0xf7, 0x63, 0x3d, 0xef, 0x1f, 0xab, 0x3d, 0xe1, 0x90, 0x46, 0xbe, 0x3d, 0x38, 0x6a, 0xbd, 0x3b, 0x3c, 0x4d, 0xbe, 0x07, 0xe2, 0xca, 0xbd, 0xaf, 0x6c, 0x6e, 0xbd, 0x2c, 0x82, 0xe5, 0xbc, 0xa5, 0xe9, 0x41, 0x3e, 0x11, 0xa2, 0x8a, 0x3c, 0x8a, 0xd3, 0x08, 0x3e, 0x6d, 0x62, 0xba, 0xbd, 0xca, 0xe9, 0x8c, 0xbc, 0x94, 0xaf, 0x4a, 0xbd, 0x53, 0x6b, 0xc1, 0x3d, 0x07, 0x4d, 0xa2, 0x3d, 0x26, 0x57, 0x84, 0x3d, 0x70, 0xad, 0xaf, 0x3d, 0x6c, 0xcd, 0xc7, 0x3d, 0x70, 0x7f, 0x48, 0x3d, 0x36, 0x16, 0xfd, 0x3b, 0xd2, 0x83, 0x98, 0xbe, 0x64, 0x8f, 0x67, 0xbe, 0xff, 0xad, 0xae, 0x3d, 0x87, 0x73, 0x1b, 0xbe, 0x84, 0x85, 0xb5, 0xbb, 0xd8, 0x94, 0x10, 0xbe, 0x70, 0x60, 0x9b, 0xbc, 0x3c, 0x3f, 0x01, 0x3e, 0xd0, 0x68, 0x43, 0xbe, 0x9b, 0x97, 0xd4, 0x3d, 0x7e, 0x6e, 0x12, 0x3c, 0xbe, 0xc0, 0x81, 0xbe, 0xb1, 0x9d, 0x1e, 0x3e, 0xf8, 0xc5, 0x83, 0xbc, 0x9f, 0x53, 0xa4, 0xbd, 0xa8, 0xe8, 0x5e, 0x3c, 0x13, 0x6d, 0x15, 0x3e, 0xe4, 0xbf, 0x05, 0x3e, 0x7d, 0x83, 0xf3, 0x3d, 0xb3, 0x18, 0x3f, 0xbd, 0xcd, 0x23, 0xae, 0xbd, 0x42, 0x8f, 0x01, 0x3e, 0xb8, 0x77, 0x4f, 0xbe, 0xcd, 0xa1, 0xd8, 0x3d, 0x62, 0x82, 0xcc, 0x3d, 0xd8, 0x3f, 0x4e, 0xbe, 0x28, 0x8c, 0xef, 0x3d, 0xb1, 0xb3, 0x20, 0xbe, 0xbe, 0x74, 0x01, 0x3e, 0x10, 0xdf, 0xec, 0xbd, 0x16, 0x2d, 0x23, 0xbd, 0x80, 0xad, 0x53, 0xbe, 0xbe, 0xab, 0xf0, 0x3d, 0xb2, 0x3a, 0xc5, 0x3d, 0xc3, 0xc6, 0x5f, 0x3c, 0xee, 0x99, 0x11, 0x3d, 0x29, 0xa4, 0x3a, 0x3e, 0x55, 0x99, 0x8e, 0xbd, 0xc5, 0x7c, 0xb3, 0x3d, 0x26, 0xb5, 0x14, 0x3d, 0x49, 0x59, 0x08, 0xbd, 0x87, 0x58, 0x0d, 0xbe, 0xc4, 0x3a, 0x86, 0xbc, 0xf6, 0x7f, 0x0e, 0x3d, 0x3f, 0x4d, 0x09, 0xbc, 0x9e, 0x1c, 0xca, 0xbd, 0x01, 0xac, 0xf6, 0x3d, 0x00, 0xfb, 0xc7, 0xbb, 0x18, 0x17, 0xcb, 0x3b, 0xcf, 0x90, 0x99, 0xbb, 0x9e, 0x9d, 0x3d, 0xbe, 0x86, 0x8b, 0x4e, 0xbe, 0x0b, 0xc3, 0xd9, 0xbd, 0x35, 0x59, 0x8b, 0x3d, 0xc1, 0x42, 0x14, 0x3e, 0x51, 0x8b, 0x89, 0xbd, 0xa0, 0xda, 0xee, 0x3d, 0x57, 0x7f, 0xe1, 0x3d, 0xdf, 0xbf, 0xf6, 0xbd, 0x44, 0xdf, 0xb5, 0xbd, 0xe2, 0x06, 0xbf, 0x3d, 0x7c, 0xf1, 0xb0, 0xbc, 0xc5, 0xea, 0x86, 0xbd, 0x49, 0xff, 0x48, 0xbe, 0x5f, 0x32, 0xdc, 0xbd, 0x78, 0x20, 0x91, 0xbc, 0x95, 0x69, 0xfc, 0x3d, 0x8c, 0xf7, 0x40, 0xbc, 0x1d, 0x10, 0x46, 0x3e, 0xd7, 0xda, 0x33, 0x3e, 0x8a, 0x1a, 0xcc, 0x3d, 0xe9, 0x41, 0xbc, 0x3d, 0x20, 0x6a, 0xb2, 0xbd, 0x90, 0xc7, 0x89, 0xbd, 0xaf, 0x02, 0x05, 0x3d, 0x64, 0xe4, 0x59, 0xbe, 0x0f, 0xb1, 0x37, 0xbc, 0xdd, 0xaf, 0x47, 0x3c, 0xe3, 0x7e, 0x63, 0xbe, 0x9b, 0x15, 0xb1, 0x3d, 0x60, 0x13, 0x31, 0x3e, 0xbf, 0x20, 0x96, 0xbd, 0x39, 0x79, 0xd8, 0xbd, 0x4b, 0x3d, 0xc0, 0xbd, 0xdd, 0x95, 0x4b, 0x3d, 0xd7, 0x08, 0xe0, 0x3b, 0x5d, 0x22, 0xd9, 0xbd, 0x6d, 0x4f, 0x54, 0xbe, 0x44, 0x62, 0xa1, 0x3d, 0x42, 0x60, 0xe5, 0x3d, 0x5a, 0xf5, 0xb1, 0xbd, 0x7b, 0x7e, 0xab, 0xbd, 0xa7, 0x84, 0x34, 0xbe, 0xbe, 0xeb, 0x30, 0xbd, 0xb4, 0x07, 0xa0, 0x3d, 0xbf, 0x67, 0x3f, 0x3d, 0x27, 0x6c, 0xbf, 0xbd, 0xd5, 0x2f, 0x86, 0x3d, 0x82, 0x8b, 0xcc, 0x3d, 0x5a, 0x95, 0x6f, 0xbe, 0x53, 0xeb, 0x02, 0x3e, 0x2a, 0x1f, 0x2e, 0x3e, 0xbd, 0xc7, 0x3b, 0xbe, 0x76, 0xc6, 0x14, 0x3e, 0xa0, 0x49, 0xe2, 0x3b, 0x51, 0x79, 0x23, 0x3e, 0xac, 0x5e, 0x95, 0xbc, 0x7a, 0x0a, 0xa2, 0x3d, 0xa2, 0x20, 0x36, 0xbe, 0xe0, 0xb8, 0x95, 0xbd, 0xbd, 0x43, 0xfb, 0xbd, 0xee, 0x9d, 0xe5, 0x3d, 0x45, 0x94, 0x3e, 0xbe, 0x7e, 0x52, 0x00, 0xbe, 0x83, 0x71, 0xbc, 0xbd, 0xd6, 0x63, 0x86, 0x3d, 0x51, 0xce, 0x35, 0xbe, 0xcc, 0xad, 0x44, 0xbd, 0x26, 0xdb, 0xf5, 0x3d, 0xd4, 0xd5, 0x17, 0xbe, 0x7a, 0xd8, 0x3f, 0xbe, 0x65, 0x5f, 0x3d, 0x3e, 0x3a, 0xcd, 0xc0, 0x3d, 0x98, 0xa8, 0xc1, 0x3c, 0x2a, 0x44, 0x2c, 0xbe, 0xda, 0xae, 0x93, 0xbd, 0x70, 0x87, 0xc5, 0x3c, 0x7c, 0x9a, 0x05, 0xbd, 0xe8, 0xf1, 0xf0, 0xbc, 0x98, 0x75, 0x1f, 0xbe, 0x02, 0xbb, 0xa3, 0xbd, 0x19, 0x7e, 0x59, 0xbe, 0xf0, 0x7a, 0x3b, 0x3c, 0x0c, 0xa9, 0xa8, 0xbd, 0x21, 0xc1, 0x31, 0xbe, 0xe0, 0xa9, 0xd3, 0xbb, 0xc1, 0xbd, 0x13, 0x3e, 0xc0, 0xd4, 0x43, 0xbe, 0x21, 0xb4, 0x32, 0xbe, 0x52, 0x9c, 0xea, 0xbd, 0x73, 0x82, 0x0f, 0x3e, 0xf2, 0xcf, 0xb8, 0x3d, 0x2c, 0x54, 0x00, 0xbe, 0xcc, 0x82, 0x71, 0xbd, 0xb0, 0xc0, 0xa8, 0x3c, 0x96, 0x07, 0xda, 0x3d, 0x10, 0xef, 0x74, 0xbc, 0x04, 0xa7, 0xe3, 0xbd, 0x6e, 0x1a, 0x0c, 0xbe, 0x4a, 0xc8, 0xce, 0xbd, 0xf0, 0xa6, 0x97, 0x3c, 0x51, 0x1c, 0x46, 0x3e, 0xa0, 0x4b, 0xcc, 0xbd, 0x3b, 0x28, 0x07, 0x3e, 0xab, 0xdf, 0x0a, 0x3e, 0x20, 0x96, 0x82, 0xbd, 0x8e, 0xfd, 0x4c, 0xbe, 0xdc, 0x92, 0x64, 0x3d, 0xa0, 0x8a, 0xe4, 0x3c, 0x00, 0xaf, 0xfc, 0xba, 0xd3, 0x5e, 0x1a, 0x3e, 0x7e, 0x16, 0x8c, 0xbd, 0x3d, 0x2c, 0x1a, 0x3e, 0xdc, 0x89, 0x42, 0x3d, 0x54, 0x75, 0x32, 0xbe, 0x20, 0xee, 0xda, 0x3b, 0xef, 0x7a, 0x57, 0x3e, 0x84, 0x8a, 0x22, 0xbd, 0xee, 0x97, 0xfc, 0x3d, 0x25, 0xca, 0x3a, 0x3e, 0xcf, 0x8f, 0x1a, 0x3e, 0xbe, 0x07, 0x3b, 0xbe, 0x57, 0x93, 0x43, 0x3e, 0xde, 0x78, 0x24, 0xbe, 0x99, 0xd4, 0xc5, 0xbd, 0x70, 0x99, 0x64, 0xbc, 0x18, 0x69, 0xd6, 0xbd, 0xf0, 0xf7, 0xdc, 0xbd, 0x39, 0x83, 0xc1, 0xbd, 0xd4, 0x92, 0xf3, 0xbd, 0x14, 0x75, 0x5f, 0x3d, 0x34, 0xac, 0x19, 0xbe, 0xf6, 0x67, 0xdf, 0x3d, 0x7d, 0xc5, 0x2a, 0xbe, 0x64, 0x34, 0x83, 0xbd, 0xc0, 0x08, 0x0b, 0xbc, 0x40, 0xe3, 0x09, 0xbd, 0xc0, 0x75, 0x8e, 0x3c, 0x84, 0x0c, 0x47, 0xbe, 0x8d, 0x64, 0x44, 0xbe, 0x16, 0x07, 0x34, 0xbe, 0xcd, 0x49, 0x26, 0x3e, 0xc8, 0x03, 0xa1, 0x3c, 0x9a, 0xf4, 0xe4, 0x3d, 0x6b, 0x4b, 0x5d, 0x3e, 0xd3, 0x8f, 0x35, 0x3e, 0x5f, 0xed, 0x59, 0x3e, 0xf0, 0xb7, 0x87, 0xbd, 0x80, 0x57, 0x2e, 0xbc, 0x50, 0x8a, 0x89, 0x3c, 0xec, 0xa1, 0x24, 0xbe, 0xa0, 0x0a, 0x9d, 0xbb, 0xf1, 0x62, 0xeb, 0xbd, 0x1a, 0x62, 0x97, 0x3d, 0xa8, 0x8e, 0xfc, 0x3c, 0x74, 0xdc, 0x50, 0x3d, 0x7b, 0x8e, 0x53, 0xbe, 0xce, 0xb3, 0x4c, 0xbe, 0xac, 0x78, 0x4c, 0x3d, 0xec, 0x81, 0x87, 0xbd, 0x14, 0x39, 0x2f, 0x3d, 0x81, 0x6e, 0x46, 0xbe, 0xfa, 0xea, 0x98, 0xbd, 0xca, 0x00, 0x8b, 0x3d, 0x78, 0x6e, 0xd1, 0xbd, 0x90, 0x5a, 0xb0, 0xbc, 0x17, 0x72, 0xbe, 0xbd, 0x3a, 0x9d, 0x9e, 0xbd, 0xaa, 0x7a, 0x2b, 0xbe, 0xd2, 0x07, 0xb0, 0x3d, 0x91, 0xfe, 0x15, 0x3e, 0x45, 0xeb, 0x4c, 0x3e, 0xae, 0xf4, 0xaf, 0x3d, 0x2a, 0x56, 0x0b, 0xbe, 0xb4, 0xaf, 0x5c, 0xbd, 0x95, 0xbd, 0x14, 0x3e, 0x1e, 0xe4, 0xaf, 0x3d, 0xa0, 0x9b, 0x35, 0xbe, 0xf4, 0x3c, 0x1f, 0xbd, 0x92, 0x15, 0x52, 0xbe, 0x2c, 0xf9, 0x26, 0xbe, 0xa8, 0x61, 0x0e, 0xbd, 0x60, 0x2f, 0xb6, 0xbb, 0xfb, 0x5f, 0x17, 0x3e, 0xe0, 0xad, 0x89, 0xbb, 0x50, 0xbb, 0xfa, 0xbd, 0xc9, 0x29, 0x4f, 0x3e, 0xe2, 0x8b, 0x66, 0x3c, 0x55, 0xfa, 0x18, 0xbe, 0xbc, 0x7a, 0x7f, 0xbe, 0xdd, 0xf5, 0xb6, 0x3d, 0xb7, 0xae, 0x85, 0xbe, 0xe2, 0x5c, 0x81, 0xbc, 0x38, 0x93, 0xbd, 0xbc, 0x2d, 0xaf, 0x97, 0xbc, 0xf3, 0x71, 0x15, 0xbe, 0x5e, 0xca, 0x99, 0xbd, 0x19, 0x4c, 0x0e, 0xbe, 0xb3, 0x74, 0xff, 0xbd, 0xff, 0xec, 0x71, 0xbd, 0x39, 0xf9, 0x55, 0x3e, 0x2d, 0x49, 0x6d, 0xbe, 0xac, 0x3c, 0xf0, 0x3c, 0x9f, 0xf8, 0x72, 0xbd, 0x2d, 0xc2, 0x09, 0xbd, 0x2a, 0x6d, 0xb5, 0xbd, 0xbd, 0x63, 0x00, 0x3e, 0xf3, 0xb3, 0xc1, 0xbd, 0x64, 0xe9, 0x4b, 0xbe, 0x05, 0x27, 0x3d, 0xbe, 0xd6, 0xb6, 0x1e, 0x3e, 0x06, 0xc4, 0x24, 0x3e, 0x90, 0xfa, 0xdc, 0x3d, 0x81, 0x80, 0x3f, 0x3d, 0x5b, 0x29, 0x01, 0x3e, 0xc1, 0x84, 0xc9, 0x3d, 0x7c, 0x68, 0x75, 0xbd, 0x0a, 0x30, 0x57, 0x3e, 0x58, 0xcf, 0x68, 0x3e, 0xf0, 0x39, 0x7e, 0xbd, 0xc8, 0x3f, 0x4e, 0x3e, 0xf7, 0xe1, 0x34, 0xbe, 0xdb, 0xfe, 0xf7, 0xbd, 0x5f, 0xe1, 0x2d, 0x3e, 0xae, 0x9c, 0x5e, 0x3d, 0x4b, 0x3b, 0xfe, 0xbd, 0xe9, 0xe4, 0x45, 0xbd, 0xd0, 0xd4, 0xb5, 0x3d, 0x63, 0x42, 0x38, 0x3e, 0xe5, 0x80, 0xc4, 0xbd, 0x29, 0x55, 0xfa, 0xbd, 0x99, 0x54, 0xac, 0x3c, 0xdc, 0x44, 0x02, 0x3d, 0xd1, 0xab, 0x03, 0xbe, 0xcc, 0x1b, 0xda, 0xbd, 0x6b, 0x09, 0x65, 0x3e, 0x72, 0x7d, 0x1a, 0x3e, 0x2c, 0x86, 0x1b, 0xbe, 0xe2, 0xb1, 0x0f, 0x3e, 0xb1, 0xc9, 0x7d, 0x3e, 0x6a, 0xf8, 0x15, 0x3d, 0x57, 0xd6, 0x22, 0x3e, 0xa8, 0x5f, 0x36, 0x3e, 0x8c, 0x15, 0x1c, 0x3c, 0x82, 0x67, 0x42, 0x3e, 0x01, 0xe5, 0x75, 0x3e, 0x62, 0xee, 0x5a, 0xbd, 0xea, 0x9e, 0x62, 0x3e, 0x72, 0x6e, 0x39, 0xbe, 0x93, 0xb8, 0x4b, 0xbd, 0x6c, 0x7f, 0x87, 0xbc, 0xf8, 0xe0, 0x10, 0xbc, 0x79, 0xbd, 0xd3, 0x3d, 0x67, 0x93, 0x61, 0xbe, 0x5d, 0x4b, 0x87, 0xbc, 0xbb, 0x7a, 0x83, 0x3c, 0x54, 0x2f, 0x2a, 0xbe, 0x2d, 0xc4, 0x88, 0x3d, 0xc9, 0x12, 0x36, 0xbe, 0x49, 0xe7, 0x04, 0x3c, 0x73, 0xd7, 0x59, 0xbd, 0xba, 0xe0, 0x0a, 0xbe, 0x44, 0x42, 0xee, 0x3d, 0xd0, 0x72, 0x0a, 0xbe, 0x1e, 0x14, 0xbe, 0x3d, 0xde, 0x42, 0xbe, 0x3d, 0x66, 0xb6, 0xfa, 0xbc, 0x02, 0x0b, 0x87, 0x3d, 0x6e, 0x26, 0xb2, 0xbc, 0xf4, 0x54, 0xdb, 0x3d, 0x8c, 0xe6, 0x1c, 0x3e, 0xf0, 0x32, 0x26, 0xbd, 0xd4, 0x7f, 0x52, 0x3e, 0xd8, 0xfa, 0xdf, 0xbd, 0x40, 0x9a, 0xfe, 0x3d, 0x33, 0x78, 0x24, 0xbe, 0x17, 0x20, 0x52, 0xbd, 0x94, 0x7f, 0x5f, 0x3e, 0x88, 0x1b, 0xec, 0xbd, 0x92, 0xdb, 0x09, 0x3e, 0xc5, 0x40, 0xfc, 0x3d, 0xb7, 0xb0, 0x9e, 0x3d, 0x52, 0xe0, 0x0f, 0xbe, 0xf1, 0xb1, 0x7c, 0x3e, 0x27, 0xfb, 0xc9, 0x3d, 0xea, 0xea, 0x33, 0x3c, 0x5a, 0xdc, 0x37, 0xbd, 0x16, 0x94, 0x86, 0xbc, 0xfb, 0x52, 0x94, 0xbe, 0x70, 0x8f, 0xf5, 0xbd, 0xc8, 0xbb, 0xd5, 0x3d, 0xc5, 0xc4, 0x7a, 0xbd, 0x2d, 0x41, 0x75, 0xbd, 0x4a, 0xb9, 0x9d, 0xbd, 0xb5, 0xd8, 0xba, 0xbd, 0x3c, 0x91, 0xd4, 0xbd, 0xc5, 0xa2, 0x4c, 0xbe, 0x6a, 0x0a, 0x12, 0xbe, 0x7d, 0x34, 0x58, 0xbd, 0x76, 0x30, 0xec, 0xbd, 0xa5, 0x62, 0x1b, 0x3b, 0x2d, 0x1e, 0x81, 0x3e, 0x84, 0x26, 0x22, 0x3d, 0x0b, 0x43, 0x37, 0x3e, 0xfb, 0xe1, 0x10, 0xbe, 0xc8, 0x57, 0xd0, 0x3d, 0xe1, 0xc4, 0x29, 0x3e, 0x4e, 0xc9, 0xd6, 0xbc, 0x1e, 0x67, 0x87, 0xbd, 0xd0, 0x99, 0x90, 0xbd, 0xc8, 0x77, 0x26, 0xbe, 0xa3, 0x1a, 0x58, 0x3e, 0x01, 0x80, 0xc9, 0x3d, 0xae, 0x57, 0xa5, 0x3e, 0x9d, 0x2f, 0x59, 0x3e, 0xe9, 0xfe, 0xaf, 0x3c, 0x01, 0x51, 0xf1, 0x3d, 0x0d, 0x40, 0x92, 0xbd, 0x57, 0x7d, 0xc7, 0x3d, 0xe9, 0x27, 0x2c, 0x3d, 0x94, 0xcd, 0xc0, 0xbd, 0x5b, 0xa6, 0xba, 0x3d, 0xe1, 0x60, 0x7e, 0xbe, 0x43, 0x9a, 0xb7, 0xbd, 0xfd, 0xe4, 0x2b, 0xbd, 0x1a, 0xe9, 0x02, 0x3e, 0x1a, 0x43, 0x29, 0xbd, 0x99, 0xd6, 0x1e, 0xbd, 0x75, 0x25, 0xc2, 0xbc, 0xbf, 0xb2, 0x37, 0xbe, 0x6f, 0x8a, 0x71, 0xbe, 0x68, 0xb5, 0x52, 0x3e, 0x42, 0xaf, 0x4f, 0x3e, 0xad, 0x6b, 0x61, 0xbe, 0xde, 0xb1, 0x82, 0x3d, 0x97, 0xb1, 0x72, 0xbe, 0xef, 0x3b, 0x4d, 0x3c, 0x17, 0x07, 0xe1, 0x3c, 0x43, 0xd3, 0x0c, 0x3e, 0x83, 0x64, 0xa2, 0x3c, 0x08, 0xd3, 0x0d, 0xbd, 0xb5, 0xc0, 0x2a, 0xbd, 0x8d, 0x72, 0xbf, 0xbd, 0x20, 0x42, 0x22, 0xbe, 0x61, 0xa0, 0xa2, 0xbd, 0x18, 0x69, 0x88, 0xbd, 0xdc, 0x64, 0xc1, 0xbc, 0xd8, 0x57, 0xdd, 0x3d, 0x3c, 0x66, 0x27, 0xbb, 0x2f, 0x25, 0xc9, 0x3d, 0x24, 0x66, 0x00, 0xbd, 0x20, 0xac, 0x34, 0xbe, 0xad, 0x03, 0xc6, 0x3d, 0x2f, 0xc7, 0x10, 0x3e, 0xcc, 0xa8, 0xb7, 0x3c, 0x94, 0xb4, 0x85, 0x3b, 0xb9, 0xa2, 0xd5, 0xbd, 0x84, 0xee, 0xb5, 0xbd, 0xa2, 0xe5, 0xeb, 0x3d, 0x74, 0xa0, 0x82, 0x3c, 0x97, 0x1f, 0x00, 0xbd, 0xc0, 0xd5, 0x6f, 0x3d, 0xe6, 0xa5, 0xb9, 0x3d, 0x96, 0x28, 0xc0, 0x3d, 0xb5, 0xbc, 0x00, 0x3e, 0x76, 0xd0, 0xc4, 0xbd, 0x06, 0x41, 0x9d, 0xbc, 0x13, 0x2a, 0x22, 0xbe, 0x39, 0x58, 0x28, 0xbe, 0x51, 0x23, 0x5e, 0xbe, 0xf5, 0xf8, 0x86, 0xbe, 0xfb, 0x67, 0x0a, 0xbc, 0x7b, 0xe0, 0x8c, 0x3d, 0x84, 0xc6, 0x40, 0xbd, 0xe9, 0xb9, 0x43, 0xbe, 0x34, 0xa6, 0x23, 0xbd, 0x51, 0xf5, 0x80, 0xbe, 0xaa, 0x5a, 0x88, 0xbe, 0x31, 0x39, 0xaf, 0x3b, 0x12, 0x93, 0x0e, 0xbe, 0xc1, 0xa8, 0x1c, 0x3e, 0x2e, 0xe2, 0x45, 0x3e, 0x14, 0xfb, 0x78, 0xbe, 0xcc, 0x2e, 0x20, 0x3e, 0x0b, 0xb6, 0xd6, 0x3c, 0x42, 0x33, 0xb5, 0x3d, 0xad, 0x5f, 0x75, 0xbd, 0x3a, 0x72, 0x81, 0x3d, 0x80, 0x32, 0xd8, 0xbd, 0x55, 0xf6, 0xb9, 0xbd, 0x72, 0x7a, 0x1d, 0xbe, 0xb0, 0x59, 0xdf, 0x3d, 0xdb, 0x0e, 0xe4, 0xbb, 0x04, 0x72, 0x19, 0x3d, 0x9a, 0x13, 0x2a, 0x3d, 0xee, 0x69, 0x2e, 0xbe, 0xf4, 0xc7, 0x68, 0x3e, 0x07, 0xf3, 0x02, 0xbe, 0x01, 0x7c, 0x07, 0xbe, 0xb6, 0xf7, 0x60, 0xbe, 0xdf, 0xf4, 0x1a, 0x3d, 0x58, 0x7f, 0xa4, 0x3d, 0x4b, 0xcf, 0xad, 0xbd, 0xa4, 0x8e, 0x05, 0x3e, 0x40, 0x83, 0x09, 0x3e, 0x7f, 0xac, 0x0f, 0xbd, 0x7d, 0xf7, 0x3a, 0xbe, 0x70, 0xd7, 0xeb, 0xbd, 0xd8, 0xc9, 0x74, 0x3e, 0x7d, 0x17, 0x77, 0xbd, 0x51, 0xea, 0x65, 0x3e, 0xdd, 0xeb, 0x2a, 0xbe, 0x92, 0xa8, 0x1e, 0xbe, 0xbf, 0xab, 0x2b, 0x3e, 0x6d, 0x88, 0x98, 0x3d, 0xa3, 0xd2, 0x9b, 0xbd, 0xcc, 0x9e, 0x8c, 0xbd, 0xe3, 0xde, 0xb3, 0xbd, 0x1a, 0x96, 0xc0, 0x3d, 0xd4, 0x2b, 0x36, 0xbe, 0xe1, 0xe7, 0x0b, 0xbe, 0xbd, 0x75, 0xc0, 0x3d, 0x4b, 0x34, 0xcf, 0x3d, 0xa4, 0x7b, 0x92, 0xbc, 0x76, 0x23, 0xb6, 0xbd, 0x03, 0x71, 0xa7, 0x3d, 0xff, 0xf6, 0x45, 0xbe, 0xf9, 0x00, 0x2c, 0xbe, 0x00, 0x2f, 0x47, 0xbe, 0x35, 0x15, 0xa8, 0x3d, 0xe5, 0xe5, 0xde, 0xbd, 0xf0, 0x06, 0xc3, 0xbd, 0x70, 0x3b, 0x30, 0xbe, 0xe6, 0xf0, 0xfd, 0x3d, 0x28, 0xdd, 0x46, 0xbd, 0xa5, 0xa2, 0x38, 0x3e, 0xc1, 0x58, 0x57, 0xbe, 0x62, 0xbb, 0x44, 0xbe, 0x60, 0xb0, 0x73, 0xbe, 0x23, 0xaa, 0x9d, 0xbe, 0x6b, 0x77, 0xbf, 0xbd, 0xf7, 0x34, 0x11, 0x3c, 0x91, 0x77, 0x98, 0xbe, 0xeb, 0x1b, 0xdf, 0x39, 0xf3, 0x30, 0xf5, 0x3d, 0x49, 0xcb, 0x36, 0x3e, 0x7c, 0xa1, 0xa6, 0x3d, 0x27, 0x42, 0x9b, 0x3c, 0xaf, 0xf5, 0xdd, 0xbd, 0xc5, 0x92, 0x33, 0xbe, 0x37, 0xbf, 0xbd, 0xbd, 0x7f, 0x53, 0x15, 0x3e, 0x4b, 0x14, 0xb8, 0xbd, 0x91, 0xfc, 0x13, 0x3e, 0xe5, 0xa9, 0x45, 0xbe, 0x52, 0x29, 0x0f, 0x3e, 0x95, 0x92, 0xa7, 0x3d, 0x3f, 0xb2, 0xd3, 0x3d, 0x4e, 0x90, 0xb1, 0x3c, 0x95, 0x91, 0x27, 0xbe, 0x67, 0xb9, 0xed, 0x3c, 0x8b, 0xef, 0x04, 0x3e, 0x07, 0xf2, 0xc1, 0xbd, 0x49, 0xa6, 0x6e, 0xbe, 0x9a, 0x28, 0x6c, 0xbe, 0xdd, 0x1a, 0x23, 0xbe, 0x0c, 0xc2, 0x85, 0xbd, 0xdf, 0xa5, 0xba, 0x3b, 0xdb, 0x13, 0x58, 0xbd, 0xb9, 0x42, 0x83, 0xbe, 0x3e, 0x0e, 0xfd, 0xbd, 0x9d, 0x3a, 0x02, 0xbe, 0x6a, 0xec, 0x71, 0xbe, 0x89, 0xb7, 0x23, 0xbe, 0x9b, 0x40, 0x99, 0xbb, 0xf2, 0x47, 0x1b, 0x3e, 0x11, 0x48, 0x2b, 0xbe, 0x08, 0x57, 0xed, 0xbc, 0xd6, 0xbb, 0x0a, 0x3e, 0x45, 0x13, 0x7f, 0xbc, 0xcb, 0x45, 0x53, 0xbe, 0x1e, 0x5b, 0x7d, 0x3c, 0x7a, 0x09, 0x02, 0x3e, 0x57, 0xec, 0x5c, 0x3d, 0x08, 0xf2, 0xe7, 0xbc, 0x37, 0xfa, 0xd3, 0x3d, 0x3d, 0xf3, 0x0a, 0x3e, 0x6f, 0xca, 0x20, 0xbe, 0x1d, 0xc5, 0x4b, 0xbe, 0x2b, 0xfe, 0x8c, 0xbd, 0x14, 0x81, 0x39, 0x3e, 0x51, 0x9d, 0xc4, 0xbd, 0x45, 0x77, 0x93, 0x3b, 0xb0, 0x86, 0x6a, 0xbd, 0xbd, 0xa8, 0x36, 0xbe, 0x0b, 0x09, 0x82, 0xbc, 0x7a, 0x6c, 0x53, 0x3e, 0x91, 0xb0, 0x0f, 0xbe, 0xaf, 0xf6, 0x26, 0xbe, 0x51, 0x42, 0xb0, 0x3d, 0xe8, 0x2a, 0x64, 0xbb, 0x57, 0xcc, 0xd1, 0xbd, 0xda, 0xd3, 0xf7, 0xbd, 0x75, 0xa5, 0x03, 0xbe, 0x23, 0x67, 0x51, 0x3e, 0x1d, 0xa7, 0x49, 0x3e, 0x84, 0x99, 0x0f, 0xbd, 0xda, 0xd9, 0x82, 0xbd, 0x5b, 0x01, 0x10, 0x3e, 0xd2, 0x1f, 0xf3, 0xbc, 0xc2, 0xe8, 0xaa, 0xbd, 0x5f, 0x90, 0x25, 0x3d, 0x6c, 0x75, 0x13, 0x3e, 0xfb, 0xed, 0x0a, 0xbe, 0xcb, 0x57, 0x1e, 0xbe, 0x43, 0x27, 0x54, 0x3e, 0xc7, 0xf3, 0x05, 0x3e, 0xd8, 0xb5, 0xb9, 0x3d, 0x88, 0x37, 0x36, 0xbe, 0x8a, 0x79, 0xc4, 0x3d, 0xd2, 0xa6, 0x28, 0x3d, 0x23, 0x10, 0x29, 0xbe, 0xec, 0xbe, 0x1a, 0xbb, 0x9f, 0x9a, 0xc7, 0xbd, 0x9a, 0xe6, 0x15, 0x3e, 0xc6, 0xbf, 0x15, 0xbe, 0x36, 0xfc, 0xde, 0x3d, 0x9b, 0x7b, 0x12, 0xbe, 0x8b, 0x65, 0x66, 0xbe, 0x6f, 0xdb, 0xca, 0x3d, 0x40, 0x38, 0xa4, 0xbd, 0x1a, 0x88, 0x11, 0x3e, 0x91, 0x0f, 0xfe, 0xbd, 0xfa, 0x93, 0xc5, 0x3d, 0x7f, 0x0c, 0x27, 0xbe, 0xc3, 0x3b, 0x43, 0x3e, 0xfc, 0xcc, 0x62, 0xbe, 0x6e, 0x7b, 0x66, 0x3e, 0x5d, 0x32, 0x06, 0xbd, 0xad, 0xfe, 0x28, 0xbd, 0x1a, 0xb0, 0x03, 0xbe, 0x7c, 0x58, 0x34, 0xbd, 0xa3, 0xaa, 0xe0, 0x3d, 0x3e, 0x62, 0xf2, 0x3d, 0x45, 0x65, 0x19, 0x3e, 0xc6, 0x61, 0xb2, 0xbd, 0x02, 0xfb, 0x2d, 0x3e, 0x57, 0x53, 0x4d, 0xbe, 0xed, 0x2f, 0xc9, 0x3d, 0xdf, 0xf6, 0x3d, 0xbe, 0x96, 0x96, 0x0b, 0x3d, 0x52, 0xf9, 0x48, 0x3e, 0xce, 0x57, 0x18, 0xbd, 0xf3, 0x08, 0x14, 0x3e, 0x5f, 0xc2, 0x9f, 0x3d, 0xf9, 0x04, 0x1e, 0x3e, 0x49, 0x9d, 0xde, 0xbd, 0x38, 0xc0, 0x8e, 0xbd, 0xcb, 0x30, 0xc6, 0x3d, 0x5e, 0xec, 0x6b, 0xbe, 0x54, 0x7c, 0x3b, 0xbe, 0x5b, 0x75, 0x15, 0x3e, 0x3b, 0x80, 0x5d, 0x3e, 0xe1, 0xd0, 0x62, 0x3e, 0x37, 0x9c, 0xff, 0xbd, 0xc6, 0x77, 0xbe, 0xbd, 0x22, 0xf2, 0x97, 0xbd, 0xb0, 0xb6, 0x2e, 0xbe, 0x98, 0x9e, 0x31, 0xbe, 0xa7, 0xa9, 0x48, 0x3d, 0xa3, 0x28, 0x11, 0x3e, 0xf0, 0x17, 0xfb, 0x3c, 0x98, 0x05, 0xea, 0x3d, 0x3d, 0x43, 0x89, 0xbd, 0xff, 0x82, 0x5e, 0xbe, 0x06, 0x7d, 0x21, 0xbe, 0x3a, 0xb1, 0x68, 0xbe, 0xa6, 0xc5, 0xba, 0xbd, 0xdf, 0xce, 0x58, 0xbc, 0x97, 0x1c, 0xfa, 0x3d, 0xe6, 0x13, 0x14, 0x3e, 0xd8, 0x08, 0x03, 0x3e, 0x5a, 0x1a, 0xb4, 0x3d, 0xbf, 0x6c, 0x89, 0xbd, 0xc9, 0x18, 0xa2, 0x3d, 0x11, 0x8d, 0xab, 0xbd, 0x67, 0x2b, 0x86, 0xbe, 0xef, 0xf5, 0x03, 0x3e, 0xbd, 0x86, 0xdd, 0x3d, 0x8c, 0x56, 0x11, 0x3e, 0x89, 0x74, 0x69, 0xbe, 0xca, 0xba, 0xef, 0x3c, 0xf1, 0xc3, 0x68, 0xbe, 0x34, 0x73, 0x6b, 0x3d, 0x8f, 0x9a, 0x84, 0xbc, 0x24, 0x14, 0xab, 0x3d, 0x54, 0x3d, 0x99, 0xbd, 0x3c, 0x07, 0x10, 0xbe, 0xdc, 0xe6, 0xdc, 0xbb, 0x0b, 0xb6, 0xa5, 0x3d, 0x18, 0xac, 0x25, 0xbe, 0x3f, 0x93, 0x13, 0xbe, 0x6f, 0x90, 0xd7, 0xbd, 0xdf, 0x30, 0x38, 0xbe, 0x6a, 0x27, 0xd4, 0x3d, 0xa0, 0x58, 0x28, 0xbe, 0x7b, 0xf8, 0xe2, 0x3d, 0x62, 0xf7, 0x94, 0x3d, 0x2d, 0x2a, 0x6b, 0x3e, 0x72, 0x7d, 0x82, 0x3d, 0xfc, 0x17, 0xaf, 0xba, 0x50, 0x9e, 0xaa, 0x3d, 0xc5, 0x69, 0x1b, 0x3d, 0x0a, 0x0e, 0x59, 0xbe, 0x62, 0x6b, 0x7c, 0xbd, 0x65, 0x6f, 0xc7, 0x3d, 0xf3, 0x00, 0x0a, 0x3e, 0x91, 0xa5, 0x26, 0x3e, 0x54, 0x9b, 0xf6, 0xbb, 0x83, 0xa0, 0x2e, 0x3e, 0xd6, 0x11, 0xf3, 0xbb, 0x44, 0x34, 0x24, 0xbe, 0x2d, 0xaf, 0x67, 0x3d, 0x90, 0x77, 0x96, 0x3d, 0xa2, 0x97, 0x41, 0xbe, 0x62, 0x02, 0x90, 0x3d, 0x9b, 0x00, 0xae, 0xbc, 0xf7, 0x99, 0xc2, 0x3d, 0xd2, 0x86, 0x0c, 0xbe, 0x11, 0x00, 0xf0, 0x3b, 0x9e, 0x03, 0x9b, 0x3c, 0xf1, 0x9f, 0x58, 0x3e, 0xea, 0x7e, 0x3d, 0x3e, 0x5c, 0xa7, 0x47, 0xbc, 0x5b, 0x43, 0x48, 0xbe, 0x58, 0xf4, 0xa2, 0x3d, 0x16, 0xf7, 0x8d, 0xbc, 0x14, 0x4a, 0xcf, 0xbd, 0x2a, 0x9c, 0x33, 0x3d, 0x7a, 0x1f, 0x33, 0x3d, 0x62, 0x5a, 0x28, 0x3e, 0x74, 0x53, 0x13, 0x3e, 0x55, 0x8d, 0xd6, 0x3d, 0x18, 0x5c, 0x0d, 0xbe, 0x3f, 0x90, 0x00, 0x3d, 0xe4, 0x81, 0x50, 0xbe, 0xc6, 0x3f, 0x95, 0x3d, 0x03, 0xf9, 0x0e, 0x3d, 0x65, 0xc4, 0xe6, 0x3d, 0x05, 0xed, 0x4e, 0xbe, 0x5f, 0xbf, 0x08, 0x3d, 0x53, 0x4f, 0xfa, 0x3d, 0x55, 0x07, 0x4b, 0xbe, 0x1d, 0xad, 0x04, 0xbe, 0x4e, 0x12, 0xf9, 0xbd, 0x7b, 0x0c, 0x05, 0x3e, 0xe6, 0x36, 0x97, 0xbd, 0xcc, 0xda, 0xa7, 0xbc, 0x9c, 0x03, 0x97, 0xbc, 0x1b, 0xfa, 0x83, 0xbd, 0x7c, 0x04, 0x7d, 0xbe, 0xa7, 0xee, 0x8a, 0xbc, 0xc9, 0x20, 0xa8, 0x3d, 0xd3, 0xf2, 0x37, 0xbe, 0x13, 0x6c, 0x71, 0xbe, 0x14, 0xe2, 0xfe, 0xbd, 0xb3, 0x75, 0x03, 0xbe, 0x51, 0x75, 0x6f, 0xbe, 0xd1, 0x9c, 0xd6, 0xbc, 0x4d, 0xab, 0x5e, 0xbc, 0x5f, 0x13, 0x2d, 0x3e, 0x20, 0xe8, 0xe2, 0xbd, 0x5e, 0x79, 0xc0, 0xba, 0xd7, 0x2f, 0x6a, 0xbe, 0x00, 0xde, 0x4a, 0xbd, 0x8c, 0xe0, 0xae, 0xbd, 0xce, 0x3e, 0xb3, 0x3d, 0x02, 0xb7, 0x75, 0xbd, 0x5b, 0xe0, 0x43, 0xbd, 0xe9, 0xd6, 0x20, 0xbd, 0x08, 0xf4, 0x48, 0x3e, 0xa4, 0xb4, 0x6a, 0xbd, 0x90, 0xb7, 0xec, 0xbd, 0x23, 0x82, 0x82, 0x3e, 0x60, 0x21, 0x8b, 0x3e, 0xf8, 0x9f, 0xc1, 0xbd, 0x79, 0x5f, 0xef, 0x3b, 0x31, 0x9e, 0x4b, 0x3e, 0xe2, 0x8a, 0x8e, 0x3e, 0x7e, 0xaa, 0x9f, 0x3b, 0xde, 0x0a, 0x59, 0x3d, 0x83, 0xaa, 0xd7, 0xbc, 0x83, 0xf3, 0x9f, 0xbd, 0x30, 0xeb, 0x76, 0x3e, 0x14, 0x6e, 0x6e, 0x3e, 0xca, 0xa0, 0xe5, 0x3d, 0x9f, 0x77, 0xd4, 0x3d, 0x91, 0x5c, 0xbc, 0xbc, 0xe8, 0x96, 0x03, 0x3e, 0x7c, 0xac, 0x18, 0xbe, 0x86, 0x92, 0x05, 0x3e, 0xf2, 0xeb, 0x50, 0xbe, 0x76, 0x98, 0xd4, 0xbc, 0x19, 0xaf, 0xa7, 0x3c, 0x73, 0xa5, 0x6a, 0x3d, 0xbe, 0x72, 0x60, 0xbc, 0xc9, 0x28, 0x89, 0xbc, 0x43, 0x5c, 0x10, 0xbe, 0x07, 0x6b, 0xe0, 0xbd, 0xcc, 0x84, 0xbf, 0xbd, 0x72, 0xdd, 0x31, 0xbd, 0x2f, 0x6b, 0xb8, 0xbd, 0x63, 0xed, 0x38, 0xbe, 0x15, 0xe3, 0xda, 0x3d, 0xcc, 0x87, 0x07, 0xbd, 0x7a, 0x9c, 0x9f, 0xbd, 0xcd, 0xe6, 0x51, 0xbe, 0xf5, 0x36, 0x35, 0x3e, 0xd9, 0xe1, 0x06, 0xbd, 0xd7, 0x4a, 0xdb, 0x3d, 0x89, 0x89, 0x23, 0x3e, 0x15, 0x3e, 0xd1, 0xbd, 0x8b, 0x76, 0x9f, 0xbc, 0x38, 0x90, 0x45, 0xbc, 0xb3, 0x3f, 0x47, 0x3e, 0x6b, 0xa6, 0x8b, 0xbc, 0xd2, 0x4d, 0x43, 0x3e, 0x36, 0xd8, 0x21, 0xbd, 0x5e, 0x09, 0xb7, 0x3d, 0xec, 0x85, 0x29, 0x3e, 0xc5, 0xec, 0x8e, 0x3d, 0x8c, 0x66, 0xa5, 0xbd, 0x7f, 0x7e, 0xc1, 0xbd, 0x85, 0x54, 0x26, 0x3d, 0xc4, 0x6b, 0xc8, 0xbc, 0x28, 0xa0, 0x15, 0xbe, 0xb5, 0x43, 0x44, 0xbe, 0xa4, 0xfa, 0x51, 0x3d, 0xe6, 0xdb, 0x05, 0xbe, 0x4f, 0x46, 0xfb, 0x3d, 0x27, 0x6c, 0x59, 0xbe, 0x20, 0xaa, 0x2d, 0xbe, 0xd4, 0x61, 0x9c, 0x3d, 0x7b, 0x29, 0xb7, 0x3d, 0x83, 0x73, 0x10, 0xbe, 0xca, 0x55, 0x33, 0xbe, 0xcf, 0xbb, 0x03, 0xbe, 0x4d, 0x84, 0xe9, 0x3d, 0xc5, 0x68, 0x6a, 0xbe, 0x58, 0x38, 0xb7, 0x3d, 0x5b, 0xad, 0x82, 0xbd, 0x62, 0x7f, 0x0a, 0x3e, 0x64, 0xc6, 0x4f, 0xbe, 0x87, 0x7d, 0x43, 0xbd, 0x68, 0xb8, 0x1f, 0xbe, 0x7e, 0x27, 0x24, 0xbc, 0x9d, 0xaa, 0xfa, 0x3d, 0xe8, 0x35, 0x6a, 0x3d, 0x91, 0x10, 0x0f, 0xbd, 0xab, 0x30, 0x66, 0xbe, 0x00, 0xea, 0x7d, 0xbc, 0x21, 0xd2, 0x2a, 0x3e, 0xf8, 0x81, 0x33, 0x3d, 0x07, 0xe5, 0x08, 0xbe, 0xcb, 0x36, 0x02, 0xbe, 0x1f, 0xb8, 0x41, 0xbe, 0x8f, 0x7b, 0x5a, 0x3d, 0xcf, 0xbf, 0xd2, 0xbc, 0x4a, 0x9f, 0x21, 0xbe, 0x17, 0x6a, 0x6f, 0x3c, 0x17, 0x16, 0xf2, 0xbd, 0xa8, 0x56, 0x2d, 0xbe, 0x7c, 0x99, 0xba, 0x3d, 0xfe, 0x95, 0xeb, 0x3c, 0x9e, 0xb9, 0x73, 0xbe, 0xdf, 0xe8, 0x0a, 0xbd, 0x3c, 0xac, 0x2c, 0x3d, 0xd8, 0xbf, 0x80, 0x3d, 0xd1, 0x04, 0x04, 0x3e, 0x7c, 0xb5, 0x57, 0xbd, 0x9e, 0x49, 0xff, 0x3d, 0x85, 0x66, 0x23, 0xbe, 0xf7, 0x25, 0xa9, 0xbd, 0xb8, 0xff, 0xe3, 0x3d, 0xcb, 0x68, 0x13, 0x3e, 0x85, 0x12, 0x50, 0xbe, 0xe9, 0x51, 0xc6, 0x3d, 0x9a, 0x81, 0x10, 0x3e, 0x90, 0xbb, 0xa3, 0x3b, 0xc5, 0xa8, 0x9f, 0xbd, 0x3a, 0x49, 0xa8, 0xbd, 0xa8, 0x10, 0x11, 0x3e, 0x8e, 0xd0, 0x26, 0xbe, 0x78, 0xed, 0xa7, 0x3d, 0x89, 0xc6, 0xfc, 0xbd, 0xd6, 0x2f, 0x00, 0x3e, 0x26, 0xc5, 0x71, 0xbe, 0x08, 0x5d, 0x0c, 0x3d, 0x9c, 0xa7, 0xdc, 0x3d, 0xc7, 0xde, 0x10, 0xbe, 0x0d, 0xab, 0x18, 0x3d, 0xe5, 0xe3, 0xa1, 0xbd, 0x43, 0xa9, 0x28, 0xbe, 0xe5, 0xb3, 0x13, 0x3d, 0xb7, 0x28, 0xb6, 0xbb, 0x76, 0x62, 0x99, 0xbc, 0x23, 0x5e, 0x08, 0xbe, 0xc9, 0xad, 0x4d, 0x3d, 0xc3, 0x2e, 0xc7, 0xbd, 0xef, 0xe0, 0xab, 0xbc, 0xad, 0x12, 0x33, 0xbe, 0x74, 0x7d, 0x1c, 0x3e, 0x38, 0x3c, 0xaf, 0xbd, 0xb8, 0x6e, 0x88, 0x3d, 0x23, 0x3e, 0xe7, 0xbd, 0x61, 0x09, 0xcb, 0xbd, 0x2c, 0x0a, 0x32, 0x3e, 0x52, 0x24, 0x02, 0xbe, 0x82, 0xb0, 0x0e, 0xbd, 0x6e, 0x1a, 0x3d, 0xbe, 0xc8, 0xb8, 0x59, 0xbe, 0x6f, 0xd6, 0x86, 0x3d, 0xc7, 0x15, 0x40, 0xbc, 0x30, 0xd1, 0xe7, 0xbd, 0xe9, 0x05, 0x34, 0x3d, 0xba, 0x38, 0x0e, 0x3d, 0xe7, 0x55, 0x2c, 0xbe, 0xfa, 0x4c, 0x1e, 0x3e, 0x03, 0xaa, 0x85, 0x3d, 0x56, 0x49, 0x33, 0xbd, 0xb1, 0x3f, 0x2b, 0xbe, 0xd8, 0xbe, 0xd3, 0x3d, 0xb3, 0xd1, 0x83, 0xbd, 0x26, 0x5c, 0x1b, 0xbe, 0xb6, 0x57, 0xf0, 0xbd, 0x60, 0x6f, 0xd3, 0xbd, 0xae, 0xcc, 0x0e, 0xbe, 0xcf, 0x08, 0x47, 0xbe, 0x56, 0x86, 0xf6, 0xbd, 0x3e, 0x25, 0x02, 0xbd, 0xce, 0xe6, 0xf0, 0x3d, 0x66, 0xa8, 0x15, 0x3e, 0x77, 0xfc, 0xa6, 0x3d, 0x2d, 0x77, 0x95, 0x3d, 0x73, 0x7e, 0x2f, 0xbc, 0x6c, 0x83, 0x2b, 0xbd, 0x58, 0x7e, 0xb6, 0xbc, 0x1f, 0x7d, 0x1e, 0xbd, 0xff, 0x97, 0x6d, 0xbe, 0x4d, 0x81, 0x42, 0xbe, 0xa4, 0xa2, 0x54, 0x3d, 0x74, 0x59, 0x4b, 0xbe, 0x29, 0xc0, 0x37, 0xbd, 0xe7, 0x58, 0x63, 0xbe, 0xf5, 0x4a, 0x25, 0x3e, 0xb8, 0xda, 0x9f, 0xbd, 0xaf, 0x58, 0xa8, 0x3b, 0x08, 0x63, 0xfa, 0x3c, 0x76, 0x6b, 0xc7, 0x3d, 0x82, 0x2b, 0x83, 0xbd, 0x06, 0x70, 0x3b, 0xbe, 0x3d, 0x5f, 0x36, 0x3e, 0x10, 0xef, 0x85, 0x3c, 0xca, 0xc3, 0x41, 0xbd, 0xc3, 0xd3, 0x7e, 0xbd, 0x42, 0x20, 0xae, 0xbd, 0x0c, 0xee, 0x6c, 0xbe, 0x1f, 0xea, 0x2f, 0xbd, 0xb7, 0x9e, 0xa2, 0xbd, 0xf1, 0x51, 0x82, 0x3b, 0x66, 0x06, 0x24, 0xbe, 0x5d, 0xa9, 0x97, 0x3d, 0x59, 0xd5, 0x0d, 0xbd, 0xcb, 0x18, 0x75, 0xbd, 0x77, 0xa5, 0x30, 0x3d, 0x47, 0xa7, 0xe5, 0x3d, 0xc9, 0xc8, 0xcb, 0x3d, 0xea, 0x5b, 0x48, 0xbb, 0x0e, 0x52, 0x1d, 0x3d, 0x23, 0xa2, 0x86, 0x3b, 0x9d, 0x9b, 0x7d, 0x3e, 0xd0, 0x67, 0xb5, 0xbd, 0x6d, 0x61, 0x36, 0x3e, 0xd3, 0x7e, 0x06, 0x3e, 0xfa, 0x35, 0xa8, 0x3d, 0x62, 0xe3, 0xf6, 0xbd, 0xb0, 0x43, 0xa9, 0x3d, 0xf6, 0xca, 0xde, 0xbd, 0xc1, 0x13, 0x3d, 0x3d, 0x34, 0x83, 0xe0, 0xbd, 0xa0, 0x97, 0xd3, 0x3d, 0xc3, 0x1b, 0x23, 0x3e, 0xb0, 0xad, 0xd0, 0xbd, 0x02, 0xaf, 0xa8, 0x3d, 0xc1, 0x9e, 0x3d, 0x3c, 0x77, 0x0d, 0x6c, 0x3b, 0x8f, 0x5b, 0xc9, 0xbc, 0xf0, 0x3b, 0x9d, 0xbd, 0x63, 0x3a, 0x25, 0xbe, 0x86, 0x24, 0x8b, 0xbd, 0x0a, 0x71, 0x36, 0xbd, 0xa7, 0x47, 0x08, 0x3c, 0x6e, 0xd5, 0x2f, 0xbe, 0x3e, 0x13, 0xc3, 0xbd, 0xfc, 0xdd, 0xd7, 0x3d, 0x81, 0x62, 0xe1, 0x3d, 0x58, 0x35, 0x14, 0x3e, 0x57, 0x03, 0xe2, 0x3d, 0x35, 0x0f, 0x16, 0x3e, 0x7d, 0x06, 0x06, 0x3d, 0x53, 0x4a, 0x1c, 0x3d, 0xba, 0x31, 0xa8, 0xbd, 0x52, 0xe8, 0xfc, 0x3d, 0xe2, 0x99, 0x08, 0xbe, 0x22, 0x65, 0xd0, 0xbc, 0x7f, 0xa9, 0xb7, 0x3c, 0xff, 0x5d, 0xe2, 0x3c, 0xf8, 0xb7, 0x82, 0xbe, 0x25, 0xaa, 0x0d, 0xbe, 0xcd, 0x86, 0x0e, 0xbe, 0x47, 0xa0, 0xf8, 0x3d, 0xb3, 0x58, 0x7e, 0x3d, 0xdd, 0x7d, 0x66, 0xbd, 0xb7, 0x52, 0x90, 0xbd, 0x31, 0xa8, 0x5b, 0x3e, 0xab, 0x24, 0xf9, 0xba, 0x11, 0x68, 0xd6, 0x3d, 0x47, 0x02, 0x43, 0xbe, 0xa0, 0xa7, 0x95, 0x3d, 0xf9, 0x52, 0x0c, 0xbd, 0x89, 0x07, 0x4d, 0xbd, 0xa6, 0x1d, 0x46, 0xbd, 0xcd, 0x1b, 0xf3, 0xbc, 0x8e, 0xc2, 0x6f, 0xbb, 0xf0, 0x24, 0x40, 0xbe, 0x8e, 0xad, 0x02, 0x3e, 0x3e, 0x88, 0xac, 0xbd, 0x0d, 0x22, 0x39, 0xbe, 0x12, 0x52, 0x63, 0x3e, 0xec, 0x2a, 0x82, 0xbb, 0x0d, 0xae, 0x0e, 0x3e, 0x6c, 0x5e, 0x1a, 0x3e, 0xfd, 0xa2, 0xa7, 0x3d, 0x60, 0x28, 0x4c, 0x3e, 0xbb, 0xe2, 0x0a, 0xbd, 0x65, 0x71, 0x94, 0xbd, 0x5c, 0xa6, 0x37, 0x3e, 0x0b, 0x3a, 0xa5, 0x3a, 0x4d, 0x58, 0x1b, 0x3c, 0x72, 0x04, 0x3b, 0xbd, 0x0f, 0x2d, 0x60, 0xbd, 0x8e, 0x2a, 0x36, 0x3e, 0xff, 0x66, 0x30, 0xbe, 0x62, 0x47, 0x4b, 0xbe, 0x35, 0xb7, 0xc3, 0x3d, 0xde, 0x5b, 0xb5, 0x3d, 0x18, 0x5f, 0x92, 0xbc, 0x40, 0x85, 0x12, 0xbe, 0x40, 0xdf, 0x93, 0xbb, 0xe2, 0x3b, 0xb1, 0xbd, 0x62, 0x51, 0x05, 0xbe, 0x96, 0xd5, 0xaa, 0x3d, 0xd9, 0xb1, 0x2b, 0xbe, 0xb7, 0xed, 0x24, 0xbe, 0x51, 0xb6, 0x03, 0x3e, 0xa8, 0x85, 0x4b, 0xbe, 0x22, 0x9e, 0x55, 0xbe, 0x8a, 0x8e, 0xee, 0xbd, 0xc6, 0xf3, 0xcc, 0x3d, 0xcc, 0x30, 0x19, 0xbe, 0xb6, 0x0a, 0x06, 0xbe, 0x2c, 0xa9, 0x7a, 0xbd, 0x06, 0x77, 0x06, 0xbe, 0x90, 0xdb, 0x20, 0xbe, 0xae, 0x30, 0x17, 0xbe, 0xd1, 0xf4, 0x55, 0xbe, 0xc4, 0x96, 0x3c, 0xbe, 0x20, 0xda, 0xad, 0xbd, 0x58, 0xf6, 0x5c, 0xbe, 0x62, 0x83, 0xe2, 0x3d, 0x38, 0x48, 0x3f, 0xbd, 0x19, 0x59, 0x49, 0x3e, 0x4e, 0x0c, 0x8a, 0xbd, 0xbc, 0x4e, 0x56, 0xbe, 0x20, 0xfe, 0x33, 0xbd, 0x54, 0x0d, 0x23, 0xbe, 0x66, 0x4c, 0x9c, 0x3d, 0x54, 0x51, 0x46, 0x3d, 0xac, 0x22, 0x65, 0x3d, 0xa6, 0x55, 0xcb, 0x3d, 0xb0, 0xbf, 0xc7, 0xbd, 0x0f, 0x01, 0x3b, 0x3e, 0x1a, 0xc3, 0x8f, 0x3d, 0x80, 0xc9, 0xa1, 0xbd, 0xf0, 0xd9, 0x81, 0x3c, 0x0a, 0x9a, 0x8d, 0xbd, 0xd5, 0x7e, 0x47, 0x3e, 0xc1, 0x5e, 0x39, 0x3e, 0x68, 0xb7, 0x8c, 0xbd, 0xce, 0x27, 0xa3, 0x3d, 0x0b, 0x4e, 0xc1, 0xbd, 0x09, 0x11, 0xc2, 0xbd, 0x26, 0xb6, 0xae, 0xbd, 0x15, 0xf5, 0x16, 0x3e, 0x33, 0x27, 0xe6, 0xbd, 0x20, 0x30, 0xed, 0x3b, 0x70, 0x52, 0x69, 0xbc, 0xc0, 0x03, 0xc5, 0xbd, 0x3c, 0xc2, 0xe7, 0xbd, 0x82, 0xc4, 0xe0, 0x3d, 0x44, 0xf3, 0x74, 0x3d, 0xdf, 0x5a, 0x50, 0x3e, 0xbe, 0xa4, 0xa9, 0x3d, 0x82, 0x3b, 0x97, 0x3d, 0x70, 0xa9, 0x2a, 0xbe, 0xf2, 0x3c, 0xf8, 0x3d, 0xd3, 0x1f, 0x30, 0x3e, 0xa3, 0xba, 0x47, 0x3e, 0x00, 0xae, 0x86, 0xba, 0x93, 0x61, 0x04, 0xbe, 0x35, 0x5a, 0x2d, 0x3e, 0x44, 0x9f, 0x38, 0xbe, 0xd6, 0x76, 0x08, 0xbe, 0xbf, 0xca, 0x60, 0xbe, 0x48, 0x22, 0x65, 0xbd, 0x4e, 0xe8, 0x63, 0xbd, 0x61, 0xb0, 0xb1, 0xbd, 0x30, 0xb7, 0x95, 0xbd, 0xa5, 0x34, 0x17, 0xbe, 0xd2, 0x98, 0xb1, 0x3d, 0x25, 0xa2, 0xb1, 0xbd, 0xa3, 0xd8, 0xdf, 0x3d, 0xc3, 0x6b, 0x11, 0xbe, 0x82, 0xbc, 0xc8, 0x3d, 0xa3, 0xb2, 0xf1, 0x3d, 0xb6, 0x17, 0x26, 0x3e, 0x2e, 0x5f, 0xae, 0xbd, 0x23, 0xb1, 0xb9, 0xbd, 0xa0, 0x45, 0x22, 0x3c, 0xf2, 0xe4, 0x54, 0x3e, 0xfd, 0xab, 0xbb, 0xbd, 0x5f, 0x4b, 0x00, 0x3e, 0xf2, 0xf6, 0x94, 0xbd, 0x29, 0x49, 0xb5, 0x3d, 0x84, 0xe3, 0x12, 0x3e, 0x56, 0x8b, 0x72, 0xbd, 0xc5, 0x02, 0xcf, 0x3d, 0x94, 0x65, 0x67, 0xbd, 0xb3, 0xa8, 0x12, 0x3e, 0xd2, 0x36, 0xbf, 0xbd, 0x86, 0x8b, 0xf9, 0xbd, 0xae, 0x07, 0x32, 0x3e, 0xd3, 0x5b, 0xd5, 0xbd, 0x22, 0x5b, 0x44, 0xbd, 0x5d, 0x0f, 0x91, 0xbd, 0x22, 0x59, 0x82, 0x3d, 0x4f, 0x08, 0x48, 0xbe, 0xe1, 0xce, 0x15, 0x3e, 0xa2, 0xa4, 0xb7, 0x3d, 0xab, 0x8d, 0x02, 0xbe, 0x37, 0xe1, 0x26, 0x3d, 0x0d, 0x9d, 0xc1, 0xbd, 0xdf, 0x02, 0x05, 0xbe, 0x77, 0xf5, 0x05, 0x3d, 0xcc, 0x8c, 0x1e, 0x3e, 0x86, 0x7e, 0x41, 0x3e, 0x73, 0xa4, 0x33, 0x3d, 0x43, 0xaa, 0x18, 0x3d, 0xcd, 0xac, 0x8d, 0xbd, 0x24, 0x76, 0xcb, 0x3c, 0x3f, 0xf4, 0x71, 0xbd, 0xf6, 0xeb, 0x4d, 0x3e, 0x19, 0x40, 0xd5, 0xbd, 0xa7, 0xbb, 0xfb, 0x3d, 0x62, 0x33, 0xa0, 0xbd, 0x0b, 0xe5, 0xe5, 0x3d, 0x41, 0x04, 0x98, 0xbd, 0x16, 0xb9, 0x03, 0x3e, 0xb1, 0xd6, 0x63, 0x3c, 0x61, 0xa4, 0x32, 0x3c, 0xaa, 0xc2, 0x0b, 0xbe, 0x76, 0x5d, 0xeb, 0x3d, 0x59, 0x6a, 0x99, 0xbd, 0xc1, 0xd6, 0xa4, 0x3d, 0x29, 0x6f, 0x06, 0xbd, 0x9e, 0x9c, 0x3d, 0xbe, 0xcf, 0x0b, 0x17, 0xbe, 0xf0, 0x2c, 0x80, 0x3e, 0x85, 0xcf, 0x2d, 0x3e, 0xe8, 0xb2, 0x23, 0x3e, 0x0a, 0x15, 0x1d, 0xbe, 0x48, 0x7e, 0xcd, 0xbd, 0xc8, 0x73, 0xb9, 0x3d, 0xb5, 0x49, 0xc4, 0x3c, 0xca, 0x13, 0x96, 0xbd, 0x51, 0x18, 0xa3, 0xbc, 0xd8, 0xdb, 0x05, 0xbd, 0x04, 0x2a, 0xdc, 0x3d, 0xf0, 0x91, 0x21, 0xbd, 0x58, 0x68, 0x90, 0x3d, 0x48, 0x8e, 0x2d, 0x3e, 0xa9, 0xb3, 0x35, 0x3e, 0x44, 0xe5, 0x43, 0x3e, 0x6b, 0xdc, 0x4e, 0xbe, 0x98, 0x73, 0x55, 0x3e, 0xfc, 0x88, 0x54, 0xbe, 0xa8, 0x04, 0xda, 0x3d, 0x2f, 0x75, 0x11, 0x3e, 0xfe, 0x76, 0xf2, 0x3c, 0x8d, 0xc5, 0x1e, 0xbe, 0xd8, 0x39, 0x0c, 0x3e, 0x35, 0xdb, 0xfa, 0x3c, 0x31, 0x49, 0x92, 0xbd, 0xed, 0x68, 0xbe, 0x3d, 0x8e, 0x1b, 0x33, 0xbe, 0xfd, 0xdf, 0x71, 0xbd, 0xbc, 0xc7, 0xae, 0xbd, 0xb8, 0x18, 0x45, 0x3e, 0x14, 0xef, 0xb3, 0xbd, 0x09, 0x19, 0x91, 0xbd, 0xf0, 0xcc, 0x27, 0xbd, 0x49, 0xe9, 0x82, 0xbe, 0xa2, 0x39, 0x43, 0xbe, 0xbe, 0x8b, 0xd3, 0x3c, 0x91, 0xf6, 0xeb, 0x3c, 0xb1, 0x55, 0x43, 0x3e, 0x08, 0xbd, 0x12, 0xbe, 0xd6, 0x0e, 0x42, 0xbe, 0xeb, 0x38, 0x8f, 0xbd, 0xb3, 0x01, 0x80, 0xbe, 0x02, 0xfb, 0x29, 0xbe, 0x18, 0x06, 0x22, 0xbe, 0x59, 0x0b, 0x0c, 0x3e, 0xe1, 0x26, 0xfe, 0x3d, 0x2d, 0x1e, 0x5f, 0xbe, 0x70, 0x4a, 0xbb, 0xbd, 0x60, 0x6c, 0x10, 0xbc, 0x09, 0x50, 0xcb, 0x3d, 0xd9, 0x82, 0x6c, 0xbe, 0x94, 0x9f, 0x80, 0xbd, 0xa4, 0xe1, 0x2f, 0xbe, 0x19, 0xec, 0x7a, 0x3d, 0xfc, 0x13, 0x88, 0xbe, 0xc0, 0xba, 0x07, 0xbd, 0x72, 0xcf, 0x5e, 0xbe, 0xd8, 0x4c, 0x89, 0xbd, 0xae, 0x7a, 0xb8, 0xbd, 0x6c, 0x54, 0x68, 0xbe, 0x7f, 0xc7, 0x13, 0x3d, 0x83, 0x67, 0x5e, 0xbe, 0x02, 0xb2, 0x3b, 0x3e, 0x0a, 0xf4, 0x98, 0x3d, 0xeb, 0x27, 0xaf, 0xbd, 0x52, 0x3b, 0x52, 0xbd, 0x74, 0xf1, 0x8b, 0x3c, 0xc6, 0xca, 0xa7, 0xbc, 0x71, 0xb2, 0xea, 0x3d, 0x8a, 0x04, 0x26, 0xbe, 0xf6, 0x87, 0xa5, 0xbd, 0x43, 0xd6, 0x86, 0xbd, 0xc7, 0x3c, 0xb5, 0xbc, 0x7a, 0xea, 0x8d, 0x3d, 0x5e, 0x49, 0x3c, 0xbc, 0xce, 0xda, 0xd1, 0x3d, 0x98, 0x4c, 0x48, 0x3d, 0x68, 0xe7, 0x6a, 0x3d, 0x83, 0x32, 0xc8, 0xbb, 0xd5, 0x9d, 0xd1, 0x3c, 0x1f, 0x87, 0xbd, 0x3d, 0x11, 0xe6, 0x03, 0x3e, 0x73, 0x19, 0x54, 0x3d, 0x02, 0x26, 0xdd, 0xbd, 0x56, 0xeb, 0xb0, 0x3d, 0x09, 0x2a, 0x06, 0xbe, 0xd0, 0x7e, 0x82, 0xbe, 0x2d, 0xa3, 0x04, 0xbe, 0x39, 0xa5, 0xe0, 0xbd, 0x9b, 0x68, 0x18, 0x3e, 0x54, 0xfe, 0x38, 0x3e, 0x26, 0x7c, 0x09, 0xbc, 0x8a, 0xaa, 0x3b, 0x3e, 0x3a, 0xd7, 0x9e, 0x3d, 0xa8, 0xf0, 0xb1, 0x3d, 0x6a, 0x9e, 0x60, 0xbe, 0xc5, 0xdd, 0x80, 0x3d, 0xf0, 0x1d, 0x18, 0x3e, 0x36, 0xc6, 0xd4, 0xbd, 0x9c, 0xc2, 0xf7, 0x3d, 0xef, 0xf9, 0x2d, 0x3e, 0xdc, 0xda, 0x0f, 0xbd, 0xe5, 0xcf, 0x12, 0x3e, 0x39, 0x08, 0x8b, 0x3d, 0x79, 0x1f, 0x37, 0xbe, 0x36, 0x32, 0xee, 0xbd, 0x5d, 0x9d, 0xf3, 0x3d, 0x55, 0x17, 0x54, 0xbe, 0x1c, 0x43, 0x53, 0xbe, 0x54, 0x9d, 0x46, 0xbe, 0x1a, 0x14, 0xc6, 0x3d, 0xc5, 0x78, 0x24, 0xbe, 0xdc, 0x45, 0x3e, 0x3e, 0x67, 0x3a, 0x36, 0x3e, 0xdf, 0x52, 0x61, 0x3c, 0x5c, 0xbd, 0x2d, 0xbe, 0xa0, 0x94, 0x7e, 0xbe, 0xb1, 0x80, 0x4b, 0xbe, 0x06, 0xc3, 0xd3, 0xbd, 0xf8, 0x61, 0x4c, 0xbe, 0x33, 0x6a, 0xb5, 0x3d, 0x14, 0x63,