const unsigned char model[] = {
  0x20, 0x00, 0x00, 0x00, 0x54, 0x46, 0x4c, 0x33, 0x00, 0x00, 0x00, 0x00,
  0x00, 0x00, 0x12, 0x00, 0x1c, 0x00, 0x04, 0x00, 0x08, 0x00, 0x0c, 0x00,
  0x10, 0x00, 0x14, 0x00, 0x00, 0x00, 0x18, 0x00, 0x12, 0x00, 0x00, 0x00,
  0x03, 0x00, 0x00, 0x00, 0x3c, 0x30, 0x00, 0x00, 0x48, 0x28, 0x00, 0x00,
  0x30, 0x28, 0x00, 0x00, 0x3c, 0x00, 0x00, 0x00, 0x04, 0x00, 0x00, 0x00,
  0x01, 0x00, 0x00, 0x00, 0x0c, 0x00, 0x00, 0x00, 0x08, 0x00, 0x0c, 0x00,
  0x04, 0x00, 0x08, 0x00, 0x08, 0x00, 0x00, 0x00, 0x08, 0x00, 0x00, 0x00,
  0x0c, 0x00, 0x00, 0x00, 0x13, 0x00, 0x00, 0x00, 0x6d, 0x69, 0x6e, 0x5f,
  0x72, 0x75, 0x6e, 0x74, 0x69, 0x6d, 0x65, 0x5f, 0x76, 0x65, 0x72, 0x73,
  0x69, 0x6f, 0x6e, 0x00, 0x0d, 0x00, 0x00, 0x00, 0xe8, 0x27, 0x00, 0x00,
  0xd0, 0x27, 0x00, 0x00, 0xa0, 0x27, 0x00, 0x00, 0x54, 0x27, 0x00, 0x00,
  0x7c, 0x26, 0x00, 0x00, 0x74, 0x26, 0x00, 0x00, 0x3c, 0x03, 0x00, 0x00,
  0x34, 0x03, 0x00, 0x00, 0x2c, 0x03, 0x00, 0x00, 0x24, 0x03, 0x00, 0x00,
  0x24, 0x00, 0x00, 0x00, 0x1c, 0x00, 0x00, 0x00, 0x04, 0x00, 0x00, 0x00,
  0xb2, 0xd7, 0xff, 0xff, 0x04, 0x00, 0x00, 0x00, 0x05, 0x00, 0x00, 0x00,
  0x31, 0x2e, 0x35, 0x2e, 0x30, 0x00, 0x00, 0x00, 0x94, 0xd7, 0xff, 0xff,
  0xca, 0xd7, 0xff, 0xff, 0x04, 0x00, 0x00, 0x00, 0xee, 0x02, 0x00, 0x00,
  0xec, 0x2c, 0xd3, 0xf0, 0xec, 0xd1, 0x1e, 0x1d, 0xe8, 0x56, 0x2f, 0xdc,
  0xfc, 0x23, 0xf2, 0x9f, 0x9b, 0x11, 0x20, 0x5c, 0x42, 0x26, 0xdc, 0xc4,
  0xf6, 0x02, 0xf1, 0x16, 0x26, 0xa6, 0x32, 0xcb, 0xd3, 0xca, 0xd4, 0x3f,
  0xd4, 0x00, 0xd5, 0x43, 0xad, 0xeb, 0xd2, 0xd0, 0x3c, 0x31, 0xf2, 0xde,
  0x0d, 0x15, 0xde, 0xf1, 0xf4, 0xf1, 0x1a, 0xf7, 0x21, 0x08, 0x22, 0xe8,
  0x31, 0x49, 0x4f, 0xe0, 0x33, 0x23, 0xc0, 0xf3, 0xd8, 0x07, 0xc6, 0xbc,
  0xf1, 0x11, 0x14, 0xf1, 0xb3, 0x36, 0x28, 0x1a, 0x04, 0xcc, 0x0f, 0xd6,
  0xa7, 0xf3, 0x29, 0x5f, 0x02, 0x12, 0xa4, 0xd7, 0xea, 0x31, 0xd9, 0xba,
  0x2b, 0xd7, 0x09, 0xb6, 0x5e, 0xe4, 0xce, 0xd1, 0xe9, 0x61, 0xf4, 0xf8,
  0xcf, 0x94, 0x0b, 0x1e, 0xa8, 0x1e, 0x15, 0x42, 0xf2, 0x54, 0xf2, 0xb3,
  0x2d, 0xff, 0x7f, 0x45, 0x56, 0xfe, 0x06, 0x02, 0x0a, 0x11, 0xef, 0xfa,
  0x41, 0x70, 0x14, 0xcf, 0x3a, 0x05, 0xd8, 0x16, 0x8e, 0x3d, 0xd3, 0xd3,
  0x4f, 0xda, 0x4d, 0x49, 0x38, 0x30, 0xb1, 0xe2, 0x2c, 0x50, 0xfa, 0xfd,
  0xf4, 0x26, 0x2e, 0x25, 0x1b, 0xa6, 0xa8, 0x16, 0xfc, 0x49, 0xf7, 0x38,
  0x2e, 0xe8, 0x04, 0x1a, 0xe4, 0x37, 0xb9, 0x3f, 0x27, 0x4b, 0x12, 0x29,
  0x45, 0x3d, 0x47, 0x0b, 0x97, 0x05, 0xa2, 0x4c, 0x07, 0xcd, 0x79, 0xc8,
  0xe1, 0x3d, 0x30, 0x0e, 0x39, 0xf0, 0x60, 0x04, 0xfa, 0xc8, 0xa3, 0x0e,
  0xfc, 0x3f, 0x13, 0x43, 0x23, 0x4b, 0xf2, 0xe0, 0xab, 0xb7, 0x4d, 0x1c,
  0xf5, 0xc5, 0x20, 0xef, 0x17, 0x38, 0x5b, 0xe2, 0xfb, 0x22, 0x1e, 0xfa,
  0x38, 0x21, 0x52, 0x26, 0xdb, 0xb7, 0xff, 0x51, 0x17, 0xef, 0x1c, 0xd6,
  0xf9, 0xb1, 0xb9, 0x1c, 0x47, 0x0a, 0xe1, 0x10, 0xfb, 0xdf, 0x39, 0xf6,
  0xb2, 0xe8, 0x29, 0x2f, 0x0b, 0xdd, 0xb8, 0x69, 0x03, 0xa5, 0x67, 0xee,
  0xe8, 0x1d, 0xc4, 0x33, 0xdf, 0x1a, 0x2a, 0x07, 0xf6, 0x09, 0x0e, 0xe0,
  0x37, 0xfb, 0xdf, 0x2d, 0x0e, 0x25, 0xf3, 0xdc, 0x2c, 0xe5, 0xdd, 0xdc,
  0xad, 0x12, 0x71, 0xa6, 0x29, 0x17, 0xd5, 0xd7, 0x15, 0xef, 0x37, 0xc0,
  0xeb, 0xbd, 0xbd, 0x19, 0x06, 0xce, 0x0d, 0xe3, 0xa4, 0x30, 0xc2, 0x3e,
  0x2a, 0x02, 0x00, 0x0a, 0x33, 0xd9, 0xf1, 0x01, 0x12, 0x22, 0xe4, 0x0e,
  0xc8, 0x23, 0x24, 0xeb, 0x46, 0x09, 0xf4, 0xd5, 0xa9, 0xf6, 0xe7, 0x16,
  0xef, 0xd8, 0x25, 0x25, 0xc1, 0x42, 0x14, 0xc8, 0xff, 0xec, 0xc1, 0xa8,
  0x45, 0xf1, 0xc1, 0xc9, 0xdc, 0x37, 0x22, 0x0c, 0x32, 0xdc, 0xed, 0xb0,
  0xdf, 0x2b, 0x00, 0xed, 0x1d, 0x1b, 0x47, 0xe4, 0xfb, 0xcb, 0xae, 0x29,
  0x42, 0x31, 0x3f, 0xf0, 0xcf, 0x30, 0xe3, 0x01, 0xb8, 0x14, 0x40, 0x1f,
  0x42, 0x03, 0x0d, 0x2a, 0xa2, 0xbb, 0xe5, 0x61, 0x07, 0xd4, 0x21, 0xf4,
  0x43, 0xe5, 0xaa, 0x14, 0xd3, 0x1e, 0xdb, 0xbd, 0x28, 0x9a, 0x07, 0x23,
  0x53, 0xa1, 0xd8, 0xca, 0x05, 0xfc, 0x11, 0xd7, 0x5c, 0xcc, 0xe4, 0xe0,
  0x3e, 0xf5, 0xf1, 0x21, 0xc0, 0x03, 0xf9, 0x48, 0x1c, 0x59, 0xf7, 0x1c,
  0xe5, 0xa2, 0x4c, 0xe1, 0xf2, 0x03, 0x14, 0x2e, 0xf0, 0x06, 0xff, 0xea,
  0xad, 0x2f, 0xd5, 0x44, 0xf2, 0x03, 0xfa, 0x03, 0xd8, 0x05, 0x0f, 0x0d,
  0x29, 0xf8, 0xcf, 0x62, 0x00, 0xb4, 0xe2, 0xf6, 0x33, 0xe2, 0x1f, 0x25,
  0xb9, 0x09, 0x27, 0x04, 0x19, 0x09, 0xe6, 0x38, 0x4d, 0xfb, 0xff, 0xf6,
  0xe4, 0xc1, 0x23, 0x30, 0x10, 0xfc, 0xdf, 0xd2, 0xe0, 0xb9, 0x70, 0xcf,
  0xd7, 0x0d, 0x2b, 0xaf, 0xe2, 0x36, 0xcb, 0xb7, 0x46, 0xe3, 0xcc, 0xcc,
  0x1c, 0x27, 0xc9, 0x16, 0xdb, 0xfb, 0xbf, 0x42, 0x36, 0xf5, 0x1f, 0xfe,
  0x01, 0xe9, 0x23, 0xf6, 0xe8, 0xc6, 0x57, 0x04, 0x17, 0xef, 0xcc, 0x16,
  0x33, 0x27, 0x07, 0x71, 0x5a, 0x2b, 0x0f, 0xba, 0x2b, 0xfe, 0x1c, 0xfa,
  0xa1, 0x1e, 0x35, 0xd0, 0xfc, 0x34, 0x13, 0xe9, 0xf9, 0x2d, 0xca, 0xde,
  0xfc, 0xf9, 0xc6, 0x12, 0x52, 0x31, 0xf8, 0x3b, 0xec, 0xe0, 0xf8, 0x5e,
  0xdd, 0x0d, 0x2c, 0xe8, 0x58, 0xfa, 0x3c, 0xc0, 0x06, 0x23, 0xfe, 0x16,
  0x48, 0x05, 0x51, 0xed, 0x36, 0x50, 0x35, 0xca, 0xd5, 0x1f, 0xf2, 0x39,
  0x05, 0xfd, 0x26, 0xba, 0xfb, 0xc9, 0xdc, 0x50, 0x36, 0x45, 0x0e, 0x39,
  0xd6, 0xaf, 0xcd, 0xf2, 0x29, 0x21, 0x16, 0xf2, 0x0d, 0x6e, 0xef, 0xb9,
  0xf2, 0x13, 0x26, 0x08, 0x3a, 0x32, 0x37, 0x1e, 0x0c, 0xd7, 0xd0, 0x22,
  0xeb, 0xe6, 0x03, 0x36, 0xc7, 0x02, 0xf4, 0x03, 0xf7, 0x02, 0xe8, 0xed,
  0xf3, 0x1a, 0xaf, 0xed, 0x50, 0x17, 0x18, 0x5d, 0x4a, 0xe9, 0xb4, 0xd6,
  0x18, 0x0f, 0xf8, 0xe6, 0xc6, 0x10, 0xb3, 0x05, 0xe5, 0xa1, 0x3a, 0xdd,
  0x10, 0xa5, 0xe0, 0x22, 0xe0, 0xd4, 0x29, 0x4f, 0xe7, 0x27, 0x19, 0xa3,
  0xd2, 0xf4, 0xe6, 0xe9, 0x65, 0x47, 0x25, 0x2f, 0xff, 0x19, 0xe3, 0xca,
  0x4f, 0x52, 0x1a, 0x26, 0x65, 0x20, 0x6f, 0xe5, 0x22, 0xf5, 0xe9, 0x04,
  0x12, 0x20, 0xd9, 0x3d, 0x27, 0xd2, 0xfe, 0x41, 0x9c, 0x07, 0x14, 0x15,
  0x0d, 0x21, 0x14, 0xe4, 0xcc, 0x5a, 0x43, 0x0f, 0xd6, 0xc5, 0xf2, 0xcf,
  0x58, 0xc1, 0xe4, 0xe9, 0xb0, 0xd6, 0xa7, 0xdb, 0xa1, 0xea, 0xd7, 0x0b,
  0x0d, 0xb9, 0xec, 0x32, 0x15, 0xaf, 0xf5, 0xcf, 0x03, 0xea, 0xcf, 0xb1,
  0x1f, 0xe7, 0x10, 0x04, 0x0f, 0x3d, 0x00, 0x00, 0x94, 0xda, 0xff, 0xff,
  0x98, 0xda, 0xff, 0xff, 0x9c, 0xda, 0xff, 0xff, 0xd2, 0xda, 0xff, 0xff,
  0x04, 0x00, 0x00, 0x00, 0x28, 0x23, 0x00, 0x00, 0xec, 0x2a, 0xec, 0xe3,
  0x1a, 0x3a, 0xf2, 0x3c, 0x06, 0x19, 0xf7, 0xe8, 0x37, 0x36, 0xf0, 0x1c,
  0x11, 0x16, 0xbb, 0x17, 0xd8, 0xf9, 0x05, 0x01, 0x00, 0x40, 0xdf, 0xcb,
  0x00, 0x31, 0x1a, 0x32, 0x1b, 0x0f, 0xe8, 0x02, 0x2e, 0xf8, 0x10, 0x1c,
  0xf4, 0xe8, 0xcf, 0x10, 0x0a, 0x21, 0xec, 0xe8, 0x0e, 0xdf, 0xd5, 0x16,
  0xe9, 0xe9, 0xfc, 0x0b, 0x08, 0xe0, 0xe3, 0xe6, 0xe9, 0xfe, 0xea, 0x03,
  0xe6, 0x04, 0x2f, 0xcf, 0x33, 0xfe, 0x3d, 0x12, 0xee, 0xf4, 0x25, 0x0d,
  0x10, 0xd8, 0x1a, 0x1f, 0xfb, 0xec, 0xe7, 0xdb, 0x05, 0xfa, 0x12, 0x29,
  0x12, 0xf3, 0xfc, 0xdc, 0x1b, 0xf1, 0xd2, 0x19, 0x07, 0x0e, 0xc7, 0x16,
  0xf2, 0xeb, 0x1c, 0x21, 0xe8, 0xfc, 0xf4, 0xe6, 0x1f, 0xd9, 0xdd, 0xdf,
  0x07, 0x03, 0xf9, 0x28, 0xe5, 0xf9, 0xf9, 0x08, 0xee, 0x1a, 0xcc, 0xd3,
  0x17, 0xeb, 0xd2, 0x0c, 0xdc, 0x09, 0x06, 0xed, 0x01, 0x0f, 0x18, 0xde,
  0xf2, 0xf6, 0xf6, 0xf4, 0x27, 0x0b, 0x19, 0x16, 0x2b, 0xfc, 0xf3, 0x00,
  0xf6, 0xc4, 0x26, 0x01, 0xde, 0x14, 0xc9, 0xdb, 0xef, 0x17, 0xfb, 0x04,
  0x32, 0xda, 0x40, 0x32, 0xf4, 0xe9, 0x31, 0xfe, 0x01, 0x39, 0x38, 0xca,
  0xfa, 0x06, 0xec, 0xf2, 0xeb, 0x26, 0x05, 0xe3, 0x25, 0x03, 0x09, 0xc3,
  0x1f, 0xf0, 0xf6, 0xe5, 0x28, 0x17, 0xec, 0xe9, 0x00, 0xf3, 0xfd, 0xe7,
  0xf3, 0xff, 0xd3, 0x0e, 0x03, 0x05, 0xee, 0xd8, 0xce, 0x3f, 0xff, 0x1b,
  0x04, 0x02, 0x10, 0x0c, 0xd5, 0x07, 0x08, 0xe5, 0x31, 0xf0, 0xfc, 0xe7,
  0xfe, 0x20, 0x43, 0x19, 0xfb, 0xfe, 0xd9, 0x21, 0x36, 0xe5, 0x25, 0xec,
  0xfe, 0xe8, 0xf3, 0x01, 0xdd, 0xff, 0x30, 0xe5, 0x0b, 0xe2, 0xf7, 0xff,
  0x19, 0x2f, 0xe1, 0xd3, 0xff, 0x24, 0x16, 0xcc, 0x17, 0x14, 0x21, 0x05,
  0xd7, 0xed, 0xd9, 0xeb, 0xce, 0xeb, 0xe7, 0x28, 0x3d, 0xd2, 0x03, 0x07,
  0xfd, 0x17, 0xf7, 0x2a, 0x2c, 0x0f, 0xef, 0x07, 0x2f, 0x1c, 0xe0, 0x10,
  0x3e, 0x13, 0x12, 0x0a, 0x0b, 0xfa, 0x34, 0x09, 0xee, 0x23, 0x36, 0x0a,
  0xf5, 0xdd, 0x0d, 0x04, 0x0f, 0xf5, 0xee, 0xe5, 0x0d, 0xe1, 0xdd, 0x0c,
  0x00, 0x0a, 0xf6, 0x11, 0x05, 0xe7, 0x38, 0x0b, 0xf5, 0x0c, 0xdd, 0xec,
  0xe0, 0xc4, 0x15, 0xf4, 0xea, 0x01, 0x17, 0xd1, 0x1c, 0xe3, 0x2a, 0x25,
  0xf7, 0xf2, 0xfe, 0xf1, 0xfc, 0xea, 0xee, 0xdc, 0x09, 0x1f, 0xe0, 0xf7,
  0x12, 0x3f, 0xdb, 0x18, 0xe8, 0x05, 0x14, 0x19, 0x16, 0x12, 0xf3, 0x0d,
  0xdf, 0x10, 0x21, 0xe7, 0x0d, 0x04, 0xec, 0xda, 0xe6, 0xe9, 0x0a, 0xe7,
  0xfa, 0x0a, 0x19, 0x28, 0xe4, 0xf5, 0x0f, 0x00, 0xed, 0xc9, 0xf3, 0xe5,
  0x18, 0x0c, 0x1e, 0xe4, 0xfb, 0x15, 0xd0, 0xfc, 0x05, 0xec, 0x1c, 0xd3,
  0xe8, 0xf6, 0xf2, 0x13, 0xc7, 0x04, 0x1e, 0xcb, 0x3c, 0xf2, 0x29, 0xe4,
  0xe9, 0x23, 0x11, 0xfc, 0x0b, 0x1c, 0x06, 0x05, 0xd8, 0x34, 0x03, 0xf8,
  0xe4, 0xe1, 0x03, 0xe0, 0x00, 0x12, 0xe8, 0x20, 0x21, 0xfd, 0xdf, 0x14,
  0xe1, 0x28, 0xec, 0xf1, 0xdd, 0x11, 0xf8, 0x0c, 0xc5, 0xcc, 0x08, 0x20,
  0x04, 0xd5, 0xf7, 0xc6, 0xdf, 0xf1, 0xbe, 0x07, 0x2c, 0xf6, 0xfd, 0xd9,
  0x08, 0xfe, 0x0a, 0xcd, 0x33, 0xf6, 0xed, 0xe9, 0xff, 0x03, 0x1e, 0xfa,
  0xe3, 0xdf, 0x24, 0xdf, 0xc5, 0xdd, 0xfd, 0xf5, 0xe0, 0xf0, 0x3a, 0xf8,
  0xe1, 0x0f, 0x28, 0xf8, 0x00, 0xfa, 0xed, 0x15, 0xd9, 0x2a, 0xcd, 0x21,
  0x10, 0xe9, 0xd7, 0xfa, 0x09, 0xed, 0x00, 0xc7, 0x03, 0x33, 0x02, 0xeb,
  0xdf, 0x13, 0xe1, 0x15, 0x1a, 0xfd, 0xf9, 0x0c, 0x13, 0x06, 0x03, 0xed,
  0x30, 0x2e, 0xe8, 0xf5, 0xc4, 0x26, 0xe7, 0x2a, 0xe7, 0xda, 0x26, 0x34,
  0xe7, 0x23, 0xc7, 0x1e, 0x23, 0x10, 0xcb, 0x18, 0xf1, 0xfd, 0x28, 0x38,
  0xe8, 0xd9, 0xd5, 0x10, 0x03, 0x03, 0xec, 0xe3, 0x1d, 0xfe, 0xe5, 0x23,
  0xf6, 0xf3, 0xe7, 0xbe, 0xe2, 0x1d, 0x2a, 0x33, 0xdf, 0x14, 0xbe, 0xf0,
  0xe0, 0x1d, 0x0d, 0xf3, 0x39, 0xfe, 0x1e, 0x07, 0x0b, 0xed, 0x02, 0x0a,
  0x32, 0xed, 0xcd, 0xe6, 0xf3, 0x26, 0x2a, 0xf5, 0xe1, 0xc6, 0xce, 0x13,
  0xb5, 0xe8, 0xc6, 0xc4, 0xd3, 0xcd, 0x0b, 0xeb, 0xcb, 0x2e, 0xd6, 0x05,
  0xf8, 0xfa, 0x0c, 0x10, 0x0e, 0xd3, 0x09, 0x05, 0xf1, 0x1b, 0xf8, 0x08,
  0x05, 0xef, 0xdd, 0x10, 0xc0, 0x17, 0x0d, 0x0f, 0xe9, 0x22, 0x0c, 0xee,
  0xc1, 0xde, 0xc9, 0xf1, 0x12, 0xcf, 0xd1, 0x08, 0x10, 0x11, 0xe4, 0x07,
  0x23, 0x0d, 0x2c, 0x1d, 0x0d, 0x1c, 0x09, 0xdb, 0xd5, 0xd7, 0xed, 0xcf,
  0x1a, 0xd6, 0x27, 0xe4, 0x2f, 0x0e, 0x03, 0x30, 0x03, 0xee, 0x11, 0xe0,
  0xfe, 0xe9, 0xf4, 0x0a, 0x13, 0xe7, 0x37, 0x15, 0x37, 0x2f, 0x18, 0x28,
  0x0c, 0x1f, 0xfb, 0xc4, 0x36, 0x16, 0x17, 0xc3, 0x13, 0x33, 0xee, 0xf1,
  0xf0, 0x09, 0x01, 0xea, 0xdc, 0xfb, 0xec, 0x0f, 0xdf, 0x0a, 0x29, 0x18,
  0x16, 0xd0, 0xfc, 0x13, 0xdd, 0xf6, 0xe1, 0xc5, 0x11, 0x18, 0xe4, 0x23,
  0x06, 0xc2, 0xf4, 0x25, 0x16, 0x1c, 0xec, 0x14, 0xe1, 0xce, 0xe3, 0xe7,
  0xd5, 0xed, 0xf1, 0x04, 0x21, 0xe4, 0xe0, 0xf2, 0xe4, 0xf6, 0x03, 0xf3,
  0x13, 0x0b, 0x11, 0xf9, 0xc8, 0xf5, 0x18, 0x23, 0xf9, 0x10, 0x29, 0xf4,
  0xc5, 0x2f, 0xe5, 0x3e, 0x18, 0x02, 0xdd, 0xeb, 0xfb, 0x11, 0xfb, 0xf6,
  0xc8, 0x0b, 0xf9, 0x0e, 0x1d, 0xdb, 0x1a, 0x2e, 0x01, 0xf0, 0xfb, 0x39,
  0xd2, 0x3b, 0x02, 0x12, 0xfd, 0xd2, 0x16, 0x01, 0x02, 0xf5, 0x2e, 0xd6,
  0x0d, 0x27, 0x17, 0xf9, 0xda, 0x2a, 0x30, 0x20, 0x21, 0x3f, 0x13, 0x0b,
  0x0e, 0xd5, 0xc1, 0x3b, 0x22, 0x26, 0x2e, 0xe7, 0x38, 0x22, 0xf9, 0xee,
  0xec, 0x08, 0xc6, 0xfa, 0xe9, 0xf7, 0xfd, 0x15, 0xf7, 0xe1, 0xeb, 0x04,
  0x03, 0xfa, 0xfe, 0x10, 0x26, 0x02, 0xe2, 0x09, 0xfa, 0x30, 0x12, 0x00,
  0x31, 0x11, 0x19, 0xf0, 0xfd, 0xec, 0x03, 0x2a, 0xc1, 0x2f, 0x1e, 0x08,
  0xe9, 0x00, 0x10, 0x10, 0xd8, 0x2b, 0xee, 0xd8, 0xed, 0x0f, 0xe2, 0xdf,
  0xd0, 0x29, 0x06, 0x2a, 0xea, 0xf7, 0xd8, 0x13, 0x0e, 0xfa, 0xf7, 0xf1,
  0xee, 0xe6, 0xf7, 0x00, 0xd6, 0xbf, 0x1b, 0x05, 0x3a, 0x15, 0x09, 0xfd,
  0xfc, 0x02, 0xde, 0x2b, 0xf9, 0xee, 0xd3, 0x11, 0x26, 0xc7, 0x37, 0xee,
  0x0d, 0xfb, 0x0e, 0xdd, 0xee, 0x14, 0x0c, 0xfc, 0x02, 0x0f, 0xf8, 0xe6,
  0xc9, 0x17, 0xfd, 0xf6, 0x2c, 0x14, 0x02, 0x19, 0x0b, 0x20, 0xfc, 0x14,
  0x05, 0x1a, 0x12, 0x41, 0xd9, 0x0b, 0x14, 0x07, 0xc1, 0x2d, 0xb9, 0xda,
  0x3d, 0x30, 0xce, 0x13, 0x2b, 0xe4, 0x32, 0xd8, 0xf8, 0x1c, 0xd8, 0xd1,
  0xe6, 0xec, 0x1a, 0x01, 0xf8, 0xf8, 0x06, 0xd8, 0xfb, 0x0b, 0xfa, 0xf0,
  0xca, 0x0d, 0xf7, 0xfe, 0x18, 0x19, 0x27, 0xd4, 0xf0, 0xf3, 0xd4, 0xd8,
  0xe0, 0xcc, 0xf3, 0x15, 0x03, 0x14, 0x02, 0xeb, 0x25, 0xf8, 0xf0, 0xff,
  0xca, 0xeb, 0xf8, 0xf9, 0xfb, 0xda, 0xff, 0xfe, 0xea, 0x00, 0xee, 0x0f,
  0x2a, 0xc0, 0x1c, 0xc5, 0x0d, 0x0e, 0x0a, 0x00, 0xc1, 0x18, 0xea, 0xf0,
  0xed, 0xe8, 0xf0, 0xee, 0x05, 0x27, 0x25, 0x17, 0xe9, 0x1c, 0xd1, 0xd5,
  0xfa, 0xdf, 0xfd, 0x22, 0xfb, 0xf7, 0x0c, 0x41, 0x14, 0xf8, 0xf9, 0xe8,
  0x3f, 0xee, 0x22, 0xfb, 0xd4, 0x1a, 0x07, 0xf7, 0x03, 0xfb, 0x05, 0x3b,
  0xf8, 0x2c, 0xed, 0x10, 0x00, 0x12, 0x13, 0x0e, 0x18, 0x0f, 0xe7, 0x07,
  0x01, 0xf9, 0x00, 0x03, 0x09, 0x32, 0x30, 0xe3, 0x13, 0x28, 0x2a, 0xfb,
  0xcf, 0xf6, 0xfe, 0x03, 0xd7, 0xef, 0xe7, 0x15, 0x08, 0xf9, 0xfd, 0xc8,
  0xef, 0x0e, 0x15, 0x0f, 0xce, 0xd9, 0x33, 0x12, 0xf8, 0xe2, 0xd1, 0x0f,
  0xed, 0x0f, 0x16, 0x01, 0xee, 0x17, 0x14, 0xee, 0x0b, 0xf8, 0xff, 0x15,
  0xed, 0xe8, 0x1b, 0xef, 0x13, 0xdd, 0xdf, 0x2a, 0x02, 0x0a, 0x0c, 0x15,
  0xce, 0xee, 0x15, 0xe7, 0xfe, 0xef, 0xe8, 0xea, 0xf0, 0xd4, 0x06, 0x25,
  0x1f, 0xec, 0xed, 0xf6, 0xce, 0xdd, 0x2e, 0xf4, 0x14, 0xce, 0xd3, 0x07,
  0xe3, 0x20, 0x25, 0xf0, 0xe5, 0x16, 0x24, 0x06, 0xff, 0x20, 0x11, 0xc7,
  0xfe, 0x02, 0xdb, 0xf2, 0xd4, 0xe3, 0xe2, 0xee, 0xcf, 0xe6, 0x34, 0x25,
  0xf0, 0xee, 0x0a, 0xff, 0xea, 0xd1, 0x19, 0x02, 0x27, 0x0f, 0xf1, 0xf3,
  0x28, 0x39, 0xfc, 0x0d, 0x02, 0x15, 0x0b, 0xf8, 0x1d, 0xec, 0x28, 0x11,
  0x0d, 0x2b, 0x1b, 0xe9, 0x1d, 0xf9, 0xcb, 0xfb, 0x30, 0xd0, 0xe4, 0x1c,
  0x06, 0x01, 0xf4, 0xc6, 0xd4, 0x04, 0xeb, 0x0e, 0x1e, 0x1a, 0x00, 0x01,
  0xe7, 0x1e, 0x22, 0x09, 0x0f, 0xde, 0x2a, 0xff, 0x22, 0x07, 0xd9, 0xf5,
  0x04, 0x06, 0x1a, 0x1e, 0x06, 0x1c, 0xf7, 0xfc, 0x1d, 0x13, 0xd4, 0xe9,
  0x10, 0xfb, 0x23, 0x0e, 0xda, 0x3c, 0xf1, 0xdd, 0xf1, 0xee, 0xde, 0xfe,
  0x09, 0x08, 0xe8, 0x1a, 0x09, 0xe4, 0x3a, 0x03, 0xff, 0x07, 0x0f, 0xf9,
  0xd5, 0xef, 0x26, 0xdd, 0xf2, 0x06, 0xf0, 0x25, 0x2a, 0xf6, 0x2c, 0x0c,
  0xea, 0x1d, 0xf4, 0xfe, 0x25, 0x03, 0xfe, 0xfe, 0x15, 0x14, 0x10, 0x13,
  0x03, 0xf3, 0xfd, 0x05, 0xfd, 0x00, 0xd0, 0xe6, 0xf6, 0x08, 0xfd, 0xff,
  0x01, 0xeb, 0x21, 0xfc, 0x12, 0xde, 0x24, 0xff, 0xef, 0xe4, 0x36, 0x29,
  0x03, 0xf2, 0x33, 0x28, 0x00, 0xf3, 0x2f, 0xfe, 0x22, 0xf3, 0x16, 0x10,
  0xf7, 0xf3, 0xf7, 0xe6, 0xca, 0x2e, 0xdc, 0xe1, 0xf9, 0x25, 0x0f, 0xcd,
  0x0a, 0x1c, 0x0e, 0xe1, 0x0c, 0xd9, 0xc8, 0xf7, 0x0e, 0xf4, 0xdc, 0xd6,
  0x0d, 0x1d, 0xd6, 0x0f, 0x2b, 0x37, 0xc5, 0xe5, 0xc4, 0xe1, 0x35, 0x02,
  0xe9, 0x1a, 0x0d, 0x09, 0xd3, 0xd6, 0x0b, 0xd9, 0x21, 0x1a, 0xf1, 0x1a,
  0xf8, 0xf7, 0xcc, 0xe8, 0x1e, 0xeb, 0x10, 0xf7, 0xfc, 0x12, 0xe4, 0x15,
  0xf8, 0x2d, 0xf5, 0x1f, 0xfa, 0x19, 0xc7, 0x02, 0xf9, 0xff, 0xc4, 0x23,
  0x1a, 0x11, 0xec, 0x11, 0x06, 0xf7, 0x18, 0xe3, 0xf2, 0x0d, 0xe9, 0xd7,
  0x23, 0xd7, 0x03, 0x08, 0x07, 0xe6, 0x06, 0x0d, 0x22, 0xef, 0xd9, 0xfb,
  0x11, 0xdd, 0x20, 0xe0, 0x11, 0xff, 0xcf, 0x02, 0xea, 0xfd, 0xe9, 0xcf,
  0xda, 0x0e, 0xbf, 0x19, 0x2c, 0xd6, 0xc4, 0x1b, 0x11, 0x06, 0xf8, 0xfd,
  0x01, 0xf1, 0xe5, 0x11, 0x01, 0x04, 0xd4, 0x1d, 0xdb, 0xea, 0xc3, 0xeb,
  0xf9, 0xee, 0x24, 0xfd, 0x22, 0xff, 0x11, 0xd1, 0x2c, 0xd6, 0x1d, 0x16,
  0x02, 0x0d, 0x1b, 0xc1, 0xfd, 0x21, 0x18, 0xee, 0xdb, 0x17, 0xd8, 0x0c,
  0x2d, 0xc1, 0x0f, 0xf8, 0xf3, 0x1a, 0xe2, 0x23, 0xe8, 0xed, 0x31, 0x12,
  0xfa, 0x29, 0x1a, 0xbd, 0x10, 0x00, 0x0a, 0x05, 0xd0, 0xe4, 0x15, 0xff,
  0xd0, 0xe0, 0x0d, 0x45, 0xf6, 0xd4, 0xcc, 0x08, 0x37, 0x13, 0xf8, 0xe9,
  0x13, 0x1b, 0x19, 0x06, 0xf7, 0xfe, 0xf0, 0x3e, 0xf2, 0xca, 0x11, 0xd7,
  0x16, 0x07, 0x2e, 0xf0, 0xe1, 0x17, 0xdb, 0xf6, 0x0b, 0x27, 0x16, 0x1a,
  0x00, 0x0d, 0x04, 0xf8, 0xee, 0x09, 0xe7, 0x0b, 0x26, 0x07, 0x15, 0x1c,
  0xf6, 0x03, 0xfe, 0x18, 0x2b, 0xd9, 0xd6, 0xfd, 0x01, 0xe8, 0x19, 0xf1,
  0x21, 0xf4, 0x1e, 0xf7, 0x35, 0xea, 0xf1, 0x0e, 0x08, 0x1f, 0x2d, 0xcd,
  0x34, 0xd5, 0x11, 0xf1, 0x03, 0xcc, 0xde, 0xef, 0x26, 0xf2, 0x31, 0xe5,
  0x36, 0x42, 0xe4, 0xfb, 0x15, 0x35, 0xfd, 0xe1, 0x15, 0xed, 0xed, 0xf4,
  0xe5, 0xc1, 0xfb, 0x17, 0x09, 0xe6, 0x26, 0x0b, 0x16, 0xdb, 0xdb, 0xf6,
  0x2e, 0xef, 0x1c, 0xdf, 0x1b, 0x07, 0xfa, 0xdd, 0x04, 0xf6, 0x20, 0x13,
  0xff, 0x15, 0xe7, 0xf5, 0x09, 0xf0, 0xe2, 0x33, 0xe2, 0xda, 0xf4, 0x09,
  0x3c, 0x0d, 0x17, 0x14, 0x2b, 0x2b, 0xe4, 0xee, 0xe8, 0xb2, 0x04, 0x1d,
  0x16, 0xb0, 0xdf, 0xe3, 0x1b, 0xe7, 0xe9, 0xda, 0xe5, 0xe7, 0xd1, 0x0b,
  0x14, 0xe9, 0xe9, 0xd5, 0xf8, 0x23, 0x22, 0x0f, 0xf2, 0xb5, 0xdf, 0xfa,
  0xfc, 0xc6, 0xea, 0xc8, 0xdb, 0x1f, 0x18, 0xf9, 0x08, 0x0c, 0x35, 0x06,
  0xe9, 0x0a, 0xf2, 0xf2, 0xf3, 0xdb, 0xd4, 0x0e, 0x12, 0x19, 0xf4, 0xf3,
  0x0f, 0xd9, 0xee, 0x02, 0x07, 0x16, 0xf9, 0xfd, 0x22, 0xe4, 0xe2, 0xc8,
  0x1c, 0xe7, 0xf4, 0x19, 0x17, 0x30, 0xf6, 0xd5, 0xef, 0x1f, 0x06, 0x11,
  0xdd, 0xea, 0xec, 0x08, 0x05, 0xbb, 0x1a, 0xf5, 0xf9, 0x14, 0xfe, 0xe5,
  0x1e, 0x36, 0x12, 0x21, 0xe7, 0xf0, 0xd7, 0x1a, 0x0f, 0x05, 0x17, 0xc8,
  0x27, 0xd6, 0xf9, 0x1a, 0xed, 0x09, 0x1c, 0xe3, 0x30, 0x1c, 0x20, 0x0e,
  0x15, 0xe2, 0x48, 0xe2, 0xf1, 0x09, 0x13, 0x0f, 0xda, 0x05, 0x22, 0x1b,
  0x0e, 0x13, 0x0e, 0xbe, 0xf8, 0x0f, 0x0e, 0xfa, 0x05, 0xf3, 0x1c, 0xc2,
  0x07, 0x01, 0x01, 0x07, 0x21, 0xfe, 0x12, 0x06, 0x04, 0xc2, 0x21, 0xda,
  0xf8, 0x21, 0x0a, 0xe7, 0x21, 0xe2, 0xee, 0xf1, 0x3d, 0xec, 0x08, 0x08,
  0x0a, 0xf3, 0x0b, 0x01, 0xf9, 0x1d, 0x0a, 0xdb, 0x08, 0x0f, 0x08, 0xf1,
  0x16, 0x00, 0xea, 0x1b, 0x3a, 0xeb, 0x22, 0x0b, 0x28, 0xf9, 0x3b, 0x25,
  0x14, 0xf4, 0xe6, 0xeb, 0xdc, 0xf4, 0x1b, 0x21, 0x1e, 0xde, 0x1f, 0x01,
  0xed, 0xe2, 0xfa, 0xff, 0xdc, 0x2d, 0xc7, 0xdb, 0xf4, 0x00, 0xfa, 0x17,
  0x26, 0x03, 0xca, 0xd8, 0xd6, 0x1e, 0x16, 0x17, 0x08, 0xd9, 0xfe, 0x15,
  0xfc, 0x26, 0x08, 0x2b, 0x1e, 0xff, 0x04, 0xe3, 0x0b, 0xf9, 0x17, 0xdc,
  0xee, 0xf7, 0xed, 0xff, 0x12, 0xe8, 0xe9, 0xf0, 0xfe, 0xdd, 0xf3, 0xf4,
  0x16, 0x01, 0xe7, 0xeb, 0x1c, 0xc6, 0xf1, 0x03, 0x3f, 0xf1, 0xd8, 0x29,
  0x14, 0x28, 0x12, 0x0e, 0x0f, 0xdb, 0x0d, 0xfc, 0x0e, 0x36, 0xdc, 0x0a,
  0x1d, 0x42, 0xfa, 0xcd, 0xea, 0x0a, 0xda, 0xe1, 0xf3, 0xcd, 0x1d, 0xfd,
  0xe0, 0xd4, 0xd8, 0x01, 0xfc, 0x00, 0x00, 0x00, 0x22, 0x06, 0x2f, 0xde,
  0x26, 0xe4, 0xdf, 0x26, 0x00, 0x2c, 0x02, 0xdc, 0xe4, 0x16, 0x14, 0x11,
  0xf7, 0x0d, 0xfe, 0xdb, 0x33, 0xd7, 0xf2, 0x26, 0x0a, 0x22, 0xd4, 0x0c,
  0x13, 0x00, 0x13, 0x05, 0xc7, 0x17, 0x27, 0xe0, 0xdf, 0xf6, 0x26, 0xf3,
  0x1b, 0x12, 0x26, 0xea, 0x06, 0xe6, 0xe3, 0x0c, 0x08, 0x1b, 0x01, 0xd8,
  0x0a, 0x3d, 0x05, 0x08, 0xc9, 0xf3, 0xf5, 0xe2, 0x16, 0xca, 0xd5, 0xf9,
  0x1d, 0xf7, 0xff, 0x19, 0x19, 0xe5, 0x0b, 0xd4, 0x30, 0x21, 0xe5, 0xfd,
  0x27, 0x03, 0xea, 0x60, 0xed, 0xed, 0x1d, 0x51, 0xe7, 0x38, 0xd4, 0xc3,
  0xfc, 0x54, 0xd0, 0x15, 0x17, 0x28, 0xf5, 0x4d, 0x1e, 0x21, 0x19, 0x01,
  0x29, 0xdc, 0x1c, 0x11, 0xef, 0x04, 0xe2, 0x0c, 0xfa, 0x12, 0x24, 0x0d,
  0xd2, 0xe0, 0x0e, 0x14, 0xf2, 0x34, 0x16, 0xf6, 0xe4, 0x39, 0xf6, 0x02,
  0xcd, 0xf8, 0xc9, 0x1c, 0xf2, 0xe7, 0x0b, 0xc7, 0x3c, 0x07, 0x15, 0xf3,
  0xe7, 0xd5, 0x00, 0xe4, 0x1e, 0xf4, 0x07, 0xf3, 0x12, 0xda, 0x2f, 0x21,
  0x11, 0x23, 0x1d, 0x1b, 0xfe, 0x2a, 0xf6, 0x03, 0x0e, 0xdd, 0xd8, 0x22,
  0x1f, 0xfa, 0x0a, 0xf0, 0xf8, 0xcc, 0x24, 0xdf, 0xcc, 0xe2, 0x05, 0x32,
  0x08, 0xdd, 0xf1, 0xe1, 0xdf, 0xed, 0xec, 0xf4, 0x2c, 0xfd, 0x05, 0x08,
  0x3c, 0xcf, 0xd5, 0x20, 0xff, 0xf0, 0xed, 0xd3, 0xfe, 0x09, 0x0e, 0x1e,
  0xf1, 0x28, 0x2f, 0x01, 0xf1, 0x0b, 0xca, 0xfa, 0x0a, 0x0c, 0x09, 0x20,
  0x1b, 0xf7, 0x09, 0x24, 0xe9, 0xed, 0xfe, 0x0b, 0x08, 0xef, 0xcd, 0x1c,
  0xe2, 0xfa, 0x15, 0x20, 0x28, 0xfd, 0x29, 0xfa, 0x09, 0x22, 0x1b, 0xe6,
  0xc7, 0x02, 0x14, 0x07, 0xf1, 0x20, 0x07, 0xf9, 0xc6, 0x28, 0xf9, 0xf0,
  0xe1, 0xd5, 0x1f, 0x43, 0xdb, 0xd5, 0x10, 0xe0, 0xfe, 0x1a, 0xfc, 0xce,
  0x20, 0x10, 0xd7, 0x24, 0x08, 0xef, 0x1b, 0x24, 0x17, 0x23, 0xf2, 0xe9,
  0x42, 0xfa, 0xdf, 0x29, 0x04, 0xe7, 0xe3, 0x18, 0x08, 0xf9, 0x01, 0x0c,
  0xff, 0xdf, 0xf7, 0xe3, 0x13, 0x31, 0x2b, 0xf2, 0x31, 0xef, 0xed, 0x09,
  0x03, 0x1e, 0x0a, 0xee, 0x14, 0xdb, 0x16, 0x09, 0xf0, 0xd7, 0x2d, 0xeb,
  0x41, 0x0b, 0xef, 0xf1, 0xf0, 0x00, 0xe0, 0xc9, 0xec, 0xea, 0x26, 0xfd,
  0xf5, 0xf7, 0x01, 0xd6, 0xee, 0x05, 0x0e, 0x1f, 0xd9, 0xf2, 0xf0, 0xed,
  0x1b, 0xfe, 0xfd, 0x0a, 0xd9, 0xf0, 0xd5, 0xd4, 0xe3, 0xf9, 0xf1, 0x15,
  0xea, 0xde, 0x0e, 0x07, 0x0e, 0x25, 0xd3, 0x10, 0x0c, 0x0a, 0xf0, 0x00,
  0x01, 0x18, 0xf7, 0xe0, 0x05, 0xf6, 0x02, 0x0c, 0xf8, 0xf2, 0x16, 0x09,
  0x1f, 0xdc, 0x19, 0x1c, 0x3a, 0x21, 0x13, 0x1a, 0xf1, 0x0f, 0x05, 0x04,
  0x2a, 0x00, 0x00, 0xcd, 0xe2, 0x06, 0xef, 0xfe, 0x00, 0xc7, 0x3a, 0xf8,
  0x13, 0x0f, 0xff, 0xf5, 0xe7, 0xe5, 0xc7, 0x25, 0xfe, 0x18, 0xef, 0x07,
  0xf1, 0xf5, 0x06, 0x01, 0x04, 0x22, 0xef, 0x17, 0x06, 0x0a, 0x01, 0x09,
  0x24, 0x23, 0xfd, 0xf0, 0x30, 0xf4, 0x38, 0x16, 0x31, 0xec, 0x21, 0x01,
  0x1f, 0x1d, 0xe1, 0xfd, 0x1d, 0xf9, 0xfa, 0xe5, 0xcf, 0x14, 0x30, 0x16,
  0xf2, 0xe6, 0xe4, 0x02, 0x28, 0xfd, 0xc4, 0xd7, 0x3c, 0x0a, 0x1d, 0xdf,
  0xdb, 0xe1, 0xd3, 0x0f, 0x03, 0x09, 0x28, 0x27, 0x24, 0xdb, 0x02, 0xfe,
  0x16, 0x1b, 0x2b, 0x06, 0x0a, 0xf7, 0x22, 0xe7, 0x07, 0xf8, 0x29, 0x13,
  0x1d, 0x00, 0x1e, 0x2b, 0xbe, 0xce, 0xe9, 0xd4, 0x2b, 0x02, 0xf7, 0xf1,
  0xdd, 0x02, 0x03, 0xfd, 0x12, 0xd5, 0x1c, 0xe9, 0xef, 0xc7, 0x0f, 0xf5,
  0x10, 0xfe, 0xd0, 0xe9, 0x0e, 0xee, 0xf0, 0xf8, 0x08, 0x11, 0x03, 0x07,
  0xfb, 0xee, 0xde, 0xdf, 0xda, 0x0a, 0xf1, 0x13, 0x0b, 0xe1, 0x1a, 0x34,
  0x13, 0xf6, 0x18, 0xe2, 0x0e, 0xfb, 0x18, 0x01, 0x11, 0x1d, 0x25, 0x24,
  0xfe, 0x27, 0xf5, 0xf7, 0x09, 0x38, 0xf3, 0x0b, 0x0a, 0x15, 0x26, 0x06,
  0xf5, 0xf2, 0x24, 0xca, 0xfd, 0xf4, 0xf6, 0xfb, 0xc9, 0x0e, 0xe5, 0x24,
  0xf3, 0x15, 0xee, 0xe5, 0x1b, 0x03, 0xfd, 0xe5, 0x20, 0xfb, 0xed, 0x25,
  0x06, 0xfb, 0x15, 0xd4, 0x0c, 0xe2, 0xfd, 0x14, 0x38, 0xf6, 0xe9, 0xf3,
  0xf2, 0x31, 0xe2, 0x12, 0xd2, 0x21, 0x19, 0xee, 0x33, 0x19, 0xf2, 0xcc,
  0xee, 0x09, 0xe9, 0x19, 0x1c, 0x00, 0x09, 0x17, 0x0e, 0x32, 0xf4, 0xf1,
  0x33, 0xd0, 0xc9, 0x0b, 0xfb, 0xc8, 0x0d, 0x00, 0xf8, 0x40, 0x2f, 0x1e,
  0xe6, 0x0b, 0x28, 0x0d, 0xfb, 0x30, 0x25, 0xe3, 0x10, 0xd2, 0x09, 0x00,
  0x02, 0x10, 0x0a, 0xef, 0xda, 0xed, 0xf5, 0x03, 0xed, 0x0b, 0xe9, 0xd9,
  0xe2, 0xf6, 0x05, 0xe1, 0x01, 0xce, 0x1c, 0x0b, 0xf9, 0xfc, 0x2e, 0x03,
  0x05, 0xd6, 0x21, 0xf6, 0xd7, 0x12, 0xf9, 0xf1, 0x09, 0xe8, 0xfa, 0x1a,
  0x12, 0x08, 0xf0, 0x02, 0xdb, 0x07, 0x20, 0x0c, 0x0c, 0xcd, 0x05, 0xee,
  0xe5, 0x05, 0xe7, 0x32, 0xde, 0x01, 0xfe, 0xfd, 0xff, 0x19, 0xde, 0x3b,
  0xf0, 0xf5, 0x04, 0x13, 0x25, 0x17, 0xf4, 0x09, 0x00, 0xee, 0x0d, 0xe3,
  0x1f, 0x0f, 0xc9, 0xc7, 0x09, 0xda, 0xd2, 0xcf, 0xe4, 0x2b, 0xee, 0x09,
  0x12, 0xeb, 0xeb, 0x1f, 0x08, 0x20, 0xf2, 0xed, 0x2d, 0xe9, 0xf7, 0x07,
  0xf0, 0x19, 0x02, 0x17, 0xe8, 0x14, 0xc9, 0xd5, 0xd1, 0xe5, 0x00, 0xbf,
  0x17, 0x1c, 0x03, 0x08, 0xf0, 0xc4, 0x1e, 0x34, 0xcd, 0x05, 0xd5, 0x16,
  0xfd, 0x01, 0xf0, 0xea, 0x1a, 0x00, 0x33, 0x13, 0xec, 0x3b, 0x0b, 0xd7,
  0xce, 0xe2, 0x18, 0xe5, 0x2b, 0xfe, 0x27, 0x0e, 0xf6, 0xfe, 0x33, 0x02,
  0x29, 0x1b, 0xf2, 0xe9, 0xff, 0x2c, 0x12, 0x02, 0xe5, 0x09, 0xe9, 0xf6,
  0x40, 0x0b, 0xf3, 0xe5, 0x3c, 0x3e, 0x06, 0xf5, 0x16, 0x0a, 0xf9, 0xeb,
  0x04, 0xef, 0xcc, 0x09, 0xda, 0xf9, 0x07, 0x07, 0xf5, 0x22, 0xdc, 0xf5,
  0xdc, 0x15, 0xdc, 0x0d, 0xf1, 0xe5, 0xd7, 0xe0, 0x10, 0xe8, 0x0e, 0xf4,
  0x12, 0x07, 0xdd, 0x24, 0x07, 0x04, 0xe5, 0xd0, 0x40, 0x22, 0x12, 0xc0,
  0x1e, 0xf9, 0x0c, 0x26, 0x05, 0xfc, 0xdd, 0x07, 0x17, 0x28, 0x14, 0xea,
  0x26, 0x0f, 0xf6, 0xcd, 0x13, 0x12, 0x27, 0x3a, 0x00, 0xed, 0xcb, 0xf7,
  0xe0, 0x0a, 0x36, 0x03, 0x0c, 0x0b, 0xf4, 0x0d, 0xfc, 0x1e, 0xd5, 0x03,
  0x1b, 0xc7, 0x10, 0x02, 0xf0, 0xff, 0xff, 0xda, 0x0c, 0xe5, 0x28, 0x01,
  0x41, 0x07, 0x33, 0xfc, 0xf6, 0x14, 0x22, 0xe1, 0xf7, 0x35, 0xe7, 0xe6,
  0xfb, 0x0d, 0x1e, 0xfb, 0xc8, 0x14, 0x2b, 0x08, 0xfb, 0xc5, 0xeb, 0x33,
  0x0c, 0xe3, 0x05, 0x26, 0x0c, 0xc1, 0x31, 0xe9, 0x23, 0xeb, 0x02, 0x05,
  0x2a, 0x12, 0xf1, 0xfa, 0xe9, 0xda, 0xe9, 0xed, 0x0d, 0x27, 0x31, 0xf6,
  0x2e, 0xee, 0xe6, 0xfc, 0xd9, 0xcd, 0x12, 0xf5, 0x10, 0xec, 0xfa, 0xf0,
  0xf0, 0x2b, 0x22, 0x0f, 0x29, 0xef, 0x07, 0xeb, 0xec, 0xc9, 0x22, 0xd7,
  0x00, 0x15, 0xd1, 0xcd, 0x03, 0x26, 0x1f, 0x0d, 0x34, 0xe6, 0x38, 0xd7,
  0xef, 0xe5, 0x2a, 0x24, 0x2f, 0x17, 0xd1, 0xc5, 0x1b, 0xea, 0xf3, 0xfd,
  0x28, 0xe0, 0x34, 0x17, 0x1b, 0x36, 0xf7, 0x0f, 0x2e, 0xfd, 0x2d, 0xc6,
  0x08, 0x0e, 0xfc, 0x35, 0x18, 0x04, 0x08, 0x10, 0x0c, 0x0d, 0x14, 0x03,
  0xd8, 0x00, 0xf6, 0x22, 0x3c, 0x06, 0x32, 0xfa, 0x1d, 0xfb, 0x02, 0xe4,
  0x1d, 0xf4, 0x08, 0x09, 0xf6, 0x0a, 0x02, 0xe1, 0x40, 0xec, 0xed, 0xdf,
  0x18, 0xcb, 0xfe, 0x22, 0x05, 0x20, 0xda, 0xe9, 0x0e, 0xfa, 0xe5, 0xf4,
  0x07, 0xe0, 0x17, 0x0a, 0xe2, 0x08, 0xeb, 0xf7, 0xfc, 0xc9, 0xe9, 0xf3,
  0xc3, 0xbf, 0xdd, 0x24, 0x00, 0xe1, 0x2d, 0x39, 0x11, 0x23, 0xf9, 0x00,
  0x04, 0xe2, 0xfa, 0x1f, 0x0b, 0x2a, 0xf9, 0xed, 0x14, 0x33, 0x1b, 0x1b,
  0xd2, 0x2a, 0xe6, 0x14, 0x2f, 0x22, 0xe9, 0xf2, 0x32, 0x10, 0xdd, 0xd8,
  0xfa, 0xe9, 0xed, 0x04, 0x01, 0xf5, 0xd7, 0xfd, 0xef, 0x30, 0xc7, 0xdc,
  0x31, 0x08, 0xd6, 0xee, 0x1c, 0xd4, 0x16, 0xc2, 0x11, 0x13, 0xc1, 0xfa,
  0x0f, 0x0d, 0xe2, 0xea, 0x00, 0xe9, 0xfe, 0xbe, 0xf0, 0xfc, 0xe8, 0x07,
  0xf9, 0xf1, 0xeb, 0x25, 0xcb, 0xd2, 0x0f, 0x00, 0xe7, 0xed, 0xfa, 0xf6,
  0x17, 0x0d, 0x12, 0xe8, 0xda, 0xf0, 0x0e, 0x17, 0x12, 0x26, 0xca, 0xe6,
  0xdf, 0xe5, 0xfe, 0xce, 0x12, 0xfc, 0xfb, 0x0e, 0xed, 0xc8, 0xe2, 0xfb,
  0xf7, 0xf4, 0xfd, 0xe8, 0xee, 0x2b, 0x13, 0xd2, 0x21, 0xe8, 0xdb, 0xee,
  0x0c, 0xe3, 0x09, 0xcf, 0x00, 0xdb, 0x0a, 0xe5, 0xf2, 0xed, 0xc2, 0xf4,
  0x17, 0x20, 0xbe, 0xfa, 0xe4, 0x35, 0xca, 0xff, 0xce, 0xcf, 0x22, 0xe0,
  0xff, 0xef, 0xd1, 0xfe, 0x10, 0x02, 0xd4, 0xfa, 0x0a, 0xe2, 0xfe, 0xef,
  0x22, 0xd9, 0x0c, 0x0d, 0x1b, 0xd8, 0xec, 0x11, 0xd8, 0x13, 0x31, 0x2b,
  0xc8, 0x2b, 0xd6, 0x23, 0xf5, 0x11, 0xce, 0x2c, 0x10, 0x03, 0x0e, 0xfd,
  0x02, 0x0a, 0x26, 0xf0, 0x0a, 0xf7, 0xe7, 0xec, 0xf0, 0xe6, 0x15, 0x29,
  0xe1, 0xf4, 0xdb, 0xea, 0xff, 0xea, 0xe7, 0x15, 0xf1, 0x00, 0xe2, 0x21,
  0x10, 0xd6, 0xdb, 0x08, 0x29, 0xea, 0xd0, 0x18, 0x2b, 0xfb, 0xe3, 0xe2,
  0x08, 0x23, 0xd7, 0xf8, 0x31, 0x18, 0x0b, 0x18, 0x13, 0x09, 0xf5, 0xe1,
  0xea, 0x18, 0xfa, 0xd5, 0x06, 0x40, 0xeb, 0x0f, 0xdd, 0xff, 0x0d, 0xcd,
  0xfd, 0x29, 0xd0, 0x0f, 0x05, 0x0c, 0x2b, 0x07, 0x3a, 0x0c, 0xce, 0xd4,
  0xd8, 0x1b, 0x01, 0xef, 0x2d, 0xff, 0x0f, 0x1c, 0xcc, 0xf1, 0x30, 0x38,
  0xc7, 0x02, 0x1b, 0xe6, 0x07, 0xf3, 0xf9, 0x05, 0xed, 0x24, 0xec, 0x2d,
  0xf7, 0xe2, 0x15, 0xd6, 0x2a, 0x09, 0xd5, 0x02, 0xff, 0x0c, 0xec, 0x11,
  0x31, 0xda, 0xf0, 0xb9, 0x06, 0xf6, 0x23, 0x11, 0x19, 0xf3, 0x00, 0x1c,
  0xe9, 0xd6, 0xf3, 0xd2, 0x27, 0x14, 0xf8, 0xe6, 0xdc, 0x20, 0xf0, 0x1c,
  0xd9, 0x1a, 0x03, 0x1b, 0xe5, 0xe6, 0xf8, 0x14, 0xc7, 0x1a, 0x23, 0xf9,
  0xdf, 0xf7, 0x08, 0x40, 0x1b, 0xd6, 0x22, 0x12, 0x14, 0xee, 0x06, 0x1b,
  0x27, 0x0e, 0x0e, 0xf1, 0xcf, 0x32, 0x28, 0x0f, 0x09, 0xe9, 0x0a, 0xec,
  0x1c, 0x1f, 0xd9, 0xd4, 0x20, 0xed, 0xdc, 0x18, 0x10, 0xee, 0x01, 0xfe,
  0xfb, 0xf2, 0xf0, 0xed, 0xde, 0xd4, 0x05, 0x1f, 0x3a, 0xec, 0xf2, 0x31,
  0x10, 0xd3, 0x2f, 0xfa, 0x13, 0xef, 0x14, 0xfa, 0x39, 0x09, 0xce, 0xe9,
  0xfa, 0xe5, 0x27, 0x20, 0xdd, 0xf7, 0xf2, 0xdc, 0x19, 0xe4, 0xf2, 0x14,
  0x10, 0x35, 0xd0, 0xf0, 0x2c, 0xff, 0xe7, 0x19, 0x0a, 0xdb, 0xc4, 0xee,
  0xcd, 0xf7, 0xe1, 0xec, 0x0a, 0x16, 0x10, 0xf1, 0xeb, 0xf3, 0xcb, 0xc7,
  0xdf, 0xef, 0x02, 0xe4, 0x14, 0x05, 0x02, 0xe8, 0xf8, 0xf4, 0x00, 0xdb,
  0xf3, 0x0b, 0x1f, 0x33, 0x0e, 0xf7, 0xe0, 0x08, 0x20, 0xff, 0xf6, 0xdb,
  0x24, 0x11, 0xe1, 0xe8, 0xe1, 0xdd, 0x03, 0xc1, 0x0c, 0x15, 0xf2, 0xff,
  0xca, 0xf0, 0x1c, 0x25, 0xf0, 0x08, 0xe6, 0xfa, 0xe4, 0x07, 0xe5, 0xd5,
  0x08, 0xdd, 0x3c, 0x20, 0xe6, 0xe1, 0x0b, 0x27, 0x2f, 0xf0, 0x2a, 0xf4,
  0xf2, 0xf6, 0xd8, 0xd4, 0x28, 0xe8, 0xe1, 0x03, 0xd9, 0xee, 0xed, 0xec,
  0xf2, 0xfc, 0x0e, 0x16, 0x10, 0xe1, 0xe1, 0xe8, 0x05, 0xea, 0xed, 0x09,
  0xe1, 0xce, 0xec, 0x03, 0xdf, 0xf7, 0x15, 0x0e, 0x13, 0xe7, 0xf4, 0x11,
  0xdd, 0x13, 0x38, 0xc6, 0xdc, 0xe5, 0x21, 0xe6, 0xcf, 0x03, 0xf6, 0xcc,
  0xfc, 0x20, 0x02, 0x03, 0x08, 0xff, 0x00, 0x09, 0x16, 0xe3, 0x2c, 0xf9,
  0x09, 0xfc, 0x1e, 0xec, 0x23, 0xf6, 0x37, 0x08, 0xf4, 0x29, 0xfb, 0xec,
  0xfe, 0xf1, 0xf4, 0xfa, 0xf1, 0x2e, 0x12, 0xc0, 0xfc, 0xff, 0x19, 0x0c,
  0xf8, 0x04, 0xf7, 0xca, 0x06, 0x35, 0xf5, 0x10, 0x05, 0xe2, 0x14, 0x06,
  0xe7, 0x08, 0x20, 0xbe, 0xe0, 0x05, 0x17, 0x23, 0x24, 0xf6, 0xfb, 0x11,
  0xda, 0x36, 0xec, 0xe6, 0x3c, 0x09, 0x02, 0x3e, 0x1b, 0xe0, 0x27, 0x0b,
  0x3e, 0x07, 0xf6, 0xef, 0xe0, 0x08, 0xd3, 0x03, 0xf0, 0xe3, 0xf4, 0xc9,
  0xdc, 0x1c, 0xdf, 0x2b, 0xf6, 0xdd, 0xf0, 0xe9, 0xf3, 0x0f, 0x3d, 0xf7,
  0xf5, 0x1b, 0xdd, 0xf2, 0xcb, 0x05, 0x25, 0x26, 0x30, 0xf2, 0xfc, 0xcc,
  0xdb, 0x14, 0x10, 0x0d, 0x16, 0xea, 0x1d, 0x14, 0xea, 0xfa, 0xde, 0x40,
  0xc6, 0xfc, 0xdf, 0x20, 0x0f, 0x08, 0x02, 0x06, 0x28, 0xfc, 0x19, 0x0b,
  0x0d, 0xee, 0x3b, 0x06, 0x05, 0xe3, 0xfc, 0xff, 0xf4, 0x1c, 0xf0, 0x0c,
  0x24, 0x0f, 0xea, 0xd4, 0x3d, 0xf0, 0xd9, 0xe8, 0xdf, 0xe2, 0x06, 0xe7,
  0x1f, 0x01, 0x17, 0xfa, 0xe2, 0xe5, 0x2b, 0x12, 0x40, 0xf8, 0x18, 0xcf,
  0x13, 0x2b, 0xd5, 0xf5, 0x23, 0xd8, 0xe5, 0x15, 0x1c, 0x2e, 0xe8, 0x3f,
  0xfd, 0x15, 0xf3, 0xca, 0x0a, 0xff, 0x0c, 0x00, 0x24, 0xe2, 0x26, 0x16,
  0x13, 0xdf, 0xdb, 0x0a, 0xe4, 0xff, 0xfe, 0x2e, 0x1f, 0xfd, 0xda, 0xf5,
  0x00, 0xf3, 0xd9, 0x21, 0x14, 0xd6, 0x40, 0xe5, 0xdf, 0x0c, 0xe1, 0xfd,
  0x04, 0xe1, 0xd8, 0x00, 0xcb, 0xfe, 0x00, 0x1f, 0xd4, 0xd7, 0xda, 0xf2,
  0xfb, 0x06, 0xfb, 0xf1, 0x1f, 0x06, 0xff, 0xf0, 0xf2, 0x13, 0x35, 0xed,
  0xd1, 0xe6, 0xf8, 0xe5, 0x1a, 0x09, 0x09, 0x2b, 0x32, 0x26, 0x08, 0xfd,
  0x07, 0xe6, 0x0a, 0x0e, 0x0d, 0xfb, 0x32, 0xe6, 0xd2, 0xf7, 0xd8, 0x0f,
  0xc0, 0xc1, 0xf8, 0xf8, 0x1d, 0xf9, 0xfb, 0xf9, 0xe7, 0x13, 0x1b, 0xed,
  0xcd, 0x18, 0xfd, 0xca, 0xea, 0xff, 0x29, 0xe4, 0x37, 0xe3, 0x17, 0x0c,
  0x26, 0x1b, 0xe6, 0xe2, 0x0c, 0xec, 0x3b, 0x26, 0x11, 0x07, 0xf2, 0xe5,
  0xe8, 0x28, 0xe6, 0xf6, 0x05, 0xec, 0xf9, 0xd1, 0xf4, 0xf0, 0x0d, 0x1d,
  0x03, 0xf6, 0x45, 0xe0, 0x0b, 0xfb, 0xe4, 0x03, 0x1a, 0xdd, 0x0e, 0xd7,
  0xf2, 0x06, 0x02, 0xe5, 0x14, 0xdb, 0xf1, 0xf7, 0x31, 0xca, 0x39, 0x18,
  0x31, 0x08, 0x0b, 0x08, 0xe5, 0xea, 0x0f, 0x13, 0x0c, 0xeb, 0x18, 0xea,
  0x00, 0x0a, 0xe3, 0xe7, 0x1a, 0x0a, 0x40, 0xe9, 0x04, 0xeb, 0xd1, 0xfc,
  0xf6, 0x14, 0x04, 0x0d, 0x05, 0xfe, 0xf2, 0xed, 0x02, 0x11, 0xec, 0x21,
  0x26, 0x0a, 0xf7, 0xd8, 0xfa, 0xd9, 0xc9, 0x1a, 0x1b, 0xe8, 0x28, 0x10,
  0x1f, 0x0c, 0xe8, 0x01, 0xe8, 0xfe, 0x07, 0x2a, 0xe2, 0xe6, 0xe1, 0x26,
  0xea, 0x32, 0xd5, 0x15, 0x40, 0xf6, 0x00, 0x0c, 0xca, 0xe5, 0x2b, 0xc4,
  0xd2, 0xf5, 0xe3, 0x36, 0xf7, 0xeb, 0xe9, 0x08, 0xdf, 0xd3, 0x09, 0xc6,
  0xf5, 0x09, 0xde, 0xef, 0x2b, 0xee, 0xee, 0x35, 0xf8, 0xf7, 0x02, 0x2c,
  0x0e, 0x14, 0x39, 0x20, 0xda, 0xcd, 0x03, 0xec, 0x03, 0xe4, 0x2b, 0x2a,
  0x2d, 0xee, 0xd3, 0xf1, 0xc6, 0xe9, 0xea, 0x06, 0x1e, 0xe5, 0x15, 0xd0,
  0x11, 0xe1, 0x1a, 0x25, 0xfc, 0x25, 0x25, 0x25, 0xfb, 0x16, 0x17, 0x40,
  0xdf, 0xcc, 0x40, 0x2a, 0xf1, 0xef, 0x07, 0x2f, 0xdd, 0x45, 0xe8, 0xcc,
  0xe7, 0x3a, 0xd1, 0x59, 0x06, 0xfc, 0xe7, 0x18, 0x11, 0x42, 0xf9, 0xf1,
  0xed, 0x43, 0x16, 0x21, 0x00, 0xe7, 0x2d, 0xf4, 0xc5, 0x1f, 0xd2, 0x29,
  0x17, 0x2b, 0x06, 0x1b, 0x24, 0xfa, 0xd4, 0x09, 0x1a, 0xeb, 0x0f, 0x12,
  0x22, 0xf9, 0xb4, 0xe2, 0x34, 0x38, 0xdc, 0xf4, 0x16, 0xeb, 0x28, 0x29,
  0x02, 0x3e, 0xe5, 0x00, 0xed, 0x1e, 0xed, 0xfa, 0xf3, 0xfe, 0x3f, 0x04,
  0x2a, 0x13, 0xd2, 0xd7, 0x03, 0x0b, 0xf4, 0x01, 0xf7, 0xe1, 0x0e, 0x17,
  0x1a, 0xe5, 0x28, 0x15, 0x18, 0x12, 0x0f, 0xea, 0xfd, 0x2a, 0xf0, 0xfe,
  0xe9, 0xe7, 0x1b, 0x29, 0x24, 0xf1, 0x31, 0xe4, 0xeb, 0xe5, 0x31, 0x11,
  0xcf, 0xc9, 0x13, 0xea, 0x24, 0x02, 0xf7, 0x22, 0xe3, 0x15, 0xdf, 0xc6,
  0xfa, 0x41, 0x04, 0x3e, 0xe1, 0x13, 0xfb, 0xce, 0x0d, 0x2a, 0x20, 0x28,
  0x12, 0xfa, 0x0c, 0x28, 0xf9, 0x01, 0x24, 0x11, 0xfd, 0x29, 0xf2, 0xd0,
  0xd3, 0x05, 0x25, 0xf9, 0xd8, 0xe6, 0x03, 0x2e, 0xcf, 0x13, 0xd2, 0xe4,
  0x0e, 0xf3, 0x2f, 0x0b, 0xdd, 0x24, 0xde, 0xf6, 0x1b, 0x27, 0x1a, 0x30,
  0xf6, 0xf7, 0x2c, 0x24, 0x39, 0xd5, 0x12, 0x0c, 0xe4, 0x0e, 0x29, 0xea,
  0x04, 0xf7, 0xf7, 0x30, 0x34, 0x2d, 0x33, 0xe5, 0xf7, 0x0f, 0x0f, 0xd5,
  0x22, 0xe0, 0x11, 0x41, 0x14, 0x0e, 0x0f, 0xd4, 0xcb, 0xe4, 0x16, 0x17,
  0x0c, 0x0c, 0x26, 0x25, 0xea, 0x23, 0xe5, 0x16, 0xe3, 0x0c, 0xeb, 0xf3,
  0xea, 0x11, 0xd2, 0xe2, 0xf6, 0xf1, 0xd1, 0x12, 0x0b, 0xe5, 0x19, 0x14,
  0x2f, 0xf8, 0x13, 0x0e, 0x3e, 0xd3, 0xc5, 0x08, 0xe1, 0xf3, 0x04, 0x18,
  0x17, 0xfe, 0xd5, 0x1f, 0x38, 0xd9, 0xff, 0xe7, 0xef, 0x0a, 0x34, 0x16,
  0x0f, 0xf8, 0xf6, 0x15, 0x2a, 0xe9, 0x22, 0xe1, 0x06, 0x41, 0xf9, 0x0c,
  0xde, 0x14, 0x0f, 0x08, 0x0a, 0xe4, 0xc3, 0x0d, 0xee, 0xf0, 0x0f, 0xe7,
  0x26, 0xf8, 0x05, 0x46, 0xf4, 0x32, 0xe6, 0x11, 0x12, 0xdc, 0x20, 0xfe,
  0x14, 0x01, 0xef, 0xe5, 0xcd, 0xeb, 0xda, 0xcb, 0x37, 0xfa, 0x0e, 0x21,
  0xf9, 0xe1, 0x1e, 0xf8, 0x19, 0x04, 0x11, 0x17, 0x06, 0x1f, 0x2f, 0x2d,
  0x13, 0xdd, 0x33, 0xf5, 0x23, 0xf2, 0x2c, 0x27, 0xf6, 0x2b, 0x0d, 0xd9,
  0xe7, 0x1f, 0xe1, 0x16, 0xd7, 0x38, 0xf7, 0x05, 0x24, 0xe9, 0x1c, 0xf8,
  0x18, 0x0f, 0xfe, 0xf9, 0x03, 0xff, 0xe0, 0xf5, 0x15, 0x38, 0x3a, 0xcc,
  0xe8, 0xda, 0x00, 0xf4, 0xfc, 0xbf, 0x03, 0x15, 0x1e, 0xfb, 0xf1, 0xf6,
  0x19, 0xc9, 0x0b, 0xd2, 0xfc, 0x04, 0x10, 0x01, 0x40, 0x51, 0x1e, 0x13,
  0x13, 0x29, 0xf4, 0x31, 0xb6, 0xef, 0xf4, 0x53, 0xd6, 0x55, 0x0f, 0x11,
  0xc6, 0x24, 0xdc, 0x14, 0xf5, 0xf7, 0xed, 0x20, 0xeb, 0xea, 0xd6, 0x34,
  0xe0, 0x1d, 0xce, 0xf8, 0xe1, 0xfa, 0xf3, 0xfb, 0xf1, 0x0f, 0xd9, 0x1b,
  0x25, 0xe7, 0x14, 0xf9, 0xfb, 0xe8, 0xe5, 0x2b, 0xca, 0xf6, 0x24, 0xeb,
  0x32, 0x06, 0x24, 0xea, 0x2a, 0x42, 0x28, 0xc0, 0x19, 0x32, 0x43, 0x28,
  0xdb, 0x20, 0xf2, 0x23, 0xfe, 0xf8, 0xf2, 0xdb, 0x35, 0xf9, 0x06, 0x33,
  0xdb, 0x02, 0x03, 0xff, 0x21, 0x3f, 0x0d, 0x0c, 0x1e, 0x1c, 0xe2, 0x35,
  0xfd, 0x09, 0xfa, 0xd6, 0xf2, 0x08, 0xea, 0xf9, 0x27, 0xff, 0x22, 0xfb,
  0xcd, 0x21, 0xc2, 0xc7, 0x0e, 0x15, 0x07, 0x05, 0x0c, 0x04, 0xff, 0xff,
  0x43, 0x0e, 0xc9, 0xe2, 0xec, 0x2a, 0x18, 0x0b, 0x27, 0xec, 0xdc, 0x1e,
  0xe3, 0xf6, 0x06, 0x1a, 0x03, 0xe4, 0xfe, 0x1a, 0xef, 0x1c, 0xe8, 0xea,
  0x24, 0x14, 0x22, 0x1b, 0xdb, 0xfb, 0xd2, 0xd4, 0x09, 0x2c, 0xe3, 0x31,
  0xfe, 0x1b, 0x19, 0xfc, 0x25, 0xf8, 0xfb, 0xfa, 0xe5, 0x18, 0x10, 0xdc,
  0xff, 0x33, 0xd3, 0xda, 0xf7, 0xf6, 0xed, 0xfd, 0xc9, 0xfa, 0x0e, 0xea,
  0xfa, 0x05, 0x10, 0x09, 0xe8, 0x28, 0x14, 0xea, 0x05, 0xd6, 0xfb, 0xfb,
  0x34, 0xe5, 0xe6, 0x1c, 0xe1, 0x12, 0xda, 0xff, 0xed, 0xf4, 0x10, 0xf7,
  0xed, 0xf1, 0x37, 0xdf, 0x17, 0x09, 0xf4, 0xf8, 0x1f, 0x29, 0x15, 0xed,
  0x04, 0x13, 0xe0, 0xe8, 0x03, 0x10, 0x00, 0xea, 0x2e, 0xe1, 0x3a, 0x00,
  0x1d, 0xf3, 0xf8, 0x0c, 0xd9, 0xfd, 0x23, 0x04, 0xff, 0xda, 0x30, 0xd1,
  0x2d, 0xd9, 0xfa, 0xca, 0xfc, 0x18, 0x31, 0x18, 0x14, 0x1e, 0x16, 0x14,
  0x03, 0x21, 0xc2, 0x21, 0xf8, 0x19, 0xf9, 0x19, 0xdf, 0xd9, 0xf6, 0x2c,
  0x2a, 0xf4, 0x35, 0x04, 0x25, 0x35, 0xd0, 0x08, 0xf4, 0xd0, 0x13, 0xf5,
  0xfb, 0xe4, 0x1d, 0x25, 0x3c, 0x24, 0xe9, 0x09, 0xf4, 0xca, 0xec, 0xef,
  0x04, 0xf7, 0x35, 0xec, 0xff, 0x05, 0x20, 0x27, 0x05, 0xf8, 0xf2, 0x30,
  0xd2, 0x17, 0xd6, 0x08, 0xf1, 0xdd, 0x32, 0xee, 0x03, 0xfd, 0xf9, 0x34,
  0xe6, 0x0a, 0xe9, 0x0d, 0x20, 0x01, 0xe5, 0xf4, 0x2e, 0x02, 0x17, 0x18,
  0xdb, 0x26, 0xf6, 0x0d, 0x0e, 0x17, 0x32, 0x09, 0xd8, 0xfc, 0x20, 0xdd,
  0x33, 0xf5, 0x0f, 0xe2, 0xc0, 0x04, 0x20, 0xf7, 0xd6, 0x06, 0x04, 0xfe,
  0x00, 0x24, 0xe8, 0xfa, 0x41, 0xe9, 0xf3, 0xf7, 0xcd, 0xee, 0xe1, 0xee,
  0xc6, 0xf6, 0xe1, 0x29, 0xea, 0x00, 0xdc, 0x2a, 0xf2, 0xb5, 0x0c, 0xc8,
  0x1c, 0xd7, 0x19, 0xd0, 0xf5, 0x12, 0x28, 0xbc, 0xff, 0xe2, 0xf3, 0x47,
  0xcc, 0xf6, 0x09, 0xc1, 0xd6, 0x00, 0x25, 0xec, 0xce, 0xc8, 0xe2, 0xef,
  0xcb, 0x0d, 0xd5, 0xb2, 0xfe, 0x39, 0xba, 0xf4, 0xe6, 0x20, 0xe8, 0xfd,
  0xc4, 0xcf, 0xf7, 0xfb, 0x2e, 0xfc, 0xde, 0x00, 0xed, 0xf7, 0xf7, 0xbc,
  0xe4, 0x14, 0x00, 0x36, 0xf4, 0xcc, 0xcb, 0xe6, 0xe8, 0xf0, 0x09, 0xf0,
  0x03, 0xf4, 0x04, 0x25, 0xc0, 0xdb, 0x12, 0x23, 0xe0, 0xf0, 0x05, 0xf2,
  0xde, 0xff, 0x0d, 0x23, 0x10, 0xe8, 0xdd, 0x1f, 0xf9, 0xfb, 0x0c, 0x02,
  0x11, 0x08, 0x16, 0x0d, 0x1f, 0x00, 0x0b, 0x18, 0xe8, 0xf8, 0xea, 0xf7,
  0xf2, 0x17, 0x06, 0x0a, 0xfa, 0x09, 0x02, 0xbe, 0xe1, 0xce, 0xe7, 0x0d,
  0xfd, 0x38, 0x14, 0xd4, 0x33, 0xe5, 0xed, 0x27, 0x1b, 0x22, 0x09, 0xdb,
  0x1c, 0xe9, 0xdb, 0xd2, 0x12, 0x11, 0xbe, 0xf9, 0xfc, 0x1f, 0xfa, 0xf7,
  0xf2, 0xf2, 0xeb, 0xc5, 0xeb, 0x0a, 0x21, 0xc8, 0x39, 0xeb, 0x11, 0xca,
  0xdd, 0x13, 0x0c, 0xd0, 0x2d, 0x15, 0x19, 0x0c, 0x10, 0xf0, 0x1b, 0x0d,
  0xf1, 0x43, 0x2a, 0x0e, 0xfe, 0x3e, 0x2b, 0xf4, 0x07, 0x05, 0xfa, 0x2c,
  0xf8, 0x32, 0xf9, 0xd1, 0x06, 0xf8, 0xcd, 0xfc, 0x2f, 0x0a, 0x10, 0x2d,
  0xf5, 0xcb, 0xff, 0x0c, 0xd4, 0xf5, 0x0b, 0x0a, 0xfb, 0x09, 0xf8, 0xf1,
  0xed, 0x05, 0xd8, 0xd6, 0x3d, 0x3b, 0x2d, 0x0f, 0x28, 0xf3, 0xfb, 0xf7,
  0x18, 0xc0, 0x0d, 0x2f, 0xdd, 0xdd, 0xed, 0xfa, 0x29, 0xdf, 0x17, 0x01,
  0x1f, 0x02, 0x0d, 0xd2, 0xdf, 0x05, 0xfa, 0x1b, 0x18, 0x22, 0x06, 0x06,
  0xff, 0x0f, 0x0b, 0x22, 0x17, 0xdc, 0xf6, 0xf6, 0x06, 0x27, 0x1b, 0x02,
  0x1a, 0x16, 0x20, 0xf5, 0x15, 0x00, 0x03, 0x0c, 0xfb, 0x1d, 0xe8, 0x0b,
  0x39, 0xdd, 0x0b, 0x33, 0xf0, 0xd5, 0xf1, 0x15, 0x08, 0x12, 0xee, 0x1d,
  0xf2, 0xfd, 0xfd, 0x04, 0xeb, 0x13, 0x06, 0xe8, 0xdd, 0xfb, 0x29, 0xe7,
  0xf9, 0xda, 0xf5, 0xdb, 0xd8, 0xe0, 0x01, 0xf3, 0x08, 0x12, 0x16, 0x06,
  0xd7, 0xcc, 0x26, 0x20, 0xf2, 0x09, 0x22, 0xec, 0x28, 0x40, 0xe2, 0xf5,
  0x09, 0xdf, 0xcd, 0x04, 0x09, 0xdd, 0x0e, 0x03, 0xe2, 0x3b, 0xe4, 0x2a,
  0xfe, 0xc7, 0x38, 0x21, 0x25, 0xf9, 0x00, 0x18, 0x29, 0x3a, 0x04, 0x0c,
  0x20, 0xf5, 0x16, 0x40, 0xf6, 0x03, 0x2e, 0x38, 0x31, 0x18, 0xdb, 0xe1,
  0x14, 0x13, 0xc7, 0x1c, 0x0e, 0xd1, 0x0f, 0x1c, 0x30, 0x07, 0xfe, 0x07,
  0x0f, 0x04, 0x26, 0xfb, 0x14, 0xfd, 0xe6, 0x15, 0x09, 0xea, 0xdb, 0x07,
  0x24, 0xd6, 0xbc, 0xd0, 0xdf, 0x12, 0x01, 0xf7, 0x22, 0xea, 0x0b, 0xcb,
  0xc9, 0xd0, 0x13, 0xef, 0xc1, 0xfb, 0xfa, 0xdc, 0x19, 0xf1, 0xf4, 0xfc,
  0x29, 0xce, 0x24, 0x11, 0xc9, 0x25, 0xde, 0x27, 0x04, 0xcb, 0x16, 0xf7,
  0xf2, 0x0f, 0xe8, 0xee, 0xe2, 0xe3, 0xd5, 0x11, 0xe3, 0xea, 0xfb, 0x20,
  0x01, 0x04, 0x25, 0x13, 0x27, 0x17, 0xf9, 0xf5, 0xda, 0x09, 0x30, 0xfc,
  0x07, 0xfd, 0xef, 0xd9, 0x0b, 0xf3, 0x12, 0x0e, 0xf5, 0x21, 0xe3, 0x01,
  0xd4, 0xf9, 0xf5, 0xee, 0xe1, 0x02, 0x26, 0xfd, 0xfd, 0x3a, 0xe7, 0x13,
  0x25, 0xe8, 0x14, 0xf5, 0xe1, 0xff, 0x11, 0x16, 0xc5, 0xdf, 0x28, 0xfe,
  0x0c, 0x31, 0x16, 0x01, 0xf7, 0xe7, 0x10, 0xf0, 0xfc, 0xc8, 0x1b, 0x26,
  0xf3, 0xec, 0xee, 0x17, 0xfa, 0x31, 0xc4, 0x0b, 0xd9, 0xf9, 0xd1, 0xfe,
  0x19, 0x19, 0xec, 0x40, 0xe8, 0xf6, 0xf0, 0xe6, 0xe5, 0xf0, 0xd9, 0xcf,
  0xe2, 0xe4, 0xc2, 0x01, 0x2c, 0x1a, 0x19, 0xe0, 0x12, 0xe0, 0xff, 0xd8,
  0x17, 0xfa, 0x06, 0xca, 0x00, 0x0e, 0x09, 0xc8, 0x07, 0x0a, 0xf5, 0xfb,
  0xe3, 0xe5, 0x32, 0x30, 0xd8, 0x35, 0xd2, 0xe2, 0x36, 0xf6, 0xfd, 0xe2,
  0xf5, 0x00, 0xfb, 0x2a, 0xfc, 0xf8, 0xe8, 0x0e, 0xc8, 0x2d, 0x11, 0x01,
  0x11, 0xd9, 0x27, 0xfd, 0x01, 0xe9, 0x12, 0x0b, 0x0e, 0xdf, 0x32, 0x13,
  0xe3, 0x08, 0x10, 0xe9, 0x0f, 0x01, 0xc9, 0x16, 0x12, 0x16, 0xd9, 0x09,
  0xf0, 0x17, 0x04, 0x0e, 0x0a, 0x2b, 0xef, 0xfb, 0x11, 0x26, 0xec, 0xde,
  0xce, 0xf2, 0xee, 0xc8, 0x1b, 0xfa, 0x24, 0x40, 0xf9, 0xe9, 0x00, 0xf6,
  0x27, 0x02, 0x2b, 0x0b, 0xc4, 0x3a, 0xe5, 0xf7, 0xce, 0x14, 0xf1, 0xe2,
  0xef, 0x31, 0xd7, 0x2d, 0xfe, 0xf8, 0xfa, 0x2e, 0xe4, 0x2f, 0x2a, 0x11,
  0xf2, 0x37, 0xf6, 0x0d, 0xe6, 0x28, 0x15, 0xff, 0x21, 0xe6, 0xd7, 0x12,
  0x0d, 0xde, 0xe2, 0x3d, 0xf8, 0x20, 0x03, 0x14, 0xf0, 0xc9, 0xc4, 0x05,
  0x3e, 0xd4, 0x23, 0x07, 0xf3, 0x20, 0x04, 0x28, 0xec, 0xdd, 0xff, 0x29,
  0xc2, 0xe4, 0x01, 0xff, 0xe7, 0xfd, 0xec, 0xdf, 0x21, 0xc6, 0xbe, 0x0d,
  0x12, 0x02, 0x07, 0x33, 0x1a, 0x21, 0xef, 0x01, 0x36, 0xea, 0xde, 0x17,
  0x0e, 0xe5, 0xf4, 0x3a, 0xfb, 0x32, 0x18, 0x00, 0xf4, 0xf8, 0xe3, 0x30,
  0x2e, 0x1c, 0xdd, 0xf6, 0x22, 0x12, 0x03, 0x0b, 0x33, 0x12, 0xda, 0xe2,
  0xf9, 0xfd, 0x14, 0x0a, 0x14, 0x04, 0x15, 0x32, 0x34, 0x08, 0xef, 0xf7,
  0x23, 0x13, 0xe7, 0x36, 0xe4, 0xe9, 0x13, 0x00, 0xd4, 0xea, 0xfb, 0x01,
  0x10, 0x1b, 0x17, 0xc5, 0x08, 0x2e, 0x03, 0xfd, 0x05, 0xd1, 0x05, 0x1d,
  0x24, 0xe6, 0x21, 0xe7, 0xd1, 0x2c, 0x28, 0xdc, 0xd8, 0xa6, 0x14, 0x31,
  0x1b, 0xfe, 0xff, 0xf8, 0x08, 0x2e, 0xf1, 0xd8, 0xde, 0x21, 0x0d, 0x08,
  0xc5, 0xd2, 0x07, 0x04, 0xec, 0xf0, 0xe2, 0xf6, 0xf4, 0x17, 0x38, 0xda,
  0x27, 0x2e, 0x03, 0x1c, 0x19, 0x02, 0xe5, 0xd2, 0x0f, 0xd9, 0x1d, 0xde,
  0x15, 0x08, 0xf1, 0x04, 0xf9, 0x2a, 0xf2, 0xed, 0xf5, 0x1f, 0x08, 0xd6,
  0xde, 0x1a, 0x32, 0x06, 0x18, 0x14, 0xf4, 0x08, 0xff, 0x0f, 0x07, 0xdb,
  0xf7, 0x0f, 0x1e, 0x04, 0xdb, 0x08, 0xe3, 0x13, 0x3e, 0xd8, 0x21, 0x1c,
  0x30, 0x00, 0x02, 0x17, 0x20, 0x16, 0xdc, 0xdb, 0xe2, 0xe4, 0x16, 0x0f,
  0x1d, 0x02, 0xf0, 0x1a, 0x07, 0xc8, 0xdb, 0xde, 0xdb, 0x00, 0x30, 0x28,
  0xe9, 0xfb, 0xf1, 0xc4, 0x2e, 0xee, 0xe9, 0xdf, 0xfb, 0x0d, 0xfc, 0xca,
  0x35, 0xe9, 0x0a, 0x1e, 0x0a, 0xd1, 0x03, 0x3a, 0xeb, 0x02, 0xfe, 0x21,
  0x27, 0x29, 0xee, 0xc9, 0x04, 0xdd, 0xcc, 0xf1, 0xeb, 0xd3, 0xf2, 0x01,
  0xf7, 0x0a, 0x11, 0xf9, 0xd5, 0xf2, 0xd1, 0xd4, 0xe4, 0xda, 0x01, 0xfb,
  0xf5, 0x12, 0x15, 0xd2, 0xef, 0x2f, 0x29, 0xd3, 0x0e, 0xe1, 0xf4, 0x06,
  0xdd, 0x3a, 0xe7, 0x0d, 0xe1, 0xf2, 0x06, 0x26, 0xea, 0x00, 0xec, 0x06,
  0xdf, 0xdf, 0xf8, 0xf6, 0x03, 0xff, 0xf3, 0x29, 0xd5, 0xfa, 0xd8, 0xe7,
  0xd3, 0xec, 0xba, 0xde, 0x15, 0xf7, 0x22, 0x19, 0xc9, 0xce, 0x21, 0xff,
  0xf0, 0xda, 0xc6, 0xf6, 0x35, 0xeb, 0xf7, 0x25, 0x09, 0x04, 0xd6, 0xf7,
  0xbd, 0xe9, 0xba, 0xe5, 0x39, 0xe3, 0xdc, 0xdb, 0xe6, 0xff, 0x01, 0x32,
  0xd7, 0xe0, 0x08, 0xf2, 0xf6, 0x11, 0xff, 0x16, 0xf9, 0xe2, 0xe5, 0x0c,
  0xe1, 0xdc, 0xe1, 0x12, 0xeb, 0x1e, 0x0d, 0x1b, 0xf0, 0x10, 0xf7, 0xe6,
  0xf9, 0x1c, 0x3f, 0x1d, 0x28, 0xfb, 0x19, 0xbf, 0xe2, 0xce, 0xfa, 0xed,
  0xfb, 0xfd, 0x34, 0x16, 0xda, 0x1b, 0x24, 0xf0, 0x06, 0xe3, 0x40, 0xe7,
  0xf8, 0xf5, 0x0e, 0x1a, 0x1e, 0xeb, 0xe0, 0xe6, 0x1d, 0x00, 0xfc, 0xec,
  0xf1, 0x30, 0x00, 0x00, 0x26, 0x34, 0x38, 0xeb, 0x1b, 0xf5, 0x12, 0x01,
  0x16, 0xcb, 0xec, 0xd2, 0xfc, 0x06, 0xdd, 0x01, 0x18, 0xe6, 0x12, 0x20,
  0x2a, 0x0a, 0xef, 0x1e, 0x29, 0xef, 0xdc, 0x01, 0x0a, 0xf2, 0x3f, 0x04,
  0x07, 0x1c, 0x16, 0x07, 0x04, 0x24, 0x37, 0xe1, 0x23, 0x1a, 0x0d, 0xcb,
  0x23, 0x1f, 0xdb, 0x11, 0xf7, 0x2f, 0x11, 0x0d, 0x27, 0x00, 0xb3, 0xf2,
  0x2b, 0xfb, 0xf7, 0x39, 0xf3, 0x0d, 0xe9, 0x0e, 0xd4, 0x26, 0xea, 0xe2,
  0x03, 0xc5, 0xea, 0x01, 0x15, 0xd5, 0x27, 0xf9, 0xb0, 0x23, 0x0e, 0x36,
  0xeb, 0xfc, 0xdf, 0xdf, 0x03, 0x0d, 0x1c, 0x3c, 0xc4, 0x1a, 0x21, 0x0b,
  0x3a, 0xef, 0xcc, 0x10, 0x2e, 0x10, 0x2d, 0x01, 0x03, 0xf8, 0x37, 0xeb,
  0xe0, 0x2c, 0x39, 0xea, 0x39, 0x0b, 0x31, 0xf7, 0xfd, 0xfe, 0xf4, 0xdf,
  0xf2, 0xe1, 0x09, 0xeb, 0x2a, 0xef, 0x03, 0xe6, 0x0e, 0x13, 0x17, 0x06,
  0xe5, 0x29, 0xe7, 0x00, 0x0c, 0xe1, 0x00, 0x12, 0xfc, 0x0c, 0xe4, 0xff,
  0x22, 0x17, 0xfd, 0xea, 0x10, 0xeb, 0xf0, 0xd9, 0x0b, 0x0d, 0x05, 0x25,
  0x10, 0xef, 0xf9, 0x01, 0x16, 0x06, 0x0f, 0x0e, 0xf5, 0x36, 0x19, 0xef,
  0x0f, 0x05, 0xf5, 0x20, 0x20, 0x12, 0xfd, 0x03, 0xf9, 0x49, 0xfe, 0x13,
  0xff, 0xe6, 0xce, 0x23, 0x36, 0xed, 0x28, 0xe5, 0xfb, 0x0b, 0xc5, 0x26,
  0x29, 0xef, 0x0c, 0xf3, 0xd5, 0x3e, 0x38, 0x13, 0xcb, 0xcd, 0x18, 0xe4,
  0x3e, 0xf3, 0xf9, 0x20, 0x2f, 0x15, 0xd5, 0xf4, 0x36, 0xfc, 0xc9, 0xc7,
  0xed, 0xce, 0x32, 0x07, 0x20, 0xf7, 0xfa, 0x04, 0x07, 0xdd, 0x02, 0xf6,
  0x41, 0x03, 0x00, 0x01, 0xf1, 0xfd, 0xec, 0x12, 0xea, 0x1e, 0x06, 0xef,
  0x1a, 0x2b, 0xef, 0x52, 0xee, 0xf6, 0x0b, 0x2b, 0x17, 0x3a, 0xd2, 0xf7,
  0xff, 0x2e, 0x26, 0x2c, 0x10, 0xe4, 0x22, 0xd9, 0xbf, 0x1b, 0xcd, 0xfd,
  0x3d, 0x2d, 0xe0, 0x0a, 0x02, 0xe8, 0x05, 0xca, 0x00, 0x34, 0x0c, 0xe6,
  0xe6, 0xf2, 0xed, 0x0e, 0xfe, 0x09, 0x0b, 0xf2, 0xf3, 0xfd, 0x0c, 0x01,
  0x01, 0xf4, 0xd8, 0xe2, 0xf0, 0xef, 0xf2, 0x35, 0x10, 0xeb, 0x30, 0xe7,
  0x29, 0xe1, 0x00, 0x37, 0x20, 0x39, 0x11, 0xe7, 0x0d, 0x1f, 0xfd, 0x10,
  0x38, 0xfc, 0xe9, 0x30, 0x1d, 0x0d, 0x15, 0xfb, 0x14, 0x14, 0x11, 0xd5,
  0x0a, 0xe5, 0x1d, 0x1a, 0x10, 0x25, 0x0e, 0xf7, 0xfd, 0xe1, 0x0d, 0x0e,
  0x14, 0xef, 0xd6, 0x09, 0x14, 0xf7, 0xed, 0xf5, 0x09, 0x14, 0xe3, 0x0a,
  0xe5, 0x15, 0xd6, 0x04, 0x09, 0xec, 0xd5, 0xe1, 0x16, 0x0f, 0xe6, 0x2f,
  0xeb, 0xd5, 0xfb, 0x2e, 0xe1, 0x08, 0xfb, 0xfb, 0xfe, 0xfe, 0x0b, 0xee,
  0xf2, 0x15, 0x23, 0x22, 0x04, 0xdf, 0x3e, 0x26, 0xfa, 0xf2, 0xdc, 0x36,
  0xc6, 0x0f, 0x1e, 0x23, 0xfa, 0xf0, 0x1d, 0x0d, 0x13, 0x10, 0xe7, 0xfa,
  0xe1, 0x1f, 0xf7, 0x40, 0x2d, 0x01, 0x17, 0x22, 0x0a, 0x12, 0x0f, 0xef,
  0xf2, 0x1b, 0x28, 0xd4, 0x3e, 0x0e, 0xed, 0x10, 0x29, 0x1d, 0xc7, 0x09,
  0xf5, 0x08, 0xdc, 0x19, 0x04, 0xe9, 0x0c, 0x1c, 0x38, 0x2f, 0xf8, 0x0a,
  0xf8, 0x0a, 0x13, 0x25, 0xf4, 0xed, 0xf0, 0xff, 0xdb, 0xfb, 0x1e, 0x1b,
  0xe7, 0xd5, 0xde, 0x09, 0x33, 0x0a, 0x0b, 0x2e, 0xee, 0x34, 0x07, 0xfa,
  0x22, 0x1b, 0xc1, 0x12, 0xe5, 0xcc, 0xeb, 0x18, 0xd5, 0x13, 0x23, 0x15,
  0x07, 0x0f, 0xd9, 0xd6, 0x34, 0xe0, 0x01, 0xe6, 0x1b, 0xfb, 0xfa, 0x31,
  0x20, 0xfa, 0x0c, 0xfb, 0x3c, 0x16, 0xe1, 0xd9, 0xed, 0xfc, 0xf6, 0x26,
  0xef, 0xfd, 0xc8, 0xfc, 0x2c, 0x30, 0xf8, 0x0d, 0xf6, 0x1d, 0x11, 0x3d,
  0x09, 0xd9, 0xe9, 0xe3, 0xe3, 0x06, 0x19, 0x07, 0xef, 0x28, 0x08, 0x3b,
  0xe7, 0xf0, 0xc5, 0x25, 0x03, 0x06, 0xf1, 0x1e, 0x0e, 0x01, 0xcc, 0x26,
  0x0c, 0x18, 0xda, 0x0d, 0x03, 0xda, 0xff, 0xdf, 0xfe, 0xdd, 0xfd, 0x0e,
  0xfe, 0x3d, 0x18, 0x23, 0xe9, 0xd0, 0xfb, 0x20, 0x0e, 0x0b, 0x07, 0x23,
  0xd1, 0xea, 0xfe, 0xf5, 0xe9, 0xe7, 0xf9, 0x06, 0x1c, 0xdf, 0x2c, 0x21,
  0x0e, 0x1a, 0x19, 0xda, 0xfd, 0x07, 0x1d, 0x17, 0x28, 0x07, 0x1c, 0x13,
  0xd9, 0x1c, 0xef, 0x11, 0xeb, 0x12, 0x01, 0x0e, 0xcc, 0xeb, 0xfa, 0x1b,
  0xe2, 0xf7, 0xf7, 0x26, 0x0e, 0x19, 0xe6, 0x20, 0xbc, 0x0f, 0x15, 0x1a,
  0xd7, 0xf8, 0xb6, 0x05, 0xe0, 0xf9, 0x26, 0xe7, 0xfd, 0xbc, 0x11, 0x19,
  0xfa, 0xd9, 0x01, 0xb9, 0xd0, 0x11, 0xf6, 0xf0, 0xc7, 0xb8, 0xd7, 0xf3,
  0x2b, 0xd7, 0x25, 0x0f, 0x2c, 0xf1, 0xf8, 0xde, 0x13, 0xe0, 0x1f, 0x0b,
  0x01, 0xd0, 0xea, 0xf9, 0xfc, 0x01, 0xec, 0xfe, 0xfe, 0x13, 0x16, 0x32,
  0x40, 0x3d, 0x1f, 0x1c, 0xe3, 0x1c, 0x36, 0x1c, 0x2f, 0xfa, 0x17, 0x06,
  0x0f, 0xd7, 0xf0, 0xd2, 0xfc, 0x03, 0x0f, 0x03, 0xe5, 0xe4, 0x22, 0xd8,
  0x3f, 0xd1, 0xe3, 0xfb, 0x11, 0xfc, 0x0f, 0x17, 0x29, 0xe4, 0x11, 0x0b,
  0xf5, 0xdb, 0x41, 0xfb, 0x3d, 0xe0, 0x0c, 0xed, 0x27, 0x16, 0x26, 0x2f,
  0x14, 0x12, 0xf7, 0xdb, 0xef, 0xea, 0xd4, 0x1f, 0x0d, 0xe4, 0xd0, 0xd0,
  0xd1, 0xf2, 0x06, 0x13, 0x11, 0x0e, 0x1e, 0x09, 0xca, 0xf5, 0x06, 0x21,
  0x1d, 0x2f, 0x2e, 0xe0, 0x00, 0xfd, 0xee, 0xc7, 0x10, 0x0f, 0xe4, 0xe9,
  0x0c, 0xe9, 0x0e, 0x13, 0x1b, 0xfa, 0x22, 0xe4, 0xf6, 0xc0, 0x0c, 0x31,
  0xec, 0x1a, 0xf2, 0xe7, 0x1f, 0xf3, 0x13, 0x0e, 0x14, 0x06, 0x07, 0x20,
  0xe1, 0x28, 0xf8, 0xe7, 0x18, 0xee, 0x0f, 0x3d, 0x17, 0x0b, 0xf9, 0x0b,
  0xf9, 0x2e, 0xf2, 0x05, 0xea, 0xce, 0xc5, 0x41, 0x22, 0x25, 0xe1, 0xec,
  0xc8, 0x2e, 0x03, 0x53, 0xc9, 0x01, 0x27, 0x12, 0xdf, 0x2d, 0x12, 0xfb,
  0xe6, 0x1b, 0xf0, 0x09, 0xfa, 0xfb, 0x21, 0x14, 0x0a, 0x23, 0xc0, 0x0e,
  0xd5, 0xe5, 0xf0, 0x48, 0x2c, 0x3c, 0xff, 0x21, 0xcf, 0x3c, 0xf2, 0xd4,
  0xdb, 0xfd, 0x05, 0xed, 0xe2, 0xc7, 0x04, 0xd8, 0xeb, 0x07, 0xe6, 0x1b,
  0x2a, 0x27, 0xf4, 0x2e, 0xf8, 0x42, 0x05, 0xf8, 0xe2, 0x35, 0x1a, 0x3a,
  0xdd, 0x03, 0x0a, 0xf0, 0x07, 0x0e, 0xea, 0x07, 0x15, 0x39, 0x18, 0x16,
  0x35, 0x34, 0x08, 0x3d, 0x02, 0x42, 0x27, 0x30, 0xe6, 0xfa, 0x1a, 0x0e,
  0xfd, 0xf5, 0x26, 0x0c, 0xf9, 0xe8, 0x28, 0xf7, 0x1e, 0x3b, 0x01, 0xc6,
  0x1a, 0xe8, 0xcf, 0x0b, 0x0b, 0xf2, 0x19, 0x04, 0xfc, 0x38, 0xe7, 0x1c,
  0x3f, 0xef, 0xf9, 0xf2, 0xed, 0x26, 0xfa, 0x1b, 0x23, 0xf4, 0x24, 0x05,
  0xc4, 0x39, 0xe1, 0xff, 0xeb, 0xe7, 0x0e, 0x05, 0x15, 0x18, 0xd1, 0xe6,
  0x12, 0xf4, 0xd8, 0x1a, 0x0b, 0x0c, 0xe2, 0x3c, 0xea, 0x2d, 0x10, 0x2a,
  0x0d, 0x05, 0x0f, 0x15, 0xf7, 0x1d, 0xef, 0xf6, 0xe8, 0x06, 0xf1, 0x1c,
  0xdd, 0x0b, 0x0b, 0x1c, 0xe1, 0xdf, 0x07, 0xf6, 0x1f, 0xdc, 0x05, 0xe5,
  0x1c, 0x27, 0x19, 0xce, 0xd2, 0xe4, 0xd0, 0xf4, 0xfa, 0x0c, 0x16, 0xf5,
  0x19, 0x05, 0x2a, 0xf2, 0x0a, 0x32, 0x00, 0xfa, 0x00, 0xde, 0x0e, 0xe1,
  0x18, 0x19, 0xc9, 0xfc, 0xf1, 0xed, 0xd9, 0xff, 0xf0, 0xf5, 0xcc, 0x15,
  0x07, 0xfa, 0xcc, 0xde, 0xf5, 0x1c, 0x25, 0x06, 0xf9, 0xda, 0x2e, 0x28,
  0xf3, 0x0e, 0x02, 0x03, 0xcf, 0x08, 0xd0, 0xfc, 0xd3, 0xd3, 0x0b, 0xbb,
  0xf5, 0xcc, 0xee, 0x01, 0x1c, 0x00, 0xca, 0xdd, 0xd6, 0xf0, 0xed, 0xdb,
  0x17, 0xee, 0xfa, 0x03, 0x1d, 0xcd, 0xdc, 0xfa, 0xdf, 0x1f, 0x2c, 0x12,
  0xfd, 0xc4, 0x18, 0x14, 0x1f, 0xe6, 0xff, 0x0d, 0xea, 0xde, 0x11, 0x08,
  0xcd, 0x0a, 0xfe, 0x08, 0x08, 0x1f, 0xec, 0xf7, 0x03, 0xfc, 0xde, 0xeb,
  0x05, 0xfe, 0xf8, 0x1a, 0x3b, 0x16, 0xf4, 0x28, 0xef, 0x02, 0x04, 0xcc,
  0x0b, 0xf3, 0xf6, 0xca, 0xea, 0x13, 0xde, 0x17, 0x44, 0x0d, 0x16, 0xcc,
  0xe5, 0x30, 0xed, 0xc2, 0xd5, 0x05, 0x0c, 0xd0, 0xec, 0x16, 0x34, 0xda,
  0x15, 0xdc, 0x16, 0xcd, 0x17, 0xc7, 0x2f, 0x01, 0xdc, 0xec, 0xdd, 0xf7,
  0x06, 0xf5, 0xf8, 0x03, 0x38, 0xd6, 0xf3, 0x37, 0xd7, 0xfa, 0x03, 0x24,
  0x0e, 0x02, 0xe9, 0xe3, 0xdf, 0x19, 0xfd, 0x18, 0x26, 0xfa, 0x23, 0xea,
  0x04, 0x13, 0x3a, 0xee, 0xfa, 0xe9, 0xec, 0xe6, 0xe3, 0x33, 0x29, 0xf8,
  0xe0, 0xef, 0x14, 0x0d, 0x29, 0x0b, 0xc9, 0x04, 0x12, 0xfc, 0x12, 0x0d,
  0x0d, 0x12, 0x0b, 0x13, 0xe4, 0x03, 0x2e, 0xdf, 0x0b, 0xfb, 0x2b, 0xdf,
  0xe2, 0xef, 0x1f, 0xf2, 0x26, 0x05, 0x10, 0xe7, 0x06, 0x26, 0xf8, 0xea,
  0x32, 0x05, 0x12, 0x08, 0x0a, 0xeb, 0x1b, 0xea, 0xfa, 0x34, 0xc0, 0x12,
  0x27, 0x16, 0xf3, 0x02, 0xf4, 0x0d, 0xd7, 0xf0, 0xcd, 0x28, 0x12, 0x10,
  0x04, 0x1f, 0x20, 0xe3, 0xf8, 0x0b, 0x17, 0xf5, 0xf3, 0x0f, 0x1b, 0xe1,
  0x07, 0x03, 0xfc, 0x3c, 0xe2, 0xe5, 0xf1, 0xe7, 0xfe, 0x14, 0xec, 0x13,
  0x16, 0xe4, 0xff, 0xf4, 0x2a, 0x10, 0x1f, 0xc9, 0x0d, 0xd8, 0xc3, 0x1b,
  0xf0, 0x08, 0xdf, 0x2c, 0x2b, 0x03, 0x17, 0x12, 0x05, 0xf4, 0x02, 0x09,
  0xf0, 0x09, 0xe5, 0xfa, 0x3d, 0x2d, 0x06, 0xeb, 0x0a, 0xe7, 0xe8, 0x0d,
  0xfc, 0xfb, 0x02, 0xd6, 0x1a, 0x02, 0xe3, 0x0a, 0xf6, 0x20, 0x35, 0x03,
  0x11, 0xce, 0x1a, 0xc3, 0x41, 0x00, 0x11, 0xff, 0xcd, 0xfe, 0xeb, 0x02,
  0xea, 0x0c, 0xe7, 0x24, 0x16, 0xe5, 0x3c, 0xdc, 0xff, 0x2b, 0xd0, 0xeb,
  0x1a, 0x1e, 0xd5, 0x2c, 0xd7, 0xd8, 0xf4, 0x00, 0xe4, 0x0e, 0xe0, 0xdc,
  0xf2, 0x11, 0x12, 0xcc, 0x2b, 0xd5, 0xe6, 0xe5, 0x16, 0x08, 0x05, 0xe7,
  0xeb, 0xc4, 0x10, 0xc5, 0xe5, 0x2b, 0x40, 0x2e, 0x24, 0x04, 0x2e, 0x1d,
  0xbf, 0xe8, 0x0a, 0xfa, 0x03, 0x30, 0xf2, 0x02, 0x07, 0x13, 0xe8, 0xe0,
  0x0f, 0xc1, 0x1c, 0x18, 0x05, 0x02, 0x16, 0xfe, 0xed, 0xe2, 0xdc, 0x12,
  0xf9, 0xe0, 0xe6, 0x0e, 0xcf, 0xe0, 0x10, 0xd4, 0xea, 0x2c, 0xeb, 0xe9,
  0x23, 0xf7, 0xef, 0x1f, 0x08, 0x05, 0xf9, 0x31, 0xd8, 0xea, 0x20, 0xfb,
  0x03, 0xf6, 0xce, 0xe0, 0xe3, 0x1c, 0xfc, 0x3f, 0xca, 0xed, 0x2a, 0xf4,
  0x21, 0xf4, 0x1b, 0xf4, 0xf0, 0x0f, 0x06, 0x1a, 0x0c, 0x04, 0x17, 0xd9,
  0xe2, 0x36, 0x00, 0xe5, 0xfb, 0x05, 0xdd, 0xf1, 0xd9, 0xd8, 0x17, 0xd8,
  0xfc, 0xf3, 0xeb, 0xf6, 0x02, 0x0b, 0xd8, 0xec, 0x1c, 0x08, 0x11, 0x16,
  0x10, 0xea, 0xfb, 0xd8, 0xe3, 0xdf, 0xca, 0xce, 0x03, 0x17, 0xcb, 0xfa,
  0xf1, 0xd5, 0x05, 0x0d, 0xf9, 0xe1, 0xdc, 0xdb, 0x02, 0x29, 0x33, 0xf3,
  0xcc, 0xbe, 0xc0, 0xd8, 0xd6, 0x27, 0x0f, 0x0f, 0xf0, 0x12, 0x05, 0xdb,
  0xe3, 0x09, 0x05, 0xea, 0xe2, 0xdc, 0x12, 0x1d, 0xf6, 0x15, 0x10, 0x1a,
  0xe3, 0x0e, 0xda, 0xf0, 0x09, 0x0f, 0xe5, 0xcd, 0xd3, 0x0f, 0xef, 0xe6,
  0x2b, 0xea, 0xff, 0x0b, 0xe3, 0x19, 0x40, 0x16, 0xa8, 0x8e, 0xbf, 0xf7,
  0x13, 0xd4, 0xad, 0xc9, 0x21, 0x34, 0xc1, 0xb8, 0xed, 0x81, 0x0c, 0x07,
  0xed, 0xbd, 0xcd, 0xca, 0x19, 0x29, 0xc8, 0xec, 0xb0, 0xb2, 0xcf, 0x39,
  0xb4, 0xc5, 0x22, 0x06, 0xf1, 0x11, 0xe3, 0x04, 0xfc, 0xdc, 0xdc, 0xf8,
  0xd7, 0x04, 0x07, 0xe7, 0x17, 0x30, 0xf8, 0x13, 0xf5, 0x29, 0xf4, 0x1b,
  0xf3, 0xf3, 0xc9, 0xd3, 0x30, 0xe3, 0xfe, 0xf5, 0x10, 0x07, 0x3b, 0xe1,
  0x3f, 0x03, 0xe8, 0xe9, 0xf7, 0x1a, 0xe1, 0xd0, 0x04, 0xf9, 0xd3, 0xdf,
  0x0b, 0xda, 0xdb, 0x19, 0xc2, 0xd3, 0xc7, 0x0e, 0xe2, 0x12, 0xec, 0x02,
  0xde, 0xf1, 0x08, 0xee, 0x14, 0xe7, 0xff, 0xf7, 0x0a, 0xed, 0xf1, 0xea,
  0x16, 0x04, 0x49, 0xfe, 0x2d, 0x1f, 0x16, 0xde, 0x1f, 0x1c, 0x17, 0x07,
  0x32, 0x24, 0x27, 0xe3, 0x16, 0xdb, 0x0e, 0xf4, 0x12, 0x1b, 0xfa, 0x0f,
  0xe4, 0x0d, 0xd4, 0xf9, 0xfc, 0xe0, 0xe9, 0x28, 0x05, 0xcf, 0x2b, 0xe8,
  0x15, 0xf0, 0x32, 0xe1, 0x15, 0x05, 0xda, 0x27, 0x27, 0x01, 0x21, 0x0d,
  0xd4, 0xed, 0xd9, 0xde, 0x20, 0xf4, 0xf1, 0x05, 0x1c, 0x07, 0x1c, 0xea,
  0xf9, 0x31, 0x3e, 0xf6, 0x1c, 0x1f, 0x27, 0xfc, 0x0b, 0x2e, 0x1b, 0xd8,
  0x2e, 0xfa, 0x2e, 0xca, 0xd4, 0xcb, 0x1e, 0x21, 0x1c, 0x19, 0xf3, 0xd4,
  0xe1, 0xfe, 0x1b, 0x46, 0xbc, 0xcd, 0x42, 0x5b, 0xef, 0x73, 0xdf, 0x11,
  0xeb, 0x35, 0x07, 0x46, 0xd7, 0xe5, 0x18, 0xfb, 0x0a, 0x3a, 0x1f, 0xe1,
  0x15, 0x3c, 0xdc, 0xec, 0x17, 0xf5, 0xe6, 0x1f, 0xfd, 0x1a, 0x1b, 0xc6,
  0x25, 0xd4, 0xd3, 0x02, 0x2d, 0xf4, 0x18, 0xd7, 0x0d, 0x0b, 0x03, 0xf9,
  0x17, 0x03, 0xfe, 0x2e, 0xfe, 0x26, 0x22, 0x0e, 0xed, 0xf2, 0x35, 0x12,
  0xe1, 0x10, 0xea, 0x2a, 0x2f, 0xe6, 0x20, 0xc6, 0x08, 0x25, 0x05, 0x2e,
  0xec, 0xf5, 0xe5, 0x12, 0x08, 0x07, 0x18, 0xdf, 0xfe, 0x09, 0xd3, 0xf4,
  0xff, 0x10, 0xde, 0xf3, 0xe7, 0x09, 0x07, 0x13, 0xdb, 0xf4, 0x04, 0x15,
  0x18, 0xfe, 0x1e, 0x00, 0xd2, 0x17, 0x1c, 0x1c, 0x0d, 0x16, 0x0f, 0x2b,
  0x2b, 0x31, 0xfe, 0x40, 0xfe, 0xe7, 0xef, 0x22, 0x07, 0x0b, 0x0a, 0x02,
  0xef, 0x2a, 0x13, 0xf0, 0xef, 0xdc, 0xd2, 0xfb, 0xf7, 0x42, 0xd4, 0x04,
  0x0c, 0xf2, 0x19, 0x27, 0xdf, 0x03, 0x12, 0x3a, 0x14, 0x07, 0xe8, 0x11,
  0x04, 0xee, 0x0c, 0xfe, 0x12, 0x13, 0xf3, 0xe1, 0xeb, 0x35, 0xf8, 0xfe,
  0xf0, 0x11, 0x04, 0x22, 0xca, 0xea, 0x37, 0x1f, 0xdb, 0xd6, 0x3a, 0xcc,
  0x0b, 0x04, 0x31, 0x08, 0x07, 0xfd, 0x0d, 0x00, 0xd1, 0xcf, 0xda, 0xe7,
  0x2d, 0xfa, 0x1f, 0x0c, 0x18, 0x3f, 0xf5, 0x23, 0x05, 0xd0, 0xfc, 0xf3,
  0x0b, 0x25, 0x29, 0xfd, 0x23, 0xe3, 0x05, 0x05, 0xea, 0x1a, 0x2c, 0x12,
  0x05, 0x05, 0xe9, 0xfe, 0xfe, 0x05, 0xee, 0x38, 0x26, 0xfe, 0xdb, 0xf3,
  0xf0, 0x1d, 0x1b, 0xef, 0x05, 0xdd, 0x0c, 0xfd, 0x0d, 0x07, 0x3d, 0xfd,
  0xfb, 0x24, 0x19, 0xf3, 0xc3, 0x2f, 0x0c, 0x0a, 0x10, 0xe8, 0xf1, 0xf3,
  0x0a, 0x06, 0xf5, 0x03, 0xf9, 0x07, 0xfd, 0x06, 0x0b, 0xfc, 0x14, 0xfe,
  0xd5, 0x17, 0xe3, 0xf9, 0x11, 0x15, 0xf0, 0x25, 0x00, 0xdf, 0x09, 0xf9,
  0x3e, 0xfe, 0xe4, 0x12, 0x12, 0x07, 0x19, 0x23, 0x31, 0x16, 0x11, 0x1d,
  0xde, 0xff, 0xec, 0xef, 0x0e, 0xf0, 0xc4, 0xf6, 0x2f, 0xf2, 0xde, 0x1e,
  0xf5, 0xf6, 0xd4, 0xdf, 0xcf, 0x05, 0xfe, 0x0a, 0xd6, 0xf3, 0x1a, 0xef,
  0x08, 0xc4, 0x0c, 0xdb, 0x13, 0xd6, 0xf3, 0x02, 0xfd, 0xeb, 0xe1, 0xd3,
  0x0c, 0xf4, 0x19, 0x0d, 0x2b, 0x08, 0xdf, 0xf3, 0xf8, 0xec, 0x06, 0xce,
  0xca, 0xee, 0xfc, 0x22, 0x1f, 0xfe, 0x17, 0xcc, 0x07, 0x2b, 0xdc, 0xfa,
  0x1c, 0xd0, 0x00, 0xf9, 0xc4, 0xf5, 0x34, 0xd6, 0xf0, 0xe3, 0x11, 0xe4,
  0xeb, 0xfc, 0x0b, 0x3a, 0xe9, 0xf6, 0x06, 0x20, 0xde, 0xef, 0xea, 0x10,
  0xdf, 0xd4, 0xcb, 0xe2, 0xe7, 0x38, 0xe7, 0xc0, 0xc3, 0xc1, 0x15, 0x06,
  0x23, 0xd1, 0x01, 0xf3, 0x16, 0xd6, 0xc9, 0xf0, 0xda, 0xb0, 0x0c, 0x14,
  0xf3, 0x13, 0xef, 0x04, 0x1e, 0xe0, 0xe9, 0x13, 0xe3, 0xda, 0xeb, 0x33,
  0xef, 0x1b, 0x0b, 0xec, 0xfe, 0xe3, 0xbd, 0xf3, 0x03, 0xf1, 0xdc, 0x1d,
  0xc2, 0xee, 0xe7, 0xf2, 0xe5, 0xf4, 0xe0, 0xe8, 0x02, 0xe9, 0xd3, 0xf5,
  0x02, 0x2b, 0x0b, 0x09, 0x12, 0x32, 0x02, 0xe7, 0x0e, 0x03, 0x25, 0xe7,
  0x0d, 0xe7, 0x22, 0x31, 0xca, 0x2b, 0xf0, 0x01, 0x05, 0xfb, 0x16, 0x16,
  0x28, 0xe8, 0xf9, 0x03, 0x33, 0xf0, 0xe6, 0xe9, 0x1c, 0xdc, 0xf7, 0x0a,
  0x21, 0x1e, 0xe0, 0xf5, 0x08, 0x30, 0x1b, 0x02, 0x12, 0x26, 0xec, 0x1e,
  0xf5, 0x08, 0x10, 0xe3, 0x29, 0x01, 0xda, 0xf7, 0xdb, 0xe7, 0x08, 0xf5,
  0xd8, 0xfb, 0xda, 0xdc, 0x17, 0xdf, 0xea, 0x28, 0xf4, 0xdc, 0xe8, 0xe2,
  0xe6, 0xf4, 0xe7, 0x20, 0x33, 0x25, 0x0d, 0x14, 0xfb, 0x0f, 0xe0, 0x1a,
  0x1c, 0x02, 0xe1, 0x23, 0x05, 0xd2, 0xf3, 0xe1, 0xd0, 0xf9, 0x1b, 0x22,
  0xe1, 0x06, 0x02, 0xf3, 0x1d, 0xd1, 0x1e, 0xe6, 0xdb, 0x1e, 0x2f, 0x01,
  0x09, 0xe8, 0x02, 0x12, 0x18, 0xc8, 0x27, 0xe8, 0xf7, 0x2e, 0xe3, 0x33,
  0x05, 0xea, 0x13, 0xcc, 0xfa, 0x26, 0x09, 0x08, 0xed, 0x04, 0xbd, 0xf2,
  0xfa, 0xfe, 0xee, 0x26, 0xdf, 0x11, 0xf0, 0xdd, 0x0e, 0x0f, 0x28, 0x24,
  0x29, 0x2c, 0xe7, 0x1c, 0x0b, 0xed, 0xf7, 0xc8, 0xba, 0x08, 0x33, 0xf3,
  0x32, 0x1d, 0x0f, 0x0b, 0x18, 0xd1, 0xf6, 0x2e, 0xeb, 0x11, 0x0a, 0x0c,
  0x0b, 0x21, 0xf3, 0xc7, 0xe9, 0xd2, 0x18, 0x1d, 0xf6, 0x30, 0xfa, 0x09,
  0x11, 0xe3, 0x19, 0xfb, 0xdd, 0xfb, 0xf2, 0xfa, 0x26, 0x22, 0x00, 0xfb,
  0xe1, 0xec, 0x07, 0x23, 0xf4, 0xf3, 0xda, 0x1f, 0xff, 0x20, 0x13, 0x2b,
  0x18, 0x1c, 0xeb, 0xfc, 0x14, 0xd3, 0x00, 0x13, 0x11, 0x1e, 0xdd, 0xe5,
  0xd9, 0x3b, 0x16, 0x32, 0x0d, 0x1d, 0x22, 0xda, 0xec, 0xf7, 0xfb, 0xfe,
  0x1e, 0x01, 0xfe, 0x01, 0xfd, 0x23, 0x2c, 0xf4, 0x1a, 0x12, 0xd0, 0x40,
  0xd7, 0xdc, 0xf0, 0xfb, 0xfb, 0x24, 0x32, 0x08, 0x19, 0x16, 0x0d, 0xd7,
  0xc7, 0x2b, 0xf5, 0x28, 0xfa, 0xdb, 0x0a, 0x17, 0xf1, 0xfa, 0xc3, 0x38,
  0xf7, 0x03, 0x28, 0x2f, 0x1e, 0x3a, 0x1a, 0xdf, 0x10, 0xf7, 0x0c, 0xf4,
  0x18, 0xfa, 0x1e, 0x12, 0x22, 0x05, 0x07, 0x1d, 0xec, 0x0a, 0x0c, 0x04,
  0xdc, 0xe9, 0x08, 0x1c, 0x11, 0xd2, 0xd6, 0xf7, 0xeb, 0x1b, 0x1b, 0xc2,
  0x09, 0xf1, 0x04, 0xcb, 0x18, 0xe1, 0x31, 0x0f, 0x05, 0x1d, 0x3e, 0x00,
  0x16, 0x18, 0xe7, 0x40, 0xfd, 0x12, 0xfc, 0x01, 0x0d, 0x06, 0x42, 0x27,
  0x0b, 0xf8, 0xf6, 0x0d, 0x09, 0xf8, 0xee, 0xee, 0x09, 0xd1, 0x10, 0xf0,
  0xf1, 0x1e, 0x3c, 0xf0, 0x06, 0x17, 0x2f, 0xc0, 0x23, 0xe4, 0xf4, 0xf8,
  0x31, 0xec, 0x1d, 0x15, 0x25, 0xe5, 0xde, 0xe7, 0xff, 0x19, 0x36, 0xfd,
  0x04, 0xf9, 0xc4, 0x26, 0x14, 0xc7, 0x05, 0xd2, 0xf6, 0xf8, 0x08, 0x13,
  0xca, 0x2c, 0x24, 0xe5, 0xe0, 0x13, 0xe5, 0xee, 0xfc, 0x25, 0x07, 0xd7,
  0x3d, 0x2c, 0xd9, 0x06, 0xf3, 0xee, 0x04, 0x2e, 0xe3, 0xca, 0xf9, 0xd3,
  0x28, 0x0c, 0xf0, 0xdd, 0x12, 0xc7, 0xdd, 0xd7, 0x05, 0xfb, 0x26, 0x0e,
  0x02, 0xfd, 0x28, 0xc3, 0xfa, 0xee, 0x23, 0x04, 0xe9, 0x31, 0xfd, 0xdf,
  0x03, 0xf2, 0xfc, 0x0b, 0x13, 0xfd, 0xf2, 0x09, 0xdb, 0x08, 0x0c, 0x1d,
  0xef, 0xdc, 0xf6, 0xe8, 0xef, 0x1c, 0xd1, 0x0e, 0x10, 0x31, 0xf4, 0x08,
  0xfb, 0xcf, 0x02, 0x01, 0xf0, 0xd7, 0x28, 0xf7, 0x0f, 0x03, 0xf9, 0x12,
  0xf7, 0x02, 0x33, 0x03, 0x14, 0xd0, 0xf2, 0xc8, 0xe8, 0xcd, 0xe8, 0x07,
  0xec, 0x0f, 0x03, 0x05, 0xf9, 0xe4, 0x1c, 0xe1, 0x15, 0x12, 0x0a, 0x0e,
  0xf8, 0xfe, 0xff, 0xf8, 0xc7, 0x10, 0x1f, 0xd5, 0x11, 0x0e, 0xfe, 0x32,
  0x35, 0xec, 0x23, 0xd6, 0xf8, 0x05, 0x12, 0xfd, 0x12, 0x06, 0xce, 0xe7,
  0x0f, 0x13, 0xe8, 0x21, 0x0e, 0xce, 0x00, 0x2e, 0x08, 0x04, 0x17, 0xe2,
  0xe3, 0x03, 0x06, 0xe8, 0x1f, 0x2c, 0x17, 0xf9, 0xee, 0x1c, 0xfd, 0x06,
  0xd8, 0x2f, 0xe1, 0xf7, 0x15, 0xd8, 0xe1, 0x3a, 0x19, 0x11, 0x34, 0x24,
  0xdf, 0xea, 0x0e, 0x0b, 0x17, 0x11, 0xfa, 0x06, 0xce, 0x0d, 0xcb, 0x2c,
  0xff, 0x04, 0xf7, 0x0f, 0xf1, 0xfd, 0x1d, 0x2b, 0xfd, 0xcb, 0xf8, 0x1a,
  0xd8, 0xd5, 0x16, 0x1b, 0x22, 0x28, 0x0d, 0xe8, 0x34, 0x06, 0xf6, 0xc2,
  0xfe, 0xe6, 0xfa, 0x00, 0x2f, 0x30, 0x1a, 0xfe, 0x11, 0x24, 0x0c, 0xed,
  0x15, 0xfa, 0x29, 0x13, 0xc6, 0xfe, 0xf7, 0xf0, 0xdb, 0x26, 0x02, 0x04,
  0x34, 0xd9, 0xe3, 0xda, 0xee, 0xfd, 0xe1, 0x2b, 0xf3, 0xdd, 0xda, 0x16,
  0x08, 0x12, 0xd0, 0xf8, 0x0c, 0x04, 0xe5, 0x0d, 0xe5, 0x1b, 0xbe, 0xf8,
  0xcf, 0xcf, 0xeb, 0x14, 0xdc, 0x0a, 0xf9, 0x36, 0x11, 0x26, 0xf0, 0xdc,
  0x12, 0x10, 0xd7, 0xe0, 0xde, 0x2a, 0xe9, 0xef, 0xf3, 0x12, 0xc9, 0x21,
  0x1b, 0x1d, 0x16, 0x17, 0x1b, 0x15, 0x03, 0x09, 0xcf, 0x16, 0xe7, 0x21,
  0xf2, 0xc9, 0x1e, 0xe9, 0x24, 0x32, 0xc7, 0x01, 0xfe, 0xf3, 0x06, 0xfa,
  0x01, 0x25, 0xe0, 0xf8, 0xff, 0xf9, 0x08, 0x21, 0x14, 0xfe, 0x33, 0x02,
  0xec, 0x10, 0x38, 0xe6, 0xde, 0x1d, 0xe1, 0xd0, 0x0a, 0x19, 0xe9, 0x16,
  0xdd, 0x05, 0xf7, 0x16, 0x23, 0xd1, 0xf2, 0xf0, 0xf3, 0x07, 0x00, 0xe0,
  0xd9, 0xe1, 0x10, 0x21, 0xea, 0xdc, 0x15, 0xe7, 0xfc, 0x2b, 0x00, 0xe5,
  0xd5, 0xd7, 0x3b, 0x33, 0x0b, 0x01, 0xf1, 0x0d, 0xdb, 0x0c, 0xf2, 0xe8,
  0x0d, 0xfb, 0xfa, 0x3a, 0xf8, 0x09, 0xec, 0xfc, 0x2e, 0xfd, 0x0c, 0x0d,
  0x05, 0x06, 0xf8, 0xd2, 0xe6, 0xd7, 0xc5, 0x37, 0x19, 0x1f, 0xfe, 0xff,
  0xde, 0x03, 0x08, 0x2e, 0xf2, 0xf4, 0x1a, 0xfe, 0xdd, 0xd8, 0x29, 0x0e,
  0xfa, 0xeb, 0xe2, 0x06, 0xfa, 0xee, 0xc9, 0x05, 0xe9, 0x0a, 0x35, 0xff,
  0xf5, 0xec, 0x07, 0xe0, 0xe1, 0xfc, 0xed, 0x09, 0x19, 0xd8, 0xf0, 0xef,
  0xfe, 0x02, 0xf7, 0x3a, 0x2a, 0xea, 0xf3, 0xe3, 0xe9, 0x0e, 0x05, 0x14,
  0x1d, 0x18, 0x28, 0xc5, 0x0d, 0xd9, 0xda, 0xf3, 0x16, 0xee, 0xf1, 0x04,
  0x0a, 0x11, 0x2d, 0xfd, 0xfb, 0xdb, 0xfc, 0x19, 0xf1, 0xf5, 0xdb, 0x0c,
  0x0e, 0xdc, 0xe2, 0x28, 0x04, 0xe4, 0x26, 0x1e, 0x2a, 0xe2, 0xcc, 0x22,
  0xf5, 0xd0, 0xe1, 0xfb, 0x12, 0x0a, 0xf6, 0x05, 0x1a, 0x09, 0xd8, 0x10,
  0x1d, 0xf9, 0xe7, 0xca, 0x3c, 0x25, 0x15, 0x0f, 0xd6, 0xff, 0xf6, 0x0e,
  0xdd, 0xee, 0xd1, 0xcb, 0xcb, 0xcf, 0x22, 0x0f, 0x02, 0xd4, 0xf6, 0x14,
  0x0f, 0xc4, 0x14, 0xf3, 0xfc, 0x26, 0x01, 0x27, 0x0b, 0xe7, 0x30, 0x11,
  0x22, 0x10, 0xee, 0x00, 0x26, 0xe3, 0xd4, 0xf3, 0x23, 0xf9, 0x09, 0x3b,
  0xf9, 0xfd, 0x28, 0xec, 0xee, 0xff, 0xc6, 0x2a, 0xe8, 0x03, 0x04, 0xea,
  0x13, 0x0a, 0x1c, 0x0b, 0xef, 0xed, 0x02, 0x10, 0x00, 0x02, 0x06, 0xec,
  0xf8, 0x32, 0xf4, 0x09, 0x2f, 0xf7, 0xc4, 0xe2, 0xf4, 0x1b, 0x2a, 0x0f,
  0x20, 0x0f, 0xd6, 0xf4, 0x18, 0xe4, 0xf3, 0x04, 0xf4, 0xd3, 0x2b, 0x0f,
  0x16, 0x07, 0x08, 0xe3, 0xf3, 0x0c, 0x2b, 0xdf, 0x04, 0x0d, 0xed, 0x14,
  0xec, 0xf8, 0xfd, 0xfc, 0x2c, 0xe7, 0xfb, 0xda, 0x31, 0xce, 0xfc, 0xee,
  0xf9, 0x24, 0x02, 0x0e, 0xeb, 0xf3, 0xcf, 0xfc, 0x1b, 0x03, 0x1d, 0xfd,
  0xfd, 0x12, 0x05, 0x01, 0xe2, 0xe7, 0x20, 0x08, 0x03, 0x04, 0x31, 0xe2,
  0xdc, 0xf1, 0x08, 0x14, 0xe9, 0xd9, 0x2c, 0xdb, 0x32, 0xdf, 0xfe, 0x3a,
  0x34, 0x13, 0xe3, 0xf8, 0xea, 0x2a, 0x01, 0x05, 0xe6, 0xf7, 0x1b, 0x25,
  0xec, 0x05, 0xfb, 0x14, 0x14, 0xd6, 0x11, 0x09, 0x1d, 0xde, 0x16, 0xdf,
  0x19, 0x16, 0xfb, 0x0a, 0xbf, 0xf1, 0x25, 0x05, 0x06, 0x24, 0x29, 0x0b,
  0x05, 0x0f, 0x28, 0xe9, 0x0b, 0xfe, 0xe8, 0x29, 0xf0, 0xe9, 0xd9, 0x2c,
  0x1c, 0xf1, 0xbf, 0xf3, 0xff, 0x0a, 0xe5, 0x27, 0x1b, 0x0b, 0x19, 0x0e,
  0xbe, 0x1e, 0xf2, 0xf5, 0xf6, 0xfb, 0x14, 0x21, 0xf6, 0x20, 0xc2, 0xfd,
  0xec, 0x0e, 0x08, 0xe0, 0xe1, 0xff, 0xe4, 0xfa, 0xfb, 0xf1, 0xf3, 0xe5,
  0xfa, 0x05, 0xc6, 0x1e, 0x1f, 0x25, 0x13, 0x1f, 0xd0, 0xfa, 0xfc, 0xef,
  0xf8, 0xdb, 0x23, 0x00, 0xe1, 0xd0, 0x33, 0xea, 0xf5, 0x37, 0xf4, 0x01,
  0x17, 0xfc, 0xf1, 0xee, 0xf3, 0x1b, 0x23, 0x02, 0xf7, 0xd2, 0xce, 0x0f,
  0xe8, 0xfe, 0x08, 0xcc, 0xfb, 0xff, 0xfe, 0x05, 0x2e, 0xc1, 0x03, 0x13,
  0x08, 0x42, 0xe7, 0xc6, 0xe9, 0x35, 0x0d, 0xf8, 0xfd, 0x13, 0xfc, 0xf1,
  0x25, 0x07, 0xd7, 0x11, 0x14, 0x1a, 0x28, 0xe2, 0x07, 0x27, 0x30, 0x14,
  0x06, 0xeb, 0xc7, 0xec, 0x16, 0x0b, 0xef, 0x07, 0xfb, 0x2a, 0xe6, 0x06,
  0x0f, 0xf9, 0xe1, 0x01, 0x0b, 0x14, 0xcc, 0xf8, 0x25, 0x27, 0x16, 0x26,
  0xde, 0x0e, 0xf5, 0x12, 0xf3, 0x20, 0xfd, 0x09, 0xd4, 0xfd, 0xff, 0xff,
  0x0a, 0xfe, 0xff, 0xff, 0x04, 0x00, 0x00, 0x00, 0xc8, 0x00, 0x00, 0x00,
  0xb0, 0x06, 0x00, 0x00, 0x5f, 0xfb, 0xff, 0xff, 0x0e, 0xfc, 0xff, 0xff,
  0x53, 0x04, 0x00, 0x00, 0x8d, 0x01, 0x00, 0x00, 0x07, 0x09, 0x00, 0x00,
  0xc0, 0x00, 0x00, 0x00, 0x97, 0xff, 0xff, 0xff, 0x22, 0x06, 0x00, 0x00,
  0x78, 0x09, 0x00, 0x00, 0xa8, 0x00, 0x00, 0x00, 0x4b, 0x04, 0x00, 0x00,
  0x71, 0xfd, 0xff, 0xff, 0x00, 0x00, 0x00, 0x00, 0xc9, 0xff, 0xff, 0xff,
  0x8e, 0x01, 0x00, 0x00, 0x00, 0x00, 0x00, 0x00, 0xac, 0x08, 0x00, 0x00,
  0xff, 0x01, 0x00, 0x00, 0x57, 0xfe, 0xff, 0xff, 0x8e, 0xfd, 0xff, 0xff,
  0xd7, 0xfb, 0xff, 0xff, 0xee, 0x08, 0x00, 0x00, 0x3b, 0x07, 0x00, 0x00,
  0x6c, 0x07, 0x00, 0x00, 0xe6, 0x00, 0x00, 0x00, 0x50, 0x04, 0x00, 0x00,
  0xa0, 0x00, 0x00, 0x00, 0x2a, 0x02, 0x00, 0x00, 0xda, 0x02, 0x00, 0x00,
  0x51, 0x02, 0x00, 0x00, 0xcf, 0x09, 0x00, 0x00, 0x5e, 0x0a, 0x00, 0x00,
  0x85, 0x05, 0x00, 0x00, 0x64, 0x05, 0x00, 0x00, 0x1f, 0x06, 0x00, 0x00,
  0xed, 0x07, 0x00, 0x00, 0x82, 0x05, 0x00, 0x00, 0xf6, 0xfd, 0xff, 0xff,
  0x04, 0xff, 0xff, 0xff, 0x4a, 0x08, 0x00, 0x00, 0xe4, 0x03, 0x00, 0x00,
  0x38, 0xff, 0xff, 0xff, 0x11, 0x03, 0x00, 0x00, 0xab, 0x05, 0x00, 0x00,
  0x77, 0xff, 0xff, 0xff, 0x58, 0x06, 0x00, 0x00, 0x1f, 0x01, 0x00, 0x00,
  0x42, 0x04, 0x00, 0x00, 0xc8, 0x01, 0x00, 0x00, 0xde, 0xfe, 0xff, 0xff,
  0x04, 0x00, 0x00, 0x00, 0x3c, 0x00, 0x00, 0x00, 0x00, 0x00, 0x00, 0x00,
  0xa5, 0xff, 0xff, 0xff, 0xc0, 0x06, 0x00, 0x00, 0x8b, 0x02, 0x00, 0x00,
  0x1c, 0x03, 0x00, 0x00, 0xf2, 0x03, 0x00, 0x00, 0xa3, 0xff, 0xff, 0xff,
  0x56, 0x06, 0x00, 0x00, 0x00, 0x00, 0x00, 0x00, 0x46, 0x04, 0x00, 0x00,
  0x52, 0x06, 0x00, 0x00, 0xb0, 0x00, 0x00, 0x00, 0x83, 0x00, 0x00, 0x00,
  0x6f, 0x07, 0x00, 0x00, 0x00, 0x00, 0x00, 0x00, 0x26, 0xff, 0xff, 0xff,
  0x04, 0x00, 0x00, 0x00, 0x1e, 0x00, 0x00, 0x00, 0x10, 0xf8, 0xbf, 0x7f,
  0x37, 0x3a, 0x45, 0x94, 0x07, 0x32, 0xce, 0x26, 0x22, 0x16, 0x97, 0xb1,
  0xb7, 0x4c, 0xd5, 0xd0, 0xed, 0xca, 0x1c, 0x2f, 0xfe, 0x45, 0xcb, 0xf1,
  0xa7, 0xfa, 0x00, 0x00, 0x52, 0xff, 0xff, 0xff, 0x04, 0x00, 0x00, 0x00,
  0x08, 0x00, 0x00, 0x00, 0x14, 0xff, 0xff, 0xff, 0xec, 0x00, 0x00, 0x00,
  0x34, 0xff, 0xff, 0xff, 0x0f, 0x00, 0x00, 0x00, 0x54, 0x4f, 0x43, 0x4f,
  0x20, 0x43, 0x6f, 0x6e, 0x76, 0x65, 0x72, 0x74, 0x65, 0x64, 0x2e, 0x00,
  0x01, 0x00, 0x00, 0x00, 0x04, 0x00, 0x00, 0x00, 0x00, 0xf9, 0xff, 0xff,
  0x94, 0x01, 0x00, 0x00, 0x88, 0x01, 0x00, 0x00, 0x7c, 0x01, 0x00, 0x00,
  0x04, 0x00, 0x00, 0x00, 0x06, 0x00, 0x00, 0x00, 0x50, 0x01, 0x00, 0x00,
  0x04, 0x01, 0x00, 0x00, 0xbc, 0x00, 0x00, 0x00, 0x74, 0x00, 0x00, 0x00,
  0x38, 0x00, 0x00, 0x00, 0x04, 0x00, 0x00, 0x00, 0xd2, 0xfe, 0xff, 0xff,
  0x03, 0x00, 0x00, 0x00, 0x10, 0x00, 0x00, 0x00, 0x04, 0x00, 0x00, 0x00,
  0x01, 0x00, 0x00, 0x00, 0x0c, 0x00, 0x00, 0x00, 0x01, 0x00, 0x00, 0x00,
  0x00, 0x00, 0x00, 0x00, 0x00, 0x00, 0x0e, 0x00, 0x1a, 0x00, 0x08, 0x00,
  0x0c, 0x00, 0x10, 0x00, 0x07, 0x00, 0x14, 0x00, 0x0e, 0x00, 0x00, 0x00,
  0x00, 0x00, 0x00, 0x09, 0x01, 0x00, 0x00, 0x00, 0x24, 0x00, 0x00, 0x00,
  0x18, 0x00, 0x00, 0x00, 0x0c, 0x00, 0x00, 0x00, 0x00, 0x00, 0x06, 0x00,
  0x08, 0x00, 0x04, 0x00, 0x06, 0x00, 0x00, 0x00, 0x00, 0x00, 0x80, 0x3f,
  0x01, 0x00, 0x00, 0x00, 0x00, 0x00, 0x00, 0x00, 0x01, 0x00, 0x00, 0x00,
  0x08, 0x00, 0x00, 0x00, 0xca, 0xff, 0xff, 0xff, 0x00, 0x00, 0x00, 0x08,
  0x1c, 0x00, 0x00, 0x00, 0x10, 0x00, 0x00, 0x00, 0x08, 0x00, 0x00, 0x00,
  0x04, 0x00, 0x04, 0x00, 0x04, 0x00, 0x00, 0x00, 0x01, 0x00, 0x00, 0x00,
  0x08, 0x00, 0x00, 0x00, 0x03, 0x00, 0x00, 0x00, 0x07, 0x00, 0x00, 0x00,
  0x09, 0x00, 0x00, 0x00, 0x0a, 0x00, 0x00, 0x00, 0x00, 0x00, 0x0e, 0x00,
  0x14, 0x00, 0x00, 0x00, 0x08, 0x00, 0x0c, 0x00, 0x07, 0x00, 0x10, 0x00,
  0x0e, 0x00, 0x00, 0x00, 0x00, 0x00, 0x00, 0x08, 0x1c, 0x00, 0x00, 0x00,
  0x10, 0x00, 0x00, 0x00, 0x04, 0x00, 0x00, 0x00, 0xba, 0xff, 0xff, 0xff,
  0x00, 0x00, 0x00, 0x01, 0x01, 0x00, 0x00, 0x00, 0x07, 0x00, 0x00, 0x00,
  0x03, 0x00, 0x00, 0x00, 0x04, 0x00, 0x00, 0x00, 0x05, 0x00, 0x00, 0x00,
  0x06, 0x00, 0x00, 0x00, 0x00, 0x00, 0x0e, 0x00, 0x16, 0x00, 0x00, 0x00,
  0x08, 0x00, 0x0c, 0x00, 0x07, 0x00, 0x10, 0x00, 0x0e, 0x00, 0x00, 0x00,
  0x00, 0x00, 0x00, 0x08, 0x24, 0x00, 0x00, 0x00, 0x18, 0x00, 0x00, 0x00,
  0x0c, 0x00, 0x00, 0x00, 0x00, 0x00, 0x06, 0x00, 0x08, 0x00, 0x07, 0x00,
  0x06, 0x00, 0x00, 0x00, 0x00, 0x00, 0x00, 0x01, 0x01, 0x00, 0x00, 0x00,
  0x04, 0x00, 0x00, 0x00, 0x03, 0x00, 0x00, 0x00, 0x01, 0x00, 0x00, 0x00,
  0x02, 0x00, 0x00, 0x00, 0x03, 0x00, 0x00, 0x00, 0x00, 0x00, 0x0a, 0x00,
  0x10, 0x00, 0x04, 0x00, 0x08, 0x00, 0x0c, 0x00, 0x0a, 0x00, 0x00, 0x00,
  0x02, 0x00, 0x00, 0x00, 0x10, 0x00, 0x00, 0x00, 0x04, 0x00, 0x00, 0x00,
  0x01, 0x00, 0x00, 0x00, 0x01, 0x00, 0x00, 0x00, 0x01, 0x00, 0x00, 0x00,
  0x0b, 0x00, 0x00, 0x00, 0x01, 0x00, 0x00, 0x00, 0x0c, 0x00, 0x00, 0x00,
  0x01, 0x00, 0x00, 0x00, 0x0b, 0x00, 0x00, 0x00, 0x0d, 0x00, 0x00, 0x00,
  0xe4, 0x05, 0x00, 0x00, 0x48, 0x05, 0x00, 0x00, 0xa8, 0x04, 0x00, 0x00,
  0x34, 0x04, 0x00, 0x00, 0xb0, 0x03, 0x00, 0x00, 0x0c, 0x03, 0x00, 0x00,
  0x98, 0x02, 0x00, 0x00, 0x14, 0x02, 0x00, 0x00, 0x88, 0x01, 0x00, 0x00,
  0xe4, 0x00, 0x00, 0x00, 0x70, 0x00, 0x00, 0x00, 0x3c, 0x00, 0x00, 0x00,
  0x04, 0x00, 0x00, 0x00, 0xd8, 0xff, 0xff, 0xff, 0x18, 0x00, 0x00, 0x00,
  0x04, 0x00, 0x00, 0x00, 0x08, 0x00, 0x00, 0x00, 0x49, 0x64, 0x65, 0x6e,
  0x74, 0x69, 0x74, 0x79, 0x00, 0x00, 0x00, 0x00, 0x02, 0x00, 0x00, 0x00,
  0x01, 0x00, 0x00, 0x00, 0x02, 0x00, 0x00, 0x00, 0x0c, 0x00, 0x0c, 0x00,
  0x04, 0x00, 0x00, 0x00, 0x00, 0x00, 0x08, 0x00, 0x0c, 0x00, 0x00, 0x00,
  0x20, 0x00, 0x00, 0x00, 0x04, 0x00, 0x00, 0x00, 0x13, 0x00, 0x00, 0x00,
  0x64, 0x65, 0x6e, 0x73, 0x65, 0x5f, 0x44, 0x65, 0x6e, 0x73, 0x65, 0x31,
  0x30, 0x5f, 0x69, 0x6e, 0x70, 0x75, 0x74, 0x00, 0x02, 0x00, 0x00, 0x00,
  0x01, 0x00, 0x00, 0x00, 0xb4, 0x00, 0x00, 0x00, 0xc2, 0xfa, 0xff, 0xff,
  0x00, 0x00, 0x00, 0x02, 0x60, 0x00, 0x00, 0x00, 0x01, 0x00, 0x00, 0x00,
  0x2c, 0x00, 0x00, 0x00, 0x04, 0x00, 0x00, 0x00, 0xb4, 0xfa, 0xff, 0xff,
  0x18, 0x00, 0x00, 0x00, 0x04, 0x00, 0x00, 0x00, 0x01, 0x00, 0x00, 0x00,
  0x00, 0x00, 0x00, 0x00, 0x00, 0x00, 0x00, 0x00, 0x00, 0x00, 0x00, 0x00,
  0x01, 0x00, 0x00, 0x00, 0x58, 0x8d, 0xfd, 0x38, 0x26, 0x00, 0x00, 0x00,
  0x73, 0x65, 0x71, 0x75, 0x65, 0x6e, 0x74, 0x69, 0x61, 0x6c, 0x5f, 0x34,
  0x2f, 0x64, 0x65, 0x6e, 0x73, 0x65, 0x5f, 0x44, 0x65, 0x6e, 0x73, 0x65,
  0x31, 0x32, 0x2f, 0x4d, 0x61, 0x74, 0x4d, 0x75, 0x6c, 0x5f, 0x62, 0x69,
  0x61, 0x73, 0x00, 0x00, 0x01, 0x00, 0x00, 0x00, 0x02, 0x00, 0x00, 0x00,
  0x32, 0xfb, 0xff, 0xff, 0x00, 0x00, 0x00, 0x09, 0x8c, 0x00, 0x00, 0x00,
  0x02, 0x00, 0x00, 0x00, 0x44, 0x00, 0x00, 0x00, 0x04, 0x00, 0x00, 0x00,
  0xbc, 0xfb, 0xff, 0xff, 0x30, 0x00, 0x00, 0x00, 0x24, 0x00, 0x00, 0x00,
  0x18, 0x00, 0x00, 0x00, 0x04, 0x00, 0x00, 0x00, 0x01, 0x00, 0x00, 0x00,
  0x00, 0x00, 0x00, 0x00, 0x00, 0x00, 0x00, 0x00, 0x00, 0x00, 0x00, 0x00,
  0x01, 0x00, 0x00, 0x00, 0x5f, 0x53, 0xd1, 0x3b, 0x01, 0x00, 0x00, 0x00,
  0xb8, 0xb0, 0x4f, 0x3f, 0x01, 0x00, 0x00, 0x00, 0x0c, 0xd8, 0x2f, 0xbf,
  0x3a, 0x00, 0x00, 0x00, 0x73, 0x65, 0x71, 0x75, 0x65, 0x6e, 0x74, 0x69,
  0x61, 0x6c, 0x5f, 0x34, 0x2f, 0x64, 0x65, 0x6e, 0x73, 0x65, 0x5f, 0x44,
  0x65, 0x6e, 0x73, 0x65, 0x31, 0x32, 0x2f, 0x4d, 0x61, 0x74, 0x4d, 0x75,
  0x6c, 0x2f, 0x52, 0x65, 0x61, 0x64, 0x56, 0x61, 0x72, 0x69, 0x61, 0x62,
  0x6c, 0x65, 0x4f, 0x70, 0x2f, 0x74, 0x72, 0x61, 0x6e, 0x73, 0x70, 0x6f,
  0x73, 0x65, 0x00, 0x00, 0x02, 0x00, 0x00, 0x00, 0x02, 0x00, 0x00, 0x00,
  0x0f, 0x00, 0x00, 0x00, 0xd2, 0xfb, 0xff, 0xff, 0x00, 0x00, 0x00, 0x09,
  0x74, 0x00, 0x00, 0x00, 0x0b, 0x00, 0x00, 0x00, 0x44, 0x00, 0x00, 0x00,
  0x04, 0x00, 0x00, 0x00, 0x5c, 0xfc, 0xff, 0xff, 0x30, 0x00, 0x00, 0x00,
  0x24, 0x00, 0x00, 0x00, 0x18, 0x00, 0x00, 0x00, 0x04, 0x00, 0x00, 0x00,
  0x01, 0x00, 0x00, 0x00, 0xf3, 0xff, 0xff, 0xff, 0xff, 0xff, 0xff, 0xff,
  0x00, 0x00, 0x00, 0x00, 0x01, 0x00, 0x00, 0x00, 0x1e, 0x0e, 0x38, 0x3d,
  0x01, 0x00, 0x00, 0x00, 0x07, 0x37, 0xc9, 0x40, 0x01, 0x00, 0x00, 0x00,
  0x1a, 0x75, 0xa5, 0xc0, 0x22, 0x00, 0x00, 0x00, 0x73, 0x65, 0x71, 0x75,
  0x65, 0x6e, 0x74, 0x69, 0x61, 0x6c, 0x5f, 0x34, 0x2f, 0x64, 0x65, 0x6e,
  0x73, 0x65, 0x5f, 0x44, 0x65, 0x6e, 0x73, 0x65, 0x31, 0x32, 0x2f, 0x42,
  0x69, 0x61, 0x73, 0x41, 0x64, 0x64, 0x00, 0x00, 0x02, 0x00, 0x00, 0x00,
  0x01, 0x00, 0x00, 0x00, 0x02, 0x00, 0x00, 0x00, 0x5a, 0xfc, 0xff, 0xff,
  0x00, 0x00, 0x00, 0x09, 0x6c, 0x00, 0x00, 0x00, 0x09, 0x00, 0x00, 0x00,
  0x40, 0x00, 0x00, 0x00, 0x04, 0x00, 0x00, 0x00, 0xe4, 0xfc, 0xff, 0xff,
  0x2c, 0x00, 0x00, 0x00, 0x20, 0x00, 0x00, 0x00, 0x14, 0x00, 0x00, 0x00,
  0x04, 0x00, 0x00, 0x00, 0x01, 0x00, 0x00, 0x00, 0x80, 0xff, 0xff, 0xff,
  0xff, 0xff, 0xff, 0xff, 0x01, 0x00, 0x00, 0x00, 0x3e, 0x0b, 0x9b, 0x3c,
  0x01, 0x00, 0x00, 0x00, 0x33, 0x70, 0x9a, 0x40, 0x01, 0x00, 0x00, 0x00,
  0x00, 0x00, 0x00, 0x00, 0x1f, 0x00, 0x00, 0x00, 0x73, 0x65, 0x71, 0x75,
  0x65, 0x6e, 0x74, 0x69, 0x61, 0x6c, 0x5f, 0x34, 0x2f, 0x64, 0x65, 0x6e,
  0x73, 0x65, 0x5f, 0x44, 0x65, 0x6e, 0x73, 0x65, 0x31, 0x31, 0x2f, 0x52,
  0x65, 0x6c, 0x75, 0x00, 0x02, 0x00, 0x00, 0x00, 0x01, 0x00, 0x00, 0x00,
  0x0f, 0x00, 0x00, 0x00, 0xda, 0xfc, 0xff, 0xff, 0x00, 0x00, 0x00, 0x02,
  0x60, 0x00, 0x00, 0x00, 0x03, 0x00, 0x00, 0x00, 0x2c, 0x00, 0x00, 0x00,
  0x04, 0x00, 0x00, 0x00, 0xcc, 0xfc, 0xff, 0xff, 0x18, 0x00, 0x00, 0x00,
  0x04, 0x00, 0x00, 0x00, 0x01, 0x00, 0x00, 0x00, 0x00, 0x00, 0x00, 0x00,
  0x00, 0x00, 0x00, 0x00, 0x00, 0x00, 0x00, 0x00, 0x01, 0x00, 0x00, 0x00,
  0xed, 0xc7, 0x0c, 0x38, 0x26, 0x00, 0x00, 0x00, 0x73, 0x65, 0x71, 0x75,
  0x65, 0x6e, 0x74, 0x69, 0x61, 0x6c, 0x5f, 0x34, 0x2f, 0x64, 0x65, 0x6e,
  0x73, 0x65, 0x5f, 0x44, 0x65, 0x6e, 0x73, 0x65, 0x31, 0x31, 0x2f, 0x4d,
  0x61, 0x74, 0x4d, 0x75, 0x6c, 0x5f, 0x62, 0x69, 0x61, 0x73, 0x00, 0x00,
  0x01, 0x00, 0x00, 0x00, 0x0f, 0x00, 0x00, 0x00, 0x4a, 0xfd, 0xff, 0xff,
  0x00, 0x00, 0x00, 0x09, 0x8c, 0x00, 0x00, 0x00, 0x0a, 0x00, 0x00, 0x00,
  0x44, 0x00, 0x00, 0x00, 0x04, 0x00, 0x00, 0x00, 0xd4, 0xfd, 0xff, 0xff,
  0x30, 0x00, 0x00, 0x00, 0x24, 0x00, 0x00, 0x00, 0x18, 0x00, 0x00, 0x00,
  0x04, 0x00, 0x00, 0x00, 0x01, 0x00, 0x00, 0x00, 0x00, 0x00, 0x00, 0x00,
  0x00, 0x00, 0x00, 0x00, 0x00, 0x00, 0x00, 0x00, 0x01, 0x00, 0x00, 0x00,
  0xf9, 0xd8, 0x5a, 0x3b, 0x01, 0x00, 0x00, 0x00, 0x47, 0x23, 0xd9, 0x3e,
  0x01, 0x00, 0x00, 0x00, 0xd3, 0xc4, 0xc2, 0xbe, 0x3a, 0x00, 0x00, 0x00,
  0x73, 0x65, 0x71, 0x75, 0x65, 0x6e, 0x74, 0x69, 0x61, 0x6c, 0x5f, 0x34,
  0x2f, 0x64, 0x65, 0x6e, 0x73, 0x65, 0x5f, 0x44, 0x65, 0x6e, 0x73, 0x65,
  0x31, 0x31, 0x2f, 0x4d, 0x61, 0x74, 0x4d, 0x75, 0x6c, 0x2f, 0x52, 0x65,
  0x61, 0x64, 0x56, 0x61, 0x72, 0x69, 0x61, 0x62, 0x6c, 0x65, 0x4f, 0x70,
  0x2f, 0x74, 0x72, 0x61, 0x6e, 0x73, 0x70, 0x6f, 0x73, 0x65, 0x00, 0x00,
  0x02, 0x00, 0x00, 0x00, 0x0f, 0x00, 0x00, 0x00, 0x32, 0x00, 0x00, 0x00,
  0xea, 0xfd, 0xff, 0xff, 0x00, 0x00, 0x00, 0x09, 0x6c, 0x00, 0x00, 0x00,
  0x07, 0x00, 0x00, 0x00, 0x40, 0x00, 0x00, 0x00, 0x04, 0x00, 0x00, 0x00,
  0x74, 0xfe, 0xff, 0xff, 0x2c, 0x00, 0x00, 0x00, 0x20, 0x00, 0x00, 0x00,
  0x14, 0x00, 0x00, 0x00, 0x04, 0x00, 0x00, 0x00, 0x01, 0x00, 0x00, 0x00,
  0x80, 0xff, 0xff, 0xff, 0xff, 0xff, 0xff, 0xff, 0x01, 0x00, 0x00, 0x00,
  0x36, 0xae, 0x24, 0x3c, 0x01, 0x00, 0x00, 0x00, 0x88, 0x09, 0x24, 0x40,
  0x01, 0x00, 0x00, 0x00, 0x00, 0x00, 0x00, 0x00, 0x1f, 0x00, 0x00, 0x00,
  0x73, 0x65, 0x71, 0x75, 0x65, 0x6e, 0x74, 0x69, 0x61, 0x6c, 0x5f, 0x34,
  0x2f, 0x64, 0x65, 0x6e, 0x73, 0x65, 0x5f, 0x44, 0x65, 0x6e, 0x73, 0x65,
  0x31, 0x30, 0x2f, 0x52, 0x65, 0x6c, 0x75, 0x00, 0x02, 0x00, 0x00, 0x00,
  0x01, 0x00, 0x00, 0x00, 0x32, 0x00, 0x00, 0x00, 0x6a, 0xfe, 0xff, 0xff,
  0x00, 0x00, 0x00, 0x02, 0x60, 0x00, 0x00, 0x00, 0x04, 0x00, 0x00, 0x00,
  0x2c, 0x00, 0x00, 0x00, 0x04, 0x00, 0x00, 0x00, 0x5c, 0xfe, 0xff, 0xff,
  0x18, 0x00, 0x00, 0x00, 0x04, 0x00, 0x00, 0x00, 0x01, 0x00, 0x00, 0x00,
  0x00, 0x00, 0x00, 0x00, 0x00, 0x00, 0x00, 0x00, 0x00, 0x00, 0x00, 0x00,
  0x01, 0x00, 0x00, 0x00, 0xa9, 0x29, 0xba, 0x37, 0x26, 0x00, 0x00, 0x00,
  0x73, 0x65, 0x71, 0x75, 0x65, 0x6e, 0x74, 0x69, 0x61, 0x6c, 0x5f, 0x34,
  0x2f, 0x64, 0x65, 0x6e, 0x73, 0x65, 0x5f, 0x44, 0x65, 0x6e, 0x73, 0x65,
  0x31, 0x30, 0x2f, 0x4d, 0x61, 0x74, 0x4d, 0x75, 0x6c, 0x5f, 0x62, 0x69,
  0x61, 0x73, 0x00, 0x00, 0x01, 0x00, 0x00, 0x00, 0x32, 0x00, 0x00, 0x00,
  0xda, 0xfe, 0xff, 0xff, 0x00, 0x00, 0x00, 0x09, 0x88, 0x00, 0x00, 0x00,
  0x06, 0x00, 0x00, 0x00, 0x40, 0x00, 0x00, 0x00, 0x04, 0x00, 0x00, 0x00,
  0x64, 0xff, 0xff, 0xff, 0x2c, 0x00, 0x00, 0x00, 0x20, 0x00, 0x00, 0x00,
  0x14, 0x00, 0x00, 0x00, 0x04, 0x00, 0x00, 0x00, 0x01, 0x00, 0x00, 0x00,
  0x00, 0x00, 0x00, 0x00, 0x00, 0x00, 0x00, 0x00, 0x01, 0x00, 0x00, 0x00,
  0x66, 0x72, 0x39, 0x3b, 0x01, 0x00, 0x00, 0x00, 0xa2, 0x15, 0xa7, 0x3e,
  0x01, 0x00, 0x00, 0x00, 0x81, 0xff, 0xb7, 0xbe, 0x3a, 0x00, 0x00, 0x00,
  0x73, 0x65, 0x71, 0x75, 0x65, 0x6e, 0x74, 0x69, 0x61, 0x6c, 0x5f, 0x34,
  0x2f, 0x64, 0x65, 0x6e, 0x73, 0x65, 0x5f, 0x44, 0x65, 0x6e, 0x73, 0x65,
  0x31, 0x30, 0x2f, 0x4d, 0x61, 0x74, 0x4d, 0x75, 0x6c, 0x2f, 0x52, 0x65,
  0x61, 0x64, 0x56, 0x61, 0x72, 0x69, 0x61, 0x62, 0x6c, 0x65, 0x4f, 0x70,
  0x2f, 0x74, 0x72, 0x61, 0x6e, 0x73, 0x70, 0x6f, 0x73, 0x65, 0x00, 0x00,
  0x02, 0x00, 0x00, 0x00, 0x32, 0x00, 0x00, 0x00, 0xb4, 0x00, 0x00, 0x00,
  0x76, 0xff, 0xff, 0xff, 0x00, 0x00, 0x00, 0x09, 0x74, 0x00, 0x00, 0x00,
  0x05, 0x00, 0x00, 0x00, 0x4c, 0x00, 0x00, 0x00, 0x10, 0x00, 0x00, 0x00,
  0x0c, 0x00, 0x14, 0x00, 0x04, 0x00, 0x08, 0x00, 0x0c, 0x00, 0x10, 0x00,
  0x0c, 0x00, 0x00, 0x00, 0x2c, 0x00, 0x00, 0x00, 0x20, 0x00, 0x00, 0x00,
  0x14, 0x00, 0x00, 0x00, 0x04, 0x00, 0x00, 0x00, 0x01, 0x00, 0x00, 0x00,
  0x00, 0x00, 0x00, 0x00, 0x00, 0x00, 0x00, 0x00, 0x01, 0x00, 0x00, 0x00,
  0x7e, 0x7e, 0x00, 0x3c, 0x01, 0x00, 0x00, 0x00, 0x00, 0xf8, 0x7f, 0x3f,
  0x01, 0x00, 0x00, 0x00, 0x00, 0x00, 0x80, 0xbf, 0x18, 0x00, 0x00, 0x00,
  0x64, 0x65, 0x6e, 0x73, 0x65, 0x5f, 0x44, 0x65, 0x6e, 0x73, 0x65, 0x31,
  0x30, 0x5f, 0x69, 0x6e, 0x70, 0x75, 0x74, 0x5f, 0x69, 0x6e, 0x74, 0x38,
  0x00, 0x00, 0x00, 0x00, 0x02, 0x00, 0x00, 0x00, 0x01, 0x00, 0x00, 0x00,
  0xb4, 0x00, 0x00, 0x00, 0x00, 0x00, 0x0e, 0x00, 0x18, 0x00, 0x08, 0x00,
  0x07, 0x00, 0x0c, 0x00, 0x10, 0x00, 0x14, 0x00, 0x0e, 0x00, 0x00, 0x00,
  0x00, 0x00, 0x00, 0x09, 0x54, 0x00, 0x00, 0x00, 0x08, 0x00, 0x00, 0x00,
  0x38, 0x00, 0x00, 0x00, 0x10, 0x00, 0x00, 0x00, 0x0c, 0x00, 0x0c, 0x00,
  0x00, 0x00, 0x00, 0x00, 0x04, 0x00, 0x08, 0x00, 0x0c, 0x00, 0x00, 0x00,
  0x18, 0x00, 0x00, 0x00, 0x04, 0x00, 0x00, 0x00, 0x01, 0x00, 0x00, 0x00,
  0x80, 0xff, 0xff, 0xff, 0xff, 0xff, 0xff, 0xff, 0x00, 0x00, 0x00, 0x00,
  0x01, 0x00, 0x00, 0x00, 0x00, 0x00, 0x80, 0x3b, 0x0d, 0x00, 0x00, 0x00,
  0x49, 0x64, 0x65, 0x6e, 0x74, 0x69, 0x74, 0x79, 0x5f, 0x69, 0x6e, 0x74,
  0x38, 0x00, 0x00, 0x00, 0x02, 0x00, 0x00, 0x00, 0x01, 0x00, 0x00, 0x00,
  0x02, 0x00, 0x00, 0x00, 0x04, 0x00, 0x00, 0x00, 0x4c, 0x00, 0x00, 0x00,
  0x30, 0x00, 0x00, 0x00, 0x1c, 0x00, 0x00, 0x00, 0x04, 0x00, 0x00, 0x00,
  0xe6, 0xff, 0xff, 0xff, 0x00, 0x00, 0x00, 0x06, 0x02, 0x00, 0x00, 0x00,
  0x00, 0x00, 0x06, 0x00, 0x06, 0x00, 0x05, 0x00, 0x06, 0x00, 0x00, 0x00,
  0x00, 0x72, 0x0a, 0x00, 0x0e, 0x00, 0x07, 0x00, 0x00, 0x00, 0x08, 0x00,
  0x0a, 0x00, 0x00, 0x00, 0x00, 0x00, 0x00, 0x19, 0x02, 0x00, 0x00, 0x00,
  0x00, 0x00, 0x0a, 0x00, 0x0c, 0x00, 0x07, 0x00, 0x00, 0x00, 0x08, 0x00,
  0x0a, 0x00, 0x00, 0x00, 0x00, 0x00, 0x00, 0x09, 0x04, 0x00, 0x00, 0x00

};