/* Copyright 2019 The TensorFlow Authors. All Rights Reserved.

Licensed under the Apache License, Version 2.0 (the "License");
you may not use this file except in compliance with the License.
You may obtain a copy of the License at

    http://www.apache.org/licenses/LICENSE-2.0

Unless required by applicable law or agreed to in writing, software
distributed under the License is distributed on an "AS IS" BASIS,
WITHOUT WARRANTIES OR CONDITIONS OF ANY KIND, either express or implied.
See the License for the specific language governing permissions and
limitations under the License.
==============================================================================*/

// Automatically created from a TensorFlow Lite flatbuffer using the command:
// xxd -i magic_wand_model.tflite > magic_wand_model_data.cc
// See the README for a full description of the creation process.

#include "magic_wand_model_data.h"

// We need to keep the data array aligned on some architectures.
#ifdef __has_attribute
#define HAVE_ATTRIBUTE(x) __has_attribute(x)
#else
#define HAVE_ATTRIBUTE(x) 0
#endif
#if HAVE_ATTRIBUTE(aligned) || (defined(__GNUC__) && !defined(__clang__))
#define DATA_ALIGN_ATTRIBUTE __attribute__((aligned(4)))
#else
#define DATA_ALIGN_ATTRIBUTE
#endif

const unsigned char g_magic_wand_model_data[] DATA_ALIGN_ATTRIBUTE = {
    0x1c, 0x00, 0x00, 0x00, 0x54, 0x46, 0x4c, 0x33, 0x00, 0x00, 0x12, 0x00,
    0x1c, 0x00, 0x04, 0x00, 0x08, 0x00, 0x0c, 0x00, 0x10, 0x00, 0x14, 0x00,
    0x00, 0x00, 0x18, 0x00, 0x12, 0x00, 0x00, 0x00, 0x03, 0x00, 0x00, 0x00,
    0x24, 0x4c, 0x00, 0x00, 0x10, 0x00, 0x00, 0x00, 0x1c, 0x00, 0x00, 0x00,
    0x2c, 0x00, 0x00, 0x00, 0x0c, 0x00, 0x00, 0x00, 0x01, 0x00, 0x00, 0x00,
    0x14, 0x01, 0x00, 0x00, 0x01, 0x00, 0x00, 0x00, 0xdc, 0x00, 0x00, 0x00,
    0x0f, 0x00, 0x00, 0x00, 0x54, 0x4f, 0x43, 0x4f, 0x20, 0x43, 0x6f, 0x6e,
    0x76, 0x65, 0x72, 0x74, 0x65, 0x64, 0x2e, 0x00, 0x12, 0x00, 0x00, 0x00,
    0xb0, 0x00, 0x00, 0x00, 0xa4, 0x00, 0x00, 0x00, 0x98, 0x00, 0x00, 0x00,
    0x8c, 0x00, 0x00, 0x00, 0x80, 0x00, 0x00, 0x00, 0x74, 0x00, 0x00, 0x00,
    0x68, 0x00, 0x00, 0x00, 0x60, 0x00, 0x00, 0x00, 0x58, 0x00, 0x00, 0x00,
    0x50, 0x00, 0x00, 0x00, 0x48, 0x00, 0x00, 0x00, 0x40, 0x00, 0x00, 0x00,
    0x38, 0x00, 0x00, 0x00, 0x2c, 0x00, 0x00, 0x00, 0x20, 0x00, 0x00, 0x00,
    0x18, 0x00, 0x00, 0x00, 0x10, 0x00, 0x00, 0x00, 0x04, 0x00, 0x00, 0x00,
    0x6e, 0xb6, 0xff, 0xff, 0x68, 0x00, 0x00, 0x00, 0x30, 0xb6, 0xff, 0xff,
    0x34, 0xb6, 0xff, 0xff, 0x7e, 0xb6, 0xff, 0xff, 0xf0, 0x01, 0x00, 0x00,
    0x86, 0xb6, 0xff, 0xff, 0xc8, 0x03, 0x00, 0x00, 0x48, 0xb6, 0xff, 0xff,
    0x4c, 0xb6, 0xff, 0xff, 0x50, 0xb6, 0xff, 0xff, 0x54, 0xb6, 0xff, 0xff,
    0x58, 0xb6, 0xff, 0xff, 0x5c, 0xb6, 0xff, 0xff, 0xa6, 0xb6, 0xff, 0xff,
    0xc0, 0x0d, 0x00, 0x00, 0xae, 0xb6, 0xff, 0xff, 0x00, 0x46, 0x00, 0x00,
    0xb6, 0xb6, 0xff, 0xff, 0x60, 0x46, 0x00, 0x00, 0xbe, 0xb6, 0xff, 0xff,
    0xe0, 0x46, 0x00, 0x00, 0xc6, 0xb6, 0xff, 0xff, 0x48, 0x47, 0x00, 0x00,
    0xce, 0xb6, 0xff, 0xff, 0x98, 0x48, 0x00, 0x00, 0x90, 0xb6, 0xff, 0xff,
    0x05, 0x00, 0x00, 0x00, 0x31, 0x2e, 0x35, 0x2e, 0x30, 0x00, 0x00, 0x00,
    0x54, 0xf4, 0xff, 0xff, 0x08, 0x00, 0x00, 0x00, 0x11, 0x00, 0x00, 0x00,
    0x13, 0x00, 0x00, 0x00, 0x6d, 0x69, 0x6e, 0x5f, 0x72, 0x75, 0x6e, 0x74,
    0x69, 0x6d, 0x65, 0x5f, 0x76, 0x65, 0x72, 0x73, 0x69, 0x6f, 0x6e, 0x00,
    0x0c, 0x00, 0x14, 0x00, 0x04, 0x00, 0x08, 0x00, 0x0c, 0x00, 0x10, 0x00,
    0x0c, 0x00, 0x00, 0x00, 0x20, 0x00, 0x00, 0x00, 0x14, 0x00, 0x00, 0x00,
    0x08, 0x00, 0x00, 0x00, 0x88, 0x48, 0x00, 0x00, 0x01, 0x00, 0x00, 0x00,
    0x00, 0x00, 0x00, 0x00, 0x01, 0x00, 0x00, 0x00, 0x01, 0x00, 0x00, 0x00,
    0x10, 0x00, 0x00, 0x00, 0x9c, 0x0c, 0x00, 0x00, 0x14, 0x0b, 0x00, 0x00,
    0xd4, 0x00, 0x00, 0x00, 0x24, 0x45, 0x00, 0x00, 0x84, 0x00, 0x00, 0x00,
    0xa4, 0x02, 0x00, 0x00, 0x80, 0x45, 0x00, 0x00, 0x5c, 0x0b, 0x00, 0x00,
    0xb0, 0x0c, 0x00, 0x00, 0xc4, 0x47, 0x00, 0x00, 0xf0, 0x0b, 0x00, 0x00,
    0x2c, 0x0c, 0x00, 0x00, 0x48, 0x46, 0x00, 0x00, 0xec, 0x45, 0x00, 0x00,
    0x08, 0x00, 0x00, 0x00, 0x88, 0x0b, 0x00, 0x00, 0x66, 0xb8, 0xff, 0xff,
    0x10, 0x00, 0x00, 0x00, 0x10, 0x00, 0x00, 0x00, 0x1c, 0x00, 0x00, 0x00,
    0x40, 0x00, 0x00, 0x00, 0x04, 0x00, 0x00, 0x00, 0x01, 0x00, 0x00, 0x00,
    0x2a, 0x00, 0x00, 0x00, 0x01, 0x00, 0x00, 0x00, 0x08, 0x00, 0x00, 0x00,
    0x20, 0x00, 0x00, 0x00, 0x73, 0x65, 0x71, 0x75, 0x65, 0x6e, 0x74, 0x69,
    0x61, 0x6c, 0x2f, 0x6d, 0x61, 0x78, 0x5f, 0x70, 0x6f, 0x6f, 0x6c, 0x69,
    0x6e, 0x67, 0x32, 0x64, 0x2f, 0x4d, 0x61, 0x78, 0x50, 0x6f, 0x6f, 0x6c,
    0x00, 0x00, 0x00, 0x00, 0x88, 0xb7, 0xff, 0xff, 0xba, 0xb8, 0xff, 0xff,
    0x10, 0x00, 0x00, 0x00, 0x0f, 0x00, 0x00, 0x00, 0x1c, 0x00, 0x00, 0x00,
    0x34, 0x00, 0x00, 0x00, 0x04, 0x00, 0x00, 0x00, 0x01, 0x00, 0x00, 0x00,
    0x80, 0x00, 0x00, 0x00, 0x03, 0x00, 0x00, 0x00, 0x08, 0x00, 0x00, 0x00,
    0x16, 0x00, 0x00, 0x00, 0x73, 0x65, 0x71, 0x75, 0x65, 0x6e, 0x74, 0x69,
    0x61, 0x6c, 0x2f, 0x63, 0x6f, 0x6e, 0x76, 0x32, 0x64, 0x2f, 0x52, 0x65,
    0x6c, 0x75, 0x00, 0x00, 0xd0, 0xb7, 0xff, 0xff, 0x02, 0xb9, 0xff, 0xff,
    0x10, 0x00, 0x00, 0x00, 0x0e, 0x00, 0x00, 0x00, 0x1c, 0x00, 0x00, 0x00,
    0x44, 0x00, 0x00, 0x00, 0x04, 0x00, 0x00, 0x00, 0x01, 0x00, 0x00, 0x00,
    0x04, 0x00, 0x00, 0x00, 0x03, 0x00, 0x00, 0x00, 0x08, 0x00, 0x00, 0x00,
    0x27, 0x00, 0x00, 0x00, 0x73, 0x65, 0x71, 0x75, 0x65, 0x6e, 0x74, 0x69,
    0x61, 0x6c, 0x2f, 0x63, 0x6f, 0x6e, 0x76, 0x32, 0x64, 0x2f, 0x43, 0x6f,
    0x6e, 0x76, 0x32, 0x44, 0x2f, 0x52, 0x65, 0x61, 0x64, 0x56, 0x61, 0x72,
    0x69, 0x61, 0x62, 0x6c, 0x65, 0x4f, 0x70, 0x00, 0x28, 0xb8, 0xff, 0xff,
    0x80, 0x01, 0x00, 0x00, 0xbe, 0x04, 0xc7, 0x3d, 0x6f, 0x89, 0x9c, 0x3e,
    0x58, 0x5d, 0x8a, 0x3d, 0x4e, 0x3d, 0x43, 0xbc, 0xa1, 0x8e, 0x94, 0x3c,
    0x6f, 0xa1, 0x78, 0x3e, 0x5d, 0x4d, 0x7e, 0xbd, 0x42, 0x41, 0x16, 0x3d,
    0xa1, 0x67, 0x9d, 0xbe, 0xa1, 0x28, 0x42, 0x3d, 0x65, 0x50, 0x11, 0xbe,
    0xfb, 0x58, 0x37, 0x3d, 0xcd, 0xd1, 0x83, 0xbd, 0xcf, 0x86, 0x9e, 0x3d,
    0xeb, 0xe2, 0x04, 0x3e, 0xc4, 0x0d, 0x59, 0x3c, 0x83, 0x14, 0x4a, 0x3d,
    0x00, 0x9c, 0x5c, 0x3d, 0x65, 0xa7, 0x15, 0xbe, 0xd8, 0x0b, 0x92, 0xbe,
    0x16, 0x2e, 0x15, 0x3e, 0x03, 0x33, 0x21, 0x3e, 0xea, 0x68, 0x95, 0xbe,
    0xb3, 0xe2, 0x62, 0x3d, 0x70, 0x6f, 0x18, 0x3e, 0x8b, 0x84, 0x32, 0x3e,
    0x3a, 0xbd, 0x1d, 0x3e, 0x93, 0x46, 0x01, 0x3e, 0xe0, 0xa6, 0x89, 0xbd,
    0x18, 0x39, 0x41, 0x3c, 0xab, 0xba, 0xc5, 0xbc, 0x10, 0xed, 0xcb, 0xbc,
    0xe0, 0x41, 0x0f, 0x3d, 0xf9, 0x19, 0x96, 0xbd, 0x96, 0x68, 0x8f, 0x3e,
    0x46, 0xd3, 0x39, 0xbc, 0xca, 0x24, 0x92, 0x3c, 0xbf, 0xbf, 0x05, 0x3d,
    0xdb, 0x5d, 0xec, 0x3c, 0xd0, 0xa9, 0x1d, 0x3d, 0x3a, 0xb9, 0xf4, 0x3d,
    0x19, 0x1c, 0x25, 0x3e, 0x38, 0xdd, 0xbc, 0x3c, 0xb8, 0x15, 0x90, 0xbe,
    0x4e, 0x0a, 0x9b, 0x3e, 0x0c, 0xe2, 0x83, 0x3d, 0x4c, 0xfd, 0x86, 0xbd,
    0x86, 0x20, 0x9d, 0x3e, 0x64, 0x1b, 0x84, 0x3e, 0xfd, 0x5d, 0x89, 0x3d,
    0x40, 0x11, 0x71, 0x3d, 0x61, 0x13, 0x15, 0x3d, 0xa2, 0x2a, 0x4f, 0x3c,
    0xaa, 0xd4, 0x35, 0x3d, 0x07, 0x2d, 0x83, 0xbd, 0x5d, 0x8a, 0xf5, 0xba,
    0x53, 0xa6, 0x7d, 0x3d, 0x08, 0xb8, 0x76, 0x3d, 0x07, 0xfc, 0x2e, 0x3e,
    0xb8, 0xcb, 0x53, 0xbd, 0x3b, 0xb8, 0x26, 0xbd, 0x72, 0x0d, 0x11, 0xbd,
    0xc9, 0x3d, 0xbd, 0x3d, 0x9f, 0xd5, 0x8f, 0x3d, 0x69, 0xe6, 0x63, 0xbd,
    0x52, 0x34, 0x34, 0x3d, 0xcc, 0xa5, 0x85, 0x3d, 0xc3, 0x62, 0x2a, 0x3e,
    0x70, 0xff, 0x0e, 0xbf, 0x09, 0x36, 0x04, 0x3e, 0x32, 0x84, 0x57, 0xbe,
    0xbc, 0x4f, 0x4a, 0x3e, 0xfc, 0x12, 0x2c, 0x3d, 0x01, 0x2b, 0x80, 0x3e,
    0x23, 0x2f, 0x70, 0x3c, 0x3e, 0x9d, 0x25, 0xbd, 0x1c, 0xd0, 0xf4, 0x3d,
    0xab, 0x92, 0x95, 0x3d, 0x4a, 0x02, 0xba, 0x3d, 0x93, 0xcf, 0x18, 0x3e,
    0x11, 0x88, 0xd2, 0x3e, 0x04, 0xc7, 0x89, 0xbd, 0x8e, 0x32, 0x7c, 0x3d,
    0x75, 0x7c, 0x87, 0x3d, 0xad, 0x13, 0xe0, 0xbc, 0xc8, 0xfa, 0xc1, 0xbc,
    0x03, 0x63, 0x5e, 0xbe, 0xd5, 0x03, 0xc8, 0x3d, 0x16, 0x78, 0xc0, 0xbd,
    0x26, 0x04, 0x20, 0xbe, 0xdf, 0xa4, 0x56, 0x3e, 0xbd, 0x56, 0xfa, 0x3e,
    0xd0, 0x12, 0x2d, 0xbe, 0x7d, 0x4e, 0x9f, 0x3e, 0xaf, 0x43, 0xa2, 0xbd,
    0xa2, 0x99, 0x81, 0x3c, 0xde, 0xba, 0xff, 0xff, 0x10, 0x00, 0x00, 0x00,
    0x0d, 0x00, 0x00, 0x00, 0x1c, 0x00, 0x00, 0x00, 0x48, 0x00, 0x00, 0x00,
    0x04, 0x00, 0x00, 0x00, 0x10, 0x00, 0x00, 0x00, 0x04, 0x00, 0x00, 0x00,
    0x01, 0x00, 0x00, 0x00, 0x08, 0x00, 0x00, 0x00, 0x29, 0x00, 0x00, 0x00,
    0x73, 0x65, 0x71, 0x75, 0x65, 0x6e, 0x74, 0x69, 0x61, 0x6c, 0x2f, 0x63,
    0x6f, 0x6e, 0x76, 0x32, 0x64, 0x5f, 0x31, 0x2f, 0x43, 0x6f, 0x6e, 0x76,
    0x32, 0x44, 0x2f, 0x52, 0x65, 0x61, 0x64, 0x56, 0x61, 0x72, 0x69, 0x61,
    0x62, 0x6c, 0x65, 0x4f, 0x70, 0x00, 0x00, 0x00, 0x08, 0xba, 0xff, 0xff,
    0x00, 0x08, 0x00, 0x00, 0x65, 0x52, 0xcb, 0xbd, 0xfc, 0xd8, 0x2e, 0x3e,
    0x25, 0xae, 0xa4, 0xbe, 0x85, 0x70, 0x9b, 0xbd, 0x41, 0x57, 0x16, 0xbb,
    0xec, 0xc8, 0x0a, 0x3e, 0x2c, 0xb8, 0x5f, 0x3e, 0x60, 0xb1, 0xfc, 0xbd,
    0x1a, 0x9a, 0x2f, 0xbe, 0x9b, 0xb5, 0xe6, 0x3d, 0xa5, 0x45, 0xb8, 0xbe,
    0x98, 0x71, 0x7d, 0x3e, 0x88, 0x38, 0xb2, 0x3e, 0xb6, 0xa8, 0x41, 0xbe,
    0xe3, 0xa5, 0x0e, 0x3e, 0x8f, 0x88, 0x23, 0x3e, 0x64, 0x19, 0x91, 0xbe,
    0x7c, 0xe6, 0xac, 0xbe, 0x0f, 0xc7, 0x9a, 0xbe, 0x66, 0xc5, 0x8d, 0x3e,
    0x8b, 0x21, 0xe3, 0xbe, 0xbf, 0x3c, 0x13, 0xbf, 0x01, 0xf6, 0x47, 0xbe,
    0x98, 0x94, 0x45, 0xbc, 0x2c, 0x1a, 0x16, 0xbe, 0x48, 0x41, 0x8a, 0xbe,
    0xeb, 0xe3, 0x6b, 0xbd, 0x07, 0x33, 0x06, 0xbf, 0xe0, 0xc4, 0xaa, 0xbe,
    0xea, 0xe4, 0xb5, 0xbe, 0x3d, 0x55, 0xbd, 0xbe, 0xe8, 0xe3, 0x92, 0xbe,
    0xef, 0x38, 0xda, 0xbd, 0x1e, 0xf6, 0x94, 0x3c, 0x20, 0xc4, 0xce, 0xbd,
    0x81, 0xb1, 0x06, 0x3e, 0xc1, 0xe2, 0x8d, 0xbc, 0xa1, 0x16, 0xe5, 0x3c,
    0xee, 0x05, 0xdf, 0x3e, 0x00, 0x79, 0xfd, 0x3b, 0x7e, 0x04, 0xdf, 0xbd,
    0x9d, 0x50, 0x36, 0x3e, 0xe6, 0xc8, 0xf9, 0xbc, 0xe1, 0x75, 0xb5, 0x3d,
    0x56, 0xe9, 0xb0, 0x3e, 0x95, 0x43, 0x1a, 0xbd, 0x68, 0x3c, 0xc3, 0x3b,
    0x6b, 0x14, 0x17, 0xbd, 0x5e, 0x61, 0x41, 0xbe, 0x99, 0x25, 0x90, 0xbe,
    0xce, 0xcd, 0x65, 0xbe, 0x7b, 0x05, 0xa4, 0xbe, 0x45, 0xe7, 0x5a, 0xbd,
    0x0c, 0x10, 0xee, 0xbe, 0x0e, 0xb6, 0x29, 0xbe, 0x53, 0x73, 0xb3, 0xbd,
    0xd5, 0xe2, 0x9d, 0xbe, 0x58, 0xfe, 0x05, 0xbe, 0xde, 0xde, 0x9b, 0xbd,
    0x5f, 0x09, 0xc2, 0xbe, 0xb5, 0xc0, 0x97, 0xbd, 0xf4, 0x50, 0x1b, 0xbf,
    0x44, 0x40, 0x6c, 0xbe, 0x9f, 0x6f, 0x99, 0xbe, 0x41, 0x78, 0xa0, 0xbd,
    0x54, 0x75, 0x42, 0x3d, 0xe1, 0x6f, 0x10, 0x3e, 0x44, 0xd9, 0x3e, 0xbe,
    0x8e, 0xeb, 0x14, 0x3f, 0xb7, 0xca, 0xd3, 0x3d, 0xd7, 0x3d, 0x35, 0xbe,
    0x73, 0xfb, 0x85, 0xbd, 0xcf, 0xed, 0xe5, 0x3d, 0x96, 0x29, 0x9e, 0x3d,
    0x2e, 0x6a, 0xda, 0xbc, 0x7a, 0xe8, 0x8e, 0xbd, 0xe7, 0x8a, 0x1d, 0x3d,
    0xde, 0x3a, 0xaa, 0xbd, 0x25, 0x6f, 0x01, 0xbe, 0x82, 0xac, 0x91, 0xbd,
    0x5f, 0x9a, 0xc5, 0x3d, 0x0a, 0xc6, 0x90, 0x3d, 0x63, 0x01, 0xd4, 0x3d,
    0xa7, 0xcf, 0x1a, 0xbe, 0xd9, 0x5c, 0x58, 0xbd, 0x9d, 0x0c, 0xe4, 0xbd,
    0xd7, 0x77, 0x82, 0xbe, 0xe1, 0xef, 0xb2, 0xbd, 0xfa, 0xd5, 0x27, 0xbe,
    0x4b, 0x41, 0xed, 0xbd, 0x81, 0xfc, 0x64, 0x3d, 0xd3, 0xff, 0x69, 0xbe,
    0xb3, 0xe6, 0xea, 0xbd, 0x26, 0x56, 0x5a, 0xbe, 0x96, 0x73, 0xf8, 0xbe,
    0xc0, 0x04, 0xd0, 0xbd, 0x0c, 0xa4, 0x6b, 0xbc, 0x17, 0x10, 0x66, 0x3e,
    0x2f, 0x03, 0xfd, 0x3d, 0x8b, 0xe2, 0x95, 0xbe, 0xf8, 0x9f, 0x7a, 0xbe,
    0x03, 0x33, 0xef, 0xbc, 0x35, 0xeb, 0x9a, 0x3d, 0xf9, 0x0b, 0x31, 0xbe,
    0x30, 0xc3, 0x4e, 0x3e, 0x55, 0xd9, 0x9e, 0x3e, 0xe3, 0x0b, 0x8d, 0xbd,
    0xde, 0xae, 0xc0, 0xbd, 0x3a, 0xf4, 0x39, 0xbe, 0x26, 0xec, 0xe6, 0xbb,
    0x9a, 0x77, 0xca, 0xbd, 0xd1, 0x50, 0x0d, 0xbe, 0x13, 0x78, 0x3c, 0xbe,
    0xda, 0xe7, 0x26, 0xbe, 0x22, 0x3b, 0x03, 0x3e, 0xa3, 0xe4, 0x4f, 0xbe,
    0x81, 0x6f, 0x5a, 0xbe, 0x35, 0x9a, 0x30, 0xbe, 0x2d, 0x80, 0x81, 0xbe,
    0x06, 0xa0, 0xec, 0x3c, 0xc3, 0xe8, 0xaa, 0xbe, 0x34, 0x20, 0x1d, 0xbe,
    0xf2, 0x71, 0x20, 0x3e, 0x88, 0x3a, 0x67, 0xbe, 0x19, 0xd7, 0x8b, 0xbe,
    0x06, 0xe1, 0x1a, 0xbe, 0xc9, 0xb2, 0x95, 0xbe, 0xb7, 0x5b, 0x7c, 0xbd,
    0xb5, 0xb5, 0x91, 0xbe, 0x97, 0x4f, 0x0e, 0x3e, 0x48, 0xf0, 0x85, 0x3e,
    0x24, 0x5a, 0x27, 0xbe, 0x7e, 0x60, 0x05, 0x3d, 0x94, 0x07, 0xc8, 0x3e,
    0x88, 0x7f, 0xb1, 0x3c, 0x72, 0x2e, 0xcf, 0x3d, 0xe2, 0x40, 0x58, 0xbf,
    0xb1, 0x14, 0x22, 0xbe, 0xdc, 0xca, 0x82, 0xbe, 0x24, 0xaf, 0x66, 0xbe,
    0xbd, 0xc1, 0x35, 0x3c, 0x98, 0x0b, 0x96, 0x3d, 0x2a, 0x3f, 0xc5, 0x3d,
    0x93, 0x7b, 0xe2, 0xbd, 0x58, 0xde, 0x31, 0xbf, 0x42, 0x7a, 0xda, 0xbd,
    0xb5, 0xac, 0x99, 0xbd, 0xb8, 0x8d, 0x7e, 0xbe, 0x9b, 0x49, 0xbc, 0x3d,
    0x0a, 0xee, 0xfb, 0xbd, 0xbb, 0xd3, 0xe3, 0x3c, 0x27, 0x5a, 0xae, 0x3c,
    0xdb, 0xde, 0x97, 0xbe, 0x3b, 0xa0, 0xc6, 0xbd, 0x8a, 0x27, 0x40, 0x3d,
    0xa0, 0xae, 0x3f, 0x3d, 0xc1, 0xb7, 0x9f, 0x3c, 0x50, 0xb2, 0x1b, 0xbe,
    0x33, 0x35, 0xb3, 0x3e, 0x57, 0x65, 0x16, 0x3c, 0x83, 0xd0, 0x95, 0x3e,
    0x5a, 0x6b, 0x4e, 0xbd, 0x92, 0x6b, 0x30, 0xbe, 0x27, 0xf8, 0x1c, 0xbd,
    0x27, 0x20, 0xac, 0x3c, 0x5e, 0xa0, 0xb1, 0xbd, 0x3d, 0xe7, 0x79, 0xbc,
    0xeb, 0x17, 0x6e, 0xbe, 0x19, 0x2f, 0x16, 0x3f, 0xe8, 0x01, 0xc9, 0xbd,
    0x45, 0x9f, 0xa3, 0xbd, 0x43, 0x8f, 0x14, 0xbe, 0x89, 0xa1, 0xe8, 0xbc,
    0x00, 0xc3, 0x82, 0xbe, 0x62, 0x36, 0xd1, 0xbd, 0xeb, 0xed, 0xa1, 0xbe,
    0xec, 0x84, 0x14, 0xbe, 0xa8, 0x49, 0x20, 0x3d, 0xfd, 0x2c, 0x81, 0x3e,
    0x08, 0x59, 0xc1, 0x3d, 0x14, 0x84, 0xb7, 0xbd, 0x9c, 0x5a, 0x7d, 0xbd,
    0xea, 0x0d, 0xca, 0x3d, 0x90, 0xe7, 0xa1, 0xbe, 0x6b, 0xa6, 0x30, 0x3e,
    0x09, 0xd9, 0x82, 0xbd, 0xcb, 0xf8, 0x1e, 0xbd, 0xd6, 0x09, 0xeb, 0xbc,
    0x1f, 0x45, 0xf3, 0xbc, 0x87, 0x2a, 0xaf, 0x3d, 0x77, 0x77, 0x42, 0x3c,
    0x69, 0x8e, 0x55, 0xbe, 0xc2, 0x0c, 0x40, 0xbc, 0x53, 0xaf, 0x9d, 0xbe,
    0xe3, 0x9e, 0x3d, 0xbd, 0xe4, 0x72, 0xfe, 0x3e, 0x38, 0x24, 0x7f, 0xbe,
    0x37, 0x29, 0x79, 0xbe, 0x8e, 0xe3, 0xc7, 0xbd, 0xb5, 0x4b, 0xa4, 0xbd,
    0x4f, 0xad, 0x23, 0xbd, 0x38, 0xc3, 0x99, 0x3d, 0xb0, 0x85, 0xee, 0x3d,
    0x04, 0xe0, 0x9a, 0x3e, 0xd8, 0x63, 0xd1, 0x3d, 0x51, 0xb1, 0x8c, 0xbd,
    0x80, 0x0b, 0xba, 0xbe, 0x2c, 0xe4, 0xac, 0xbd, 0xe1, 0x9d, 0x86, 0xbd,
    0x82, 0x0c, 0xdc, 0xbd, 0x53, 0xbf, 0x4f, 0x3c, 0xb7, 0xe9, 0x46, 0x3e,
    0xeb, 0x79, 0x09, 0x3e, 0xcc, 0xba, 0xb3, 0xbd, 0xc4, 0x1c, 0x7d, 0xbe,
    0x01, 0x3d, 0xef, 0xbd, 0x0c, 0xa7, 0x61, 0xbd, 0x3b, 0x0a, 0x12, 0xbe,
    0x8b, 0x9e, 0x94, 0x3e, 0x50, 0x75, 0x56, 0x3d, 0xc5, 0xfc, 0x8a, 0x3d,
    0x49, 0x45, 0x15, 0xbe, 0x37, 0x28, 0x6d, 0xbe, 0xd1, 0x2e, 0x9b, 0x3c,
    0xe4, 0xd5, 0x86, 0xbd, 0xa3, 0x32, 0x8c, 0x3d, 0xbd, 0x25, 0xc7, 0xbd,
    0xf1, 0x09, 0xad, 0x3d, 0xc8, 0xa3, 0x3d, 0xbf, 0x8e, 0xc3, 0x22, 0xbd,
    0x25, 0xbf, 0x1e, 0x3e, 0x02, 0x28, 0x8c, 0xbd, 0x73, 0xbd, 0x95, 0xbd,
    0xa8, 0x4f, 0x88, 0xbd, 0x81, 0x36, 0xe9, 0x3d, 0x4f, 0x76, 0x53, 0x3d,
    0x44, 0x10, 0x47, 0xbf, 0xdb, 0x79, 0x6f, 0x3e, 0x30, 0xa9, 0xae, 0xbe,
    0xe6, 0x24, 0xf0, 0x3d, 0x15, 0xb2, 0xda, 0xbd, 0x51, 0x03, 0xf4, 0xbd,
    0x3d, 0x92, 0xfc, 0xbd, 0x9a, 0xae, 0x19, 0xbd, 0x83, 0xdf, 0x43, 0xbf,
    0xd9, 0xab, 0x8a, 0x3e, 0x1b, 0x21, 0xe7, 0xbe, 0xe9, 0x04, 0x34, 0x3d,
    0xf9, 0x7e, 0x3d, 0xbe, 0xb3, 0x30, 0xd6, 0xbc, 0x54, 0xd2, 0xbd, 0xbd,
    0x1a, 0x38, 0x2a, 0x3e, 0x85, 0xd2, 0x2a, 0xbf, 0x33, 0x9c, 0x30, 0xbd,
    0x4e, 0xe1, 0x40, 0xbe, 0xbc, 0x43, 0x63, 0xbd, 0x08, 0x11, 0x53, 0xbe,
    0x55, 0x37, 0xd8, 0xbd, 0x67, 0x7c, 0xce, 0xbe, 0xec, 0xec, 0x2e, 0xbe,
    0xd1, 0x85, 0x52, 0xbd, 0xfc, 0xdf, 0x91, 0xbe, 0x42, 0x4e, 0xc5, 0x3c,
    0xee, 0x50, 0x16, 0xbe, 0x4c, 0x53, 0xe0, 0xbd, 0xba, 0xea, 0x1b, 0xbf,
    0x19, 0x9f, 0x04, 0xbf, 0x33, 0xb0, 0x6c, 0xbe, 0x4b, 0x72, 0xce, 0xbc,
    0x17, 0x52, 0xb0, 0xbe, 0xc8, 0xa4, 0x21, 0x3e, 0xa6, 0x23, 0xe5, 0xbe,
    0x6c, 0x16, 0x9c, 0x3d, 0x3a, 0x24, 0x98, 0xbc, 0xba, 0xdb, 0x7b, 0x3e,
    0xc2, 0x21, 0xa8, 0x3d, 0x32, 0x05, 0x5f, 0xbe, 0xae, 0x36, 0x8a, 0x3d,
    0x14, 0x8f, 0xa0, 0x3d, 0x0f, 0x06, 0x5a, 0x3e, 0x50, 0xfd, 0x75, 0xb9,
    0x23, 0xee, 0x99, 0xbd, 0xf8, 0x9e, 0xc1, 0x3e, 0x67, 0xcd, 0x30, 0xbe,
    0xc1, 0xdd, 0xb6, 0x3d, 0xbd, 0x75, 0x04, 0xbe, 0x64, 0x35, 0xcb, 0xbe,
    0x4b, 0xcd, 0xcd, 0x3d, 0x50, 0xea, 0x7c, 0x3d, 0xd5, 0xe0, 0xa2, 0xbc,
    0x3e, 0xca, 0x09, 0xbe, 0x3b, 0x6a, 0x3b, 0x3d, 0xa3, 0x38, 0x0a, 0xbd,
    0x6f, 0x3e, 0x24, 0xbc, 0x5e, 0x99, 0xcf, 0xbd, 0x29, 0xa2, 0xfd, 0xbd,
    0xd4, 0xae, 0x1c, 0xbe, 0x29, 0xe7, 0xd0, 0xbc, 0x0c, 0xca, 0x8b, 0xbc,
    0xc6, 0x28, 0x36, 0xbd, 0x46, 0xf0, 0x83, 0xbd, 0x66, 0xbd, 0xaf, 0xbd,
    0x54, 0x09, 0x23, 0xbe, 0x7e, 0xca, 0x0e, 0xbe, 0x13, 0x08, 0x7c, 0x3e,
    0x85, 0xa4, 0x65, 0xbd, 0xd2, 0x39, 0x24, 0x3e, 0x93, 0x90, 0xa5, 0xbd,
    0x7b, 0x64, 0x33, 0x3d, 0x1e, 0x98, 0x5e, 0xbe, 0xe9, 0x71, 0xd7, 0xbd,
    0x0d, 0xf0, 0x46, 0xbe, 0xe4, 0x51, 0x8f, 0x3e, 0x23, 0x7e, 0xed, 0x3d,
    0xaf, 0xf5, 0x4a, 0x3e, 0x0a, 0x40, 0x82, 0x3c, 0x10, 0x6d, 0x87, 0xbc,
    0x0e, 0x57, 0xdb, 0xbd, 0x46, 0x2e, 0x59, 0x3e, 0xa2, 0x5b, 0x0a, 0xbe,
    0x0a, 0x45, 0x32, 0xbd, 0xcc, 0x33, 0x17, 0xbe, 0x75, 0x1f, 0x15, 0x3e,
    0x4a, 0xf1, 0x01, 0xbd, 0xb5, 0x04, 0x6c, 0x3e, 0x77, 0xe5, 0x3a, 0xbc,
    0xb0, 0xd8, 0xd3, 0xbd, 0x19, 0xee, 0x65, 0xbd, 0xf4, 0x92, 0xc4, 0xbb,
    0x6d, 0x8c, 0x67, 0xbe, 0x93, 0x6e, 0xbc, 0xbd, 0x13, 0x89, 0xd0, 0x3d,
    0xa1, 0x3e, 0x03, 0x3e, 0x85, 0xbb, 0xcc, 0xbc, 0xcd, 0xea, 0x83, 0x3d,
    0xcc, 0xcc, 0x26, 0xbc, 0x24, 0x57, 0xdd, 0x3d, 0xa0, 0x14, 0xd4, 0xbd,
    0x65, 0x58, 0xa6, 0x3d, 0x1b, 0x7a, 0x7f, 0x3e, 0xc6, 0x77, 0x7c, 0xbd,
    0x60, 0x59, 0x95, 0xbd, 0x28, 0xe3, 0xe6, 0xbd, 0x8e, 0xb5, 0x66, 0x3e,
    0x19, 0xff, 0x94, 0xbd, 0xfb, 0xa4, 0xd2, 0xbd, 0xf3, 0xba, 0x2b, 0x3e,
    0x76, 0xcc, 0x7d, 0xbe, 0x06, 0xd0, 0xec, 0x3d, 0x08, 0xd8, 0x05, 0xbe,
    0xe7, 0x09, 0x8c, 0xbe, 0xf1, 0x48, 0xa0, 0xbd, 0xa4, 0x83, 0xbe, 0x3c,
    0xba, 0xdb, 0x44, 0x3c, 0x13, 0xc9, 0x34, 0xbe, 0xe4, 0x78, 0xac, 0x3c,
    0x2f, 0xda, 0x18, 0x3e, 0x35, 0x05, 0x7d, 0x3d, 0xcb, 0xf4, 0xd8, 0xbc,
    0x40, 0x72, 0x96, 0x3b, 0x59, 0x91, 0x14, 0x3e, 0x55, 0x95, 0x10, 0xbd,
    0xd7, 0xf2, 0x23, 0xbe, 0x52, 0x53, 0xcf, 0x3d, 0x1c, 0xa5, 0x2a, 0x3e,
    0x4b, 0x40, 0x02, 0xbe, 0x93, 0xd1, 0xe1, 0x3d, 0x4f, 0x8e, 0x30, 0x3c,
    0x0e, 0x4e, 0xa8, 0xbe, 0x9b, 0x05, 0x33, 0xbe, 0xf2, 0x34, 0x3a, 0xbf,
    0x4b, 0x55, 0x5b, 0x3e, 0x49, 0x54, 0x12, 0xbe, 0x20, 0xbb, 0x44, 0xbf,
    0xdb, 0x51, 0x99, 0xbd, 0x0d, 0x68, 0x0c, 0xbf, 0x8b, 0x98, 0x02, 0xbe,
    0x02, 0x13, 0xe3, 0x3e, 0x8f, 0x65, 0x18, 0xbf, 0x7a, 0xe4, 0x0c, 0x3e,
    0xee, 0xf1, 0xb0, 0xbe, 0x41, 0x2f, 0x25, 0xbd, 0x6c, 0x2e, 0x29, 0xbe,
    0x37, 0x88, 0x11, 0xbf, 0x50, 0x8b, 0x5c, 0xbd, 0xe2, 0xa8, 0x95, 0x3e,
    0xdd, 0x9a, 0xa0, 0xbe, 0x4b, 0x4f, 0xac, 0x3e, 0x19, 0x83, 0x88, 0x3d,
    0x51, 0x45, 0x8e, 0xbd, 0xed, 0x1e, 0xf8, 0x3d, 0xb1, 0x5c, 0x07, 0x3e,
    0xb5, 0x43, 0x39, 0xbe, 0x9e, 0xd2, 0x48, 0xbf, 0xdc, 0xc3, 0xbd, 0xbe,
    0xf1, 0xe0, 0xa8, 0x3e, 0xc3, 0xbe, 0x0d, 0xbf, 0x77, 0x49, 0x2d, 0xbf,
    0x2a, 0x30, 0x5c, 0x3e, 0xb2, 0x80, 0xce, 0xbb, 0x6e, 0x21, 0x16, 0xbe,
    0x85, 0x2e, 0x98, 0xbd, 0xb2, 0x62, 0x82, 0x3d, 0x3d, 0x89, 0x50, 0xbc,
    0x9c, 0xae, 0x41, 0xbe, 0x76, 0xc1, 0x2a, 0xbf, 0x2b, 0x6c, 0xad, 0xbd,
    0x50, 0x88, 0xe8, 0xbd, 0x97, 0xd5, 0x3e, 0xbd, 0x1d, 0xbf, 0xe2, 0xbd,
    0x44, 0xe6, 0xa8, 0x3d, 0xdd, 0xeb, 0x34, 0xbf, 0x2c, 0xe9, 0x9b, 0xbd,
    0x89, 0xc9, 0x37, 0xbf, 0x35, 0xfd, 0xb4, 0xbe, 0xfb, 0x45, 0xb9, 0xbe,
    0x76, 0x15, 0xfc, 0xbd, 0x4f, 0x2a, 0x9e, 0xbe, 0x01, 0xe7, 0x26, 0xbd,
    0x4c, 0x2c, 0xd1, 0xbe, 0x0b, 0xcb, 0xdb, 0xbe, 0x14, 0x4a, 0x70, 0xbe,
    0x20, 0xf0, 0xb1, 0xbd, 0x9f, 0x11, 0x34, 0x3d, 0x91, 0x94, 0x73, 0x3d,
    0x99, 0x3a, 0xc9, 0xbd, 0x4b, 0xdb, 0x45, 0xbe, 0x9c, 0x14, 0x1a, 0x3d,
    0x82, 0x07, 0x0a, 0x3d, 0x24, 0x35, 0xce, 0xbc, 0x43, 0x93, 0x0c, 0xbe,
    0xee, 0xef, 0x0b, 0xbe, 0x21, 0x0a, 0x24, 0xbc, 0x4f, 0xa1, 0x3b, 0xbe,
    0x0b, 0xe3, 0x53, 0xbc, 0x14, 0x6a, 0xd6, 0x3e, 0xbb, 0x04, 0xe2, 0xbd,
    0x26, 0x39, 0x51, 0xbe, 0xf5, 0x56, 0x65, 0x3e, 0x5e, 0x5b, 0x93, 0xbe,
    0xf1, 0x01, 0x19, 0xbd, 0xf9, 0x92, 0x9a, 0xbd, 0x1a, 0xac, 0xf8, 0x3d,
    0x87, 0x37, 0xd8, 0x3d, 0x1a, 0x7b, 0x21, 0xbe, 0x74, 0x60, 0x2a, 0x3d,
    0x20, 0xe6, 0xa7, 0xbd, 0xf0, 0x92, 0x96, 0x3d, 0xc1, 0x44, 0x90, 0xbc,
    0xcf, 0xfc, 0x0e, 0xbe, 0xb8, 0x38, 0x0b, 0x3e, 0x59, 0x71, 0x9b, 0xbb,
    0xb6, 0xfc, 0xe7, 0xbc, 0x24, 0xe2, 0x91, 0x3e, 0xac, 0xe6, 0x9c, 0x3c,
    0xc7, 0x26, 0x95, 0xbd, 0x34, 0xd6, 0xf1, 0xbd, 0xd0, 0xc5, 0x49, 0xbe,
    0xfa, 0x6b, 0x9f, 0xbd, 0xaa, 0xe5, 0x25, 0xbe, 0xa3, 0xc1, 0xab, 0xbd,
    0x02, 0xf0, 0xd5, 0x3c, 0xd7, 0xad, 0xa5, 0x3d, 0x3b, 0xf4, 0xa7, 0x3d,
    0xa7, 0xc0, 0x27, 0xbe, 0x11, 0x76, 0x66, 0xbe, 0x84, 0xe1, 0x2f, 0x3e,
    0xff, 0x6d, 0x55, 0xbe, 0x94, 0x10, 0xac, 0xbd, 0x3a, 0x1f, 0x7c, 0x3d,
    0x75, 0xd7, 0x81, 0xbc, 0x31, 0xb0, 0x9a, 0x3e, 0x0d, 0x60, 0x95, 0xbc,
    0xf4, 0xc1, 0x7f, 0xbe, 0x5c, 0xf8, 0xbd, 0xbc, 0x16, 0x7d, 0x43, 0xbe,
    0x05, 0xd8, 0x04, 0xbe, 0x82, 0x22, 0xee, 0x3c, 0xe7, 0x4e, 0x84, 0x3b,
    0xff, 0x99, 0x23, 0x3d, 0x11, 0x38, 0xd7, 0xbd, 0xb4, 0xe4, 0x4a, 0xbc,
    0xd6, 0x4d, 0xa3, 0xbe, 0x01, 0x59, 0x27, 0x3e, 0x5a, 0xeb, 0xa3, 0xbd,
    0x7d, 0xde, 0xd4, 0x3d, 0xd7, 0x58, 0x0c, 0xbe, 0xdf, 0x59, 0xf0, 0xbc,
    0xee, 0xa6, 0x34, 0xbe, 0x6e, 0x50, 0x88, 0x3e, 0x9a, 0xe4, 0x9b, 0xbe,
    0x52, 0x5b, 0x28, 0x3e, 0x03, 0x6c, 0xc2, 0xbc, 0x27, 0x8c, 0x2d, 0x3e,
    0x32, 0x8a, 0xe2, 0x3e, 0x26, 0x34, 0x33, 0x3e, 0xfa, 0xb5, 0x54, 0xbe,
    0x23, 0x47, 0x8a, 0x3e, 0xb3, 0x80, 0xc2, 0xbe, 0xf5, 0xe4, 0x73, 0xbd,
    0x00, 0xd3, 0x08, 0xbe, 0x9d, 0xc1, 0x60, 0xbd, 0x68, 0xf8, 0x19, 0x3c,
    0x5e, 0xee, 0x07, 0x3e, 0xfe, 0x4a, 0x05, 0xbe, 0x80, 0x14, 0xff, 0x39,
    0xc8, 0x0e, 0xa8, 0xbe, 0xb9, 0xba, 0x02, 0x3e, 0x45, 0x42, 0x15, 0xbe,
    0x92, 0x3b, 0x5b, 0xbd, 0x0b, 0x84, 0x2d, 0xbe, 0x19, 0x80, 0x06, 0x3c,
    0x3e, 0xc3, 0xff, 0xff, 0x10, 0x00, 0x00, 0x00, 0x0c, 0x00, 0x00, 0x00,
    0x1c, 0x00, 0x00, 0x00, 0x34, 0x00, 0x00, 0x00, 0x04, 0x00, 0x00, 0x00,
    0x01, 0x00, 0x00, 0x00, 0x80, 0x00, 0x00, 0x00, 0x03, 0x00, 0x00, 0x00,
    0x01, 0x00, 0x00, 0x00, 0x0c, 0x00, 0x00, 0x00, 0x63, 0x6f, 0x6e, 0x76,
    0x32, 0x64, 0x5f, 0x69, 0x6e, 0x70, 0x75, 0x74, 0x00, 0x00, 0x00, 0x00,
    0x08, 0x00, 0x0c, 0x00, 0x04, 0x00, 0x08, 0x00, 0x08, 0x00, 0x00, 0x00,
    0x10, 0x00, 0x00, 0x00, 0x04, 0x00, 0x00, 0x00, 0x01, 0x00, 0x00, 0x00,
    0x00, 0x00, 0x7f, 0x43, 0x01, 0x00, 0x00, 0x00, 0x00, 0x00, 0x00, 0x00,
    0x9e, 0xc3, 0xff, 0xff, 0x10, 0x00, 0x00, 0x00, 0x0b, 0x00, 0x00, 0x00,
    0x1c, 0x00, 0x00, 0x00, 0x38, 0x00, 0x00, 0x00, 0x04, 0x00, 0x00, 0x00,
    0x01, 0x00, 0x00, 0x00, 0x2a, 0x00, 0x00, 0x00, 0x01, 0x00, 0x00, 0x00,
    0x10, 0x00, 0x00, 0x00, 0x18, 0x00, 0x00, 0x00, 0x73, 0x65, 0x71, 0x75,
    0x65, 0x6e, 0x74, 0x69, 0x61, 0x6c, 0x2f, 0x63, 0x6f, 0x6e, 0x76, 0x32,
    0x64, 0x5f, 0x31, 0x2f, 0x52, 0x65, 0x6c, 0x75, 0x00, 0x00, 0x00, 0x00,
    0xb8, 0xc2, 0xff, 0xff, 0xea, 0xc3, 0xff, 0xff, 0x10, 0x00, 0x00, 0x00,
    0x0a, 0x00, 0x00, 0x00, 0x1c, 0x00, 0x00, 0x00, 0x40, 0x00, 0x00, 0x00,
    0x04, 0x00, 0x00, 0x00, 0x01, 0x00, 0x00, 0x00, 0x0e, 0x00, 0x00, 0x00,
    0x01, 0x00, 0x00, 0x00, 0x10, 0x00, 0x00, 0x00, 0x22, 0x00, 0x00, 0x00,
    0x73, 0x65, 0x71, 0x75, 0x65, 0x6e, 0x74, 0x69, 0x61, 0x6c, 0x2f, 0x6d,
    0x61, 0x78, 0x5f, 0x70, 0x6f, 0x6f, 0x6c, 0x69, 0x6e, 0x67, 0x32, 0x64,
    0x5f, 0x31, 0x2f, 0x4d, 0x61, 0x78, 0x50, 0x6f, 0x6f, 0x6c, 0x00, 0x00,
    0x0c, 0xc3, 0xff, 0xff, 0x3e, 0xc4, 0xff, 0xff, 0x10, 0x00, 0x00, 0x00,
    0x09, 0x00, 0x00, 0x00, 0x14, 0x00, 0x00, 0x00, 0x2c, 0x00, 0x00, 0x00,
    0x02, 0x00, 0x00, 0x00, 0x01, 0x00, 0x00, 0x00, 0x10, 0x00, 0x00, 0x00,
    0x15, 0x00, 0x00, 0x00, 0x73, 0x65, 0x71, 0x75, 0x65, 0x6e, 0x74, 0x69,
    0x61, 0x6c, 0x2f, 0x64, 0x65, 0x6e, 0x73, 0x65, 0x2f, 0x52, 0x65, 0x6c,
    0x75, 0x00, 0x00, 0x00, 0x4c, 0xc3, 0xff, 0xff, 0x7e, 0xc4, 0xff, 0xff,
    0x10, 0x00, 0x00, 0x00, 0x08, 0x00, 0x00, 0x00, 0x14, 0x00, 0x00, 0x00,
    0x30, 0x00, 0x00, 0x00, 0x02, 0x00, 0x00, 0x00, 0x01, 0x00, 0x00, 0x00,
    0x04, 0x00, 0x00, 0x00, 0x1a, 0x00, 0x00, 0x00, 0x73, 0x65, 0x71, 0x75,
    0x65, 0x6e, 0x74, 0x69, 0x61, 0x6c, 0x2f, 0x64, 0x65, 0x6e, 0x73, 0x65,
    0x5f, 0x31, 0x2f, 0x42, 0x69, 0x61, 0x73, 0x41, 0x64, 0x64, 0x00, 0x00,
    0x90, 0xc3, 0xff, 0xff, 0xc2, 0xc4, 0xff, 0xff, 0x10, 0x00, 0x00, 0x00,
    0x07, 0x00, 0x00, 0x00, 0x14, 0x00, 0x00, 0x00, 0x20, 0x00, 0x00, 0x00,
    0x02, 0x00, 0x00, 0x00, 0x01, 0x00, 0x00, 0x00, 0x04, 0x00, 0x00, 0x00,
    0x08, 0x00, 0x00, 0x00, 0x49, 0x64, 0x65, 0x6e, 0x74, 0x69, 0x74, 0x79,
    0x00, 0x00, 0x00, 0x00, 0xc4, 0xc3, 0xff, 0xff, 0xf6, 0xc4, 0xff, 0xff,
    0x10, 0x00, 0x00, 0x00, 0x06, 0x00, 0x00, 0x00, 0x14, 0x00, 0x00, 0x00,
    0x48, 0x00, 0x00, 0x00, 0x02, 0x00, 0x00, 0x00, 0x10, 0x00, 0x00, 0x00,
    0xe0, 0x00, 0x00, 0x00, 0x30, 0x00, 0x00, 0x00, 0x73, 0x65, 0x71, 0x75,
    0x65, 0x6e, 0x74, 0x69, 0x61, 0x6c, 0x2f, 0x64, 0x65, 0x6e, 0x73, 0x65,
    0x2f, 0x4d, 0x61, 0x74, 0x4d, 0x75, 0x6c, 0x2f, 0x52, 0x65, 0x61, 0x64,
    0x56, 0x61, 0x72, 0x69, 0x61, 0x62, 0x6c, 0x65, 0x4f, 0x70, 0x2f, 0x74,
    0x72, 0x61, 0x6e, 0x73, 0x70, 0x6f, 0x73, 0x65, 0x00, 0x00, 0x00, 0x00,
    0x20, 0xc4, 0xff, 0xff, 0x00, 0x38, 0x00, 0x00, 0x38, 0x09, 0xc3, 0x3c,
    0xa3, 0x17, 0x59, 0xbe, 0x36, 0xbc, 0xa2, 0xbe, 0x76, 0xcf, 0x8e, 0x3e,
    0x30, 0x74, 0x57, 0xbe, 0x8f, 0xfc, 0x02, 0x3e, 0x03, 0xfc, 0x29, 0x3c,
    0xf0, 0x7d, 0xbb, 0xbe, 0x90, 0x38, 0xb3, 0xbd, 0x17, 0x51, 0x23, 0x3e,
    0x85, 0x14, 0x57, 0xbe, 0xd5, 0x18, 0x10, 0xbe, 0xf5, 0x8f, 0x1c, 0x3e,
    0x9b, 0x8c, 0xc4, 0xbc, 0x18, 0x47, 0xee, 0xbe, 0x4e, 0xb9, 0xc3, 0x3c,
    0x55, 0xca, 0x94, 0x3e, 0x94, 0x97, 0x38, 0x3d, 0x8a, 0x09, 0xf2, 0xbd,
    0x70, 0x21, 0x64, 0x3e, 0x3f, 0x9e, 0x04, 0xbe, 0x7a, 0xfd, 0xaf, 0x3d,
    0x27, 0x28, 0x1e, 0xbe, 0xe1, 0x85, 0x12, 0xbe, 0x2f, 0x84, 0x82, 0xbe,
    0x82, 0x7d, 0x99, 0xbd, 0x89, 0x02, 0xa2, 0xbe, 0x3f, 0x17, 0x19, 0x3e,
    0xef, 0x22, 0xf7, 0x3d, 0xbf, 0xb7, 0x1d, 0xbe, 0x14, 0x24, 0x17, 0xbf,
    0xe4, 0x69, 0xa3, 0xbc, 0x46, 0x84, 0x2b, 0x3e, 0x4f, 0x1b, 0x29, 0x3e,
    0x3a, 0xf4, 0xc3, 0x3e, 0x2f, 0x0d, 0x01, 0xbe, 0x52, 0x51, 0x01, 0x3d,
    0x8b, 0x76, 0x43, 0xbc, 0xe1, 0xa4, 0xdd, 0xbc, 0xaf, 0x76, 0x41, 0x3e,
    0x2f, 0x4b, 0x2a, 0xbd, 0x0e, 0x76, 0x18, 0x3e, 0xba, 0x53, 0xbb, 0x3d,
    0xbb, 0xb9, 0x26, 0x3e, 0xaf, 0xc5, 0x81, 0x3e, 0xd9, 0x50, 0x02, 0x3e,
    0xac, 0xee, 0x89, 0xbe, 0xa9, 0xe9, 0x36, 0x3b, 0x8a, 0xaa, 0xb2, 0x3c,
    0xce, 0x2c, 0x27, 0xbd, 0x42, 0x98, 0x83, 0x3e, 0xf0, 0xcf, 0x93, 0xbd,
    0xd4, 0xa2, 0x02, 0xbd, 0xab, 0x92, 0x78, 0x3d, 0x75, 0x2d, 0x3f, 0x3d,
    0xfa, 0xc9, 0xc4, 0xbd, 0x84, 0x7b, 0x0c, 0xbe, 0x0d, 0xe7, 0xaa, 0x3c,
    0x52, 0xad, 0xf2, 0xbd, 0x5e, 0x60, 0x01, 0xbc, 0x69, 0xeb, 0x61, 0x3e,
    0xd9, 0x35, 0xec, 0x3b, 0x13, 0xe3, 0xef, 0xbe, 0x62, 0x0f, 0xa1, 0xbc,
    0x2b, 0x2b, 0x05, 0x3e, 0xcd, 0xc1, 0xf3, 0x3d, 0x9b, 0x5d, 0xd6, 0x3c,
    0x11, 0x6e, 0x2d, 0xbe, 0x3f, 0x0a, 0xb1, 0xbd, 0x4c, 0xe6, 0xa0, 0xbc,
    0xc9, 0xb3, 0x03, 0xbe, 0xd6, 0x81, 0xa7, 0xbd, 0x83, 0xe0, 0x87, 0xbe,
    0x2a, 0x48, 0x8e, 0xbd, 0xdb, 0xdb, 0x24, 0xbe, 0x40, 0xd3, 0x11, 0x3e,
    0xb8, 0x20, 0x02, 0x3e, 0xe2, 0x77, 0x86, 0xbe, 0x08, 0xf5, 0x1b, 0xbf,
    0x95, 0xc5, 0xd9, 0x3d, 0x26, 0xc4, 0xa1, 0x3e, 0x2e, 0x4d, 0x70, 0x3e,
    0x7b, 0xa3, 0xa6, 0x3e, 0x29, 0x85, 0xd0, 0x3e, 0x20, 0x03, 0xe1, 0x3b,
    0xa4, 0xb5, 0x6f, 0x3d, 0x7b, 0xc2, 0xf4, 0x3d, 0x9a, 0x00, 0x91, 0xbd,
    0x57, 0x5b, 0x46, 0xbe, 0xef, 0xc0, 0x1e, 0xbe, 0xe4, 0xf4, 0x74, 0x3c,
    0x7e, 0x66, 0x9a, 0x3d, 0x77, 0x8b, 0xd1, 0x3e, 0x62, 0x45, 0x2e, 0xbe,
    0x5a, 0x0e, 0xbe, 0xbe, 0x8f, 0x62, 0xd7, 0x3d, 0x73, 0xc0, 0x64, 0x3e,
    0x55, 0x38, 0x6e, 0x3c, 0x51, 0x9e, 0x24, 0x3e, 0x41, 0xf3, 0x59, 0x3d,
    0xfd, 0xd6, 0xa9, 0x3d, 0xfa, 0xf9, 0x4b, 0x3b, 0x73, 0x5d, 0xc1, 0xbd,
    0x8d, 0x77, 0xb4, 0xbd, 0xf5, 0x3e, 0x31, 0xbe, 0x0a, 0xca, 0xfc, 0xbd,
    0xa2, 0x00, 0x26, 0xbe, 0x71, 0x45, 0xf7, 0xb8, 0xab, 0x46, 0xb6, 0x3e,
    0xf2, 0xd4, 0x2c, 0xbe, 0xa0, 0x15, 0x05, 0xbf, 0x83, 0x48, 0x34, 0xbe,
    0xec, 0x55, 0x52, 0x3d, 0x1d, 0xc8, 0xda, 0xbd, 0x35, 0x5b, 0x51, 0xbd,
    0x4a, 0x4c, 0x9f, 0x3d, 0xb8, 0x0d, 0xdb, 0xbd, 0x43, 0xbf, 0x79, 0x3d,
    0x9e, 0x8b, 0xb4, 0x3d, 0xde, 0xc2, 0x37, 0xbe, 0x85, 0xac, 0x9d, 0xbc,
    0xa5, 0x2c, 0x1a, 0x3d, 0x60, 0x49, 0xfb, 0xbd, 0x99, 0x80, 0x01, 0x3e,
    0x42, 0xea, 0x1a, 0x3e, 0x47, 0xcb, 0x3a, 0xbe, 0xa2, 0xb4, 0xba, 0xbe,
    0xa5, 0x58, 0x5b, 0xbd, 0x1f, 0xaa, 0x9b, 0x3e, 0xc1, 0x25, 0x99, 0xbc,
    0xb3, 0x07, 0x4b, 0x3e, 0x67, 0x93, 0x5c, 0x3e, 0x67, 0xe7, 0x7d, 0xbd,
    0x6c, 0x0a, 0xd3, 0x3c, 0x7f, 0x22, 0x70, 0xbd, 0x97, 0x98, 0xe8, 0xba,
    0x09, 0xf1, 0x24, 0xbe, 0x18, 0xb3, 0x45, 0x3e, 0x63, 0x78, 0xe2, 0xbd,
    0x91, 0x59, 0xea, 0xbd, 0xc2, 0x74, 0xa9, 0x3e, 0x7a, 0x83, 0x8a, 0x3c,
    0x2b, 0x13, 0x97, 0xbe, 0xe4, 0xf6, 0x95, 0x3d, 0x35, 0x27, 0x9f, 0x3e,
    0x9f, 0x05, 0xd5, 0x3e, 0x08, 0x02, 0x6c, 0x3e, 0xaf, 0x53, 0x32, 0x3e,
    0xbf, 0xfb, 0xbe, 0x3d, 0x50, 0x99, 0x6e, 0xbd, 0x28, 0x1b, 0x67, 0x3d,
    0x57, 0x06, 0x3a, 0xbe, 0xb8, 0x27, 0x60, 0xbd, 0x40, 0x02, 0xfa, 0xbd,
    0x5d, 0xd8, 0xf0, 0xbd, 0x76, 0xff, 0x3b, 0x3b, 0x30, 0xb8, 0xc5, 0x3e,
    0xed, 0x90, 0x18, 0xbe, 0xda, 0x6c, 0xbd, 0xbe, 0xe7, 0x1a, 0xae, 0x3d,
    0xdd, 0x35, 0x78, 0x3e, 0x00, 0xc8, 0xc0, 0x3e, 0xf1, 0x0f, 0x7d, 0x3d,
    0x96, 0x7d, 0x13, 0x3e, 0xc1, 0xd9, 0xb7, 0xbc, 0xf9, 0x7c, 0x71, 0xbc,
    0x82, 0xc4, 0x34, 0xbd, 0x87, 0x09, 0xef, 0xbd, 0xc4, 0xc3, 0xcf, 0x3c,
    0x5a, 0xe3, 0xc9, 0x3c, 0x88, 0x27, 0x53, 0xbd, 0x64, 0x11, 0x50, 0x3d,
    0x2f, 0xb3, 0xa1, 0x3e, 0xac, 0xc0, 0x87, 0x3d, 0x71, 0x07, 0xce, 0xbe,
    0xb2, 0xc9, 0x01, 0xbe, 0xef, 0x99, 0x9a, 0x3d, 0xae, 0x39, 0x63, 0x3e,
    0x94, 0x4f, 0x43, 0xbe, 0xaa, 0xd9, 0x6a, 0x3e, 0xbe, 0xd3, 0x36, 0x3a,
    0xcc, 0x68, 0x48, 0x3e, 0xc7, 0xf2, 0x1a, 0xbe, 0x11, 0xa9, 0x4d, 0xbe,
    0x83, 0xf2, 0xdb, 0x3d, 0xc1, 0x12, 0x04, 0x3d, 0x54, 0xa3, 0x14, 0xbe,
    0x1e, 0xf7, 0x0b, 0x3e, 0x4b, 0xdb, 0x9b, 0x3d, 0xa9, 0xdb, 0xfc, 0xbd,
    0xab, 0x3c, 0x9d, 0xbe, 0x16, 0x6f, 0x21, 0xbe, 0xa0, 0xa3, 0x39, 0x3d,
    0xe4, 0xee, 0xa6, 0x3e, 0x2a, 0xdd, 0xdb, 0x3d, 0xbf, 0x83, 0x85, 0x3e,
    0xfc, 0xa9, 0x6c, 0xbd, 0x56, 0xb3, 0x58, 0x3d, 0xb6, 0x21, 0x71, 0xbd,
    0xa4, 0x64, 0xd5, 0xbc, 0xdd, 0x90, 0x9d, 0xbb, 0x30, 0x49, 0x4c, 0x3e,
    0xf2, 0xe0, 0x2b, 0xbb, 0x49, 0x8e, 0x4a, 0xbd, 0xd3, 0x7a, 0x01, 0x3a,
    0x13, 0xab, 0x41, 0x3e, 0x63, 0xbe, 0x41, 0xbe, 0x5a, 0x9e, 0xb0, 0x3c,
    0x75, 0x9b, 0x3f, 0x3e, 0x9c, 0x74, 0xe1, 0xbd, 0x4b, 0x89, 0xaf, 0xbd,
    0xe9, 0x2c, 0x8f, 0x3e, 0x22, 0xe6, 0x61, 0xbe, 0x62, 0x58, 0xae, 0x3e,
    0xc4, 0x10, 0xbe, 0x3e, 0xa8, 0xa4, 0x20, 0x3d, 0x9c, 0x2f, 0x56, 0x3e,
    0x97, 0xdf, 0xc7, 0xbd, 0x3d, 0x4e, 0x85, 0xbd, 0x9c, 0xa0, 0xb7, 0x3d,
    0x5e, 0xb8, 0x0c, 0x3e, 0xc8, 0x73, 0xf0, 0x3d, 0x68, 0x38, 0xd0, 0xbd,
    0x36, 0x1d, 0x3b, 0x3d, 0x7d, 0xdc, 0x06, 0xbe, 0x20, 0xfd, 0x88, 0x3d,
    0x9d, 0xe2, 0x08, 0x3d, 0x0b, 0x0a, 0xec, 0xbd, 0x71, 0xc9, 0xec, 0xbb,
    0xf2, 0x0f, 0x04, 0x3e, 0xd5, 0x78, 0x2f, 0x3d, 0xa9, 0xbc, 0xa1, 0x3d,
    0x56, 0x42, 0x02, 0xbe, 0xf8, 0x5d, 0xe1, 0x3d, 0xd5, 0x9d, 0x95, 0x3c,
    0xaf, 0xff, 0x30, 0xbe, 0x6b, 0x2b, 0x1a, 0x3d, 0x6c, 0x40, 0xc5, 0xbd,
    0x32, 0x27, 0x83, 0xbc, 0xd6, 0x9f, 0x0c, 0xbe, 0xec, 0x4f, 0x24, 0xbe,
    0x56, 0xf3, 0x94, 0xbd, 0x74, 0x38, 0x34, 0x3d, 0xa6, 0x27, 0x58, 0x3a,
    0x86, 0x80, 0xce, 0xbc, 0x2c, 0x69, 0xcc, 0x3d, 0x02, 0x84, 0xfe, 0x3c,
    0x3a, 0x28, 0x22, 0x3c, 0x66, 0x17, 0x06, 0x3e, 0x23, 0x7b, 0x41, 0x3e,
    0x14, 0x17, 0x55, 0x3c, 0x28, 0xbc, 0xbf, 0xbd, 0xff, 0x4f, 0x0b, 0x3c,
    0x4d, 0x1c, 0x4c, 0xbd, 0x42, 0x1a, 0xb1, 0xbd, 0xf0, 0x09, 0x7a, 0xbd,
    0x19, 0xde, 0x2f, 0xbe, 0xd7, 0x93, 0xf2, 0x3c, 0x99, 0x39, 0xbf, 0x3d,
    0x74, 0x89, 0xaf, 0x3d, 0x73, 0xdd, 0xc4, 0xbc, 0xf4, 0x25, 0x3e, 0x3e,
    0xc5, 0xba, 0xff, 0x3d, 0xc6, 0xab, 0xd0, 0x3c, 0xc5, 0x95, 0xc2, 0x3d,
    0x7a, 0x52, 0x56, 0x3e, 0xc2, 0x78, 0x9d, 0xbc, 0xea, 0x2e, 0xa8, 0xbd,
    0x3c, 0x9a, 0xbe, 0xbd, 0xcf, 0x3b, 0x53, 0xbe, 0xfd, 0xfd, 0xd7, 0x3c,
    0x45, 0xcc, 0x74, 0xbd, 0x14, 0xb5, 0x65, 0xbe, 0xf3, 0x99, 0xa2, 0xbd,
    0xde, 0x45, 0x26, 0x3d, 0xe6, 0x51, 0xfd, 0xba, 0x4d, 0xfb, 0x54, 0xbc,
    0xd6, 0xc3, 0x7f, 0x3e, 0x00, 0x4d, 0x1e, 0xbd, 0x14, 0x3e, 0xc5, 0x3d,
    0xff, 0xc8, 0x17, 0x3e, 0xed, 0xe4, 0x45, 0xbc, 0x45, 0x9d, 0xda, 0xbc,
    0x22, 0x1e, 0x64, 0xbd, 0x17, 0x4d, 0x44, 0xbe, 0xec, 0xc9, 0x00, 0xbe,
    0xbd, 0xbf, 0x52, 0x3d, 0xa1, 0xb2, 0x18, 0xbe, 0xf9, 0xc6, 0x85, 0xbe,
    0x5d, 0x82, 0x2c, 0x3e, 0x7c, 0x7f, 0xbe, 0xbc, 0xd3, 0x3d, 0x40, 0xbd,
    0x4c, 0xa5, 0x06, 0x3c, 0x82, 0x79, 0x83, 0x3e, 0xd8, 0x5e, 0x18, 0xbe,
    0xe5, 0xd4, 0x54, 0x3d, 0x43, 0xd6, 0x2a, 0x3d, 0xd0, 0xaf, 0xd6, 0x3d,
    0x93, 0x25, 0xa3, 0xbc, 0x92, 0x49, 0x1e, 0xbe, 0x7c, 0x28, 0xed, 0xbd,
    0xa6, 0x82, 0x90, 0xbe, 0xc5, 0x50, 0x04, 0x3d, 0x00, 0xf1, 0x0d, 0xbe,
    0x7d, 0xbd, 0x66, 0xbe, 0x08, 0xce, 0x4c, 0xbd, 0xed, 0x47, 0x54, 0xbe,
    0xbb, 0x67, 0x63, 0xbd, 0x10, 0x5b, 0x4d, 0xbc, 0x68, 0xfd, 0x7a, 0x3e,
    0x35, 0xab, 0x27, 0xbb, 0xa1, 0x5d, 0x03, 0x3e, 0xe1, 0xc2, 0x63, 0x3e,
    0x4c, 0xdf, 0x49, 0x3c, 0x96, 0x9e, 0x9c, 0xbd, 0x66, 0x03, 0x75, 0xbd,
    0xf7, 0x5f, 0xfb, 0xbc, 0x34, 0x3b, 0xd1, 0xbc, 0x21, 0x8f, 0xa1, 0x3c,
    0x6d, 0x8f, 0xfb, 0xbd, 0xaf, 0x33, 0xf0, 0xbd, 0xe7, 0xcb, 0xbc, 0x3b,
    0x16, 0x17, 0x01, 0xbb, 0x31, 0x8a, 0xbd, 0x3d, 0xd9, 0x0e, 0xcb, 0xbb,
    0x52, 0xb9, 0x58, 0x3e, 0x4c, 0xc0, 0x87, 0xbd, 0x7d, 0xdd, 0x16, 0xbd,
    0x1f, 0xb8, 0x54, 0x3e, 0x97, 0x23, 0xa6, 0x3d, 0x44, 0x08, 0x42, 0x3c,
    0xdd, 0x62, 0xdd, 0xbd, 0xc0, 0x68, 0x45, 0xbe, 0x62, 0x16, 0x59, 0xbe,
    0x73, 0x9d, 0x99, 0x3c, 0x93, 0x8b, 0x12, 0xbe, 0x1d, 0x4c, 0x47, 0xbe,
    0x1c, 0x32, 0x8e, 0xbe, 0x1f, 0xd3, 0xa6, 0xbe, 0x8f, 0x02, 0x63, 0xbc,
    0x5e, 0x79, 0xc8, 0x3d, 0x54, 0x89, 0x2b, 0x3e, 0x02, 0x1d, 0x9b, 0xbe,
    0xb3, 0xd1, 0xcb, 0x3d, 0x8f, 0x5d, 0xb6, 0x3d, 0x50, 0x23, 0x79, 0x3d,
    0x08, 0x8f, 0x5f, 0xbd, 0xff, 0xba, 0xaa, 0xbd, 0x1b, 0x7f, 0x8a, 0xbe,
    0x00, 0xf8, 0xf3, 0xbd, 0x40, 0xa9, 0x97, 0x3c, 0xbb, 0x33, 0x05, 0xbe,
    0xd7, 0x51, 0x42, 0xbe, 0xdf, 0xcc, 0x43, 0xbe, 0x6f, 0xa0, 0xa0, 0xbd,
    0x91, 0x66, 0x5f, 0x3c, 0xd2, 0x6f, 0xf7, 0x3d, 0x17, 0xc7, 0x5b, 0x3e,
    0xcc, 0x1f, 0x0d, 0xbe, 0xe5, 0xe0, 0x5f, 0xbc, 0xe8, 0x44, 0x2f, 0x3d,
    0x56, 0x0e, 0x92, 0x3d, 0x07, 0x01, 0xab, 0xbc, 0xf5, 0xb6, 0x1d, 0xbe,
    0x21, 0x57, 0x14, 0xbe, 0x1c, 0xfb, 0x9c, 0xbd, 0x1a, 0xe6, 0xef, 0xbc,
    0xc1, 0x48, 0x87, 0xbe, 0x7d, 0x7d, 0x00, 0xbe, 0xe9, 0x2a, 0x07, 0xbd,
    0xc5, 0x49, 0xc5, 0xbd, 0x15, 0xea, 0xa5, 0x3c, 0x1b, 0x09, 0x87, 0xbd,
    0xce, 0x89, 0xd3, 0x3e, 0xff, 0x58, 0x88, 0x3c, 0xd8, 0x88, 0x14, 0x3d,
    0x45, 0xb0, 0xbf, 0xbc, 0xb2, 0x2c, 0xf6, 0x3c, 0xcf, 0xbb, 0xdf, 0xbd,
    0xe5, 0xdb, 0x70, 0xbe, 0xdd, 0x92, 0xb6, 0xbe, 0xdb, 0xab, 0x55, 0xbe,
    0x4c, 0x89, 0x5c, 0xbc, 0x52, 0x8b, 0xf2, 0xbe, 0x34, 0x65, 0xd0, 0xbe,
    0x85, 0xf1, 0x73, 0xbe, 0x68, 0xac, 0x01, 0xbf, 0x51, 0xa1, 0x75, 0xbc,
    0xd2, 0x69, 0x23, 0x3e, 0x77, 0xac, 0xa2, 0x3e, 0x24, 0x33, 0x48, 0xbe,
    0x89, 0xf0, 0xe9, 0x3c, 0xf4, 0x56, 0xc3, 0x3d, 0xb4, 0xd0, 0x90, 0x3e,
    0xf0, 0x49, 0x27, 0xbd, 0x4f, 0x1b, 0x95, 0xbe, 0xa9, 0xbe, 0x7b, 0xbe,
    0xad, 0x81, 0x18, 0xbe, 0x99, 0x64, 0x06, 0xbc, 0xcb, 0xe8, 0x00, 0xbf,
    0xfd, 0x24, 0xfa, 0xbd, 0xdb, 0xba, 0x94, 0xbe, 0xc1, 0xd6, 0xb9, 0x3d,
    0x4b, 0x7e, 0x9d, 0xbd, 0x16, 0xf6, 0x1f, 0xbc, 0xb0, 0x5c, 0x04, 0x3f,
    0xd6, 0x5c, 0x26, 0x3e, 0x0e, 0x0a, 0x84, 0xba, 0xad, 0x45, 0x6b, 0x3c,
    0xcb, 0x34, 0xba, 0xbc, 0xfe, 0x2d, 0x08, 0x3d, 0xc4, 0x9b, 0xc0, 0xbd,
    0xaf, 0x88, 0x9c, 0xbe, 0x8d, 0xc6, 0xe4, 0x3d, 0x41, 0x3f, 0x32, 0xbc,
    0x6c, 0x8b, 0x0c, 0xbe, 0x4d, 0x10, 0xb5, 0x3d, 0x18, 0x1f, 0x09, 0xbd,
    0x72, 0x12, 0xd2, 0xbd, 0xa0, 0xe6, 0xe8, 0x3c, 0x03, 0xa5, 0xcf, 0xbd,
    0xee, 0x19, 0xa4, 0xbe, 0xf4, 0x2d, 0xf5, 0xbd, 0xcc, 0xba, 0x52, 0x3b,
    0x81, 0xd1, 0x95, 0x3d, 0x74, 0xdd, 0x9d, 0xbe, 0xc7, 0x3b, 0x81, 0x3c,
    0xa4, 0xf4, 0x12, 0xbd, 0xcd, 0x77, 0x62, 0xbe, 0x32, 0x24, 0xe2, 0x3c,
    0xc9, 0x55, 0xdc, 0xbc, 0x7a, 0xab, 0x80, 0xbe, 0xc1, 0xcb, 0x0c, 0xbf,
    0xf6, 0xdd, 0x16, 0xbf, 0x0a, 0xb4, 0x30, 0xbe, 0xf7, 0x51, 0xbe, 0xbe,
    0xdf, 0x99, 0x40, 0x3e, 0x91, 0xed, 0x07, 0xbf, 0x41, 0x5b, 0x26, 0xbe,
    0x71, 0x19, 0x76, 0x3c, 0x5c, 0x23, 0x2d, 0xbd, 0xda, 0x33, 0x35, 0x3d,
    0xfe, 0xbd, 0x85, 0x3d, 0x4e, 0x9b, 0x2e, 0xbf, 0xd6, 0xef, 0x0a, 0xbe,
    0x6d, 0x0a, 0x0e, 0xbe, 0x2b, 0xc2, 0x74, 0xbc, 0x80, 0x43, 0x5b, 0x3e,
    0x52, 0x1e, 0xee, 0xbd, 0x0a, 0xb0, 0xa7, 0xbb, 0x08, 0x78, 0xb1, 0x3c,
    0xc1, 0xd8, 0xeb, 0x3d, 0xc6, 0xbc, 0x07, 0xbe, 0x23, 0xeb, 0x47, 0xbd,
    0x42, 0xd2, 0x15, 0xbd, 0xdd, 0xb7, 0x8d, 0xbd, 0x75, 0xe1, 0xe0, 0x3d,
    0x17, 0xf4, 0x22, 0xbe, 0x5d, 0xb2, 0x08, 0xbe, 0x11, 0x41, 0x1f, 0xbd,
    0xc5, 0x3d, 0xfb, 0xbc, 0x41, 0x8a, 0xd3, 0xbc, 0x54, 0x1c, 0x1d, 0xbe,
    0x23, 0x9b, 0x31, 0x3d, 0xe2, 0x8e, 0x07, 0x3e, 0xa5, 0xaf, 0xc4, 0xbb,
    0x0a, 0x25, 0xb7, 0xbc, 0x4c, 0x21, 0x40, 0x3b, 0xc3, 0x20, 0x46, 0xbe,
    0x7c, 0x6f, 0x7e, 0xbd, 0x96, 0xbb, 0x7a, 0x3d, 0x61, 0x2e, 0x90, 0x3d,
    0xc9, 0xdb, 0x81, 0xbd, 0xb3, 0xc5, 0x7b, 0x3d, 0x9c, 0x9d, 0xa7, 0xbe,
    0x19, 0xf0, 0x54, 0x3d, 0x39, 0x71, 0x30, 0x3e, 0xd2, 0xb2, 0xd3, 0x3d,
    0x28, 0xc7, 0x99, 0xbe, 0x26, 0x51, 0x57, 0xbe, 0xe0, 0x68, 0xe0, 0xbd,
    0xde, 0x0a, 0x18, 0xbd, 0xae, 0xa0, 0x20, 0x3e, 0x04, 0xc3, 0xa0, 0xbd,
    0xb8, 0x12, 0x53, 0x3d, 0x75, 0x08, 0x19, 0xbe, 0x32, 0x99, 0x8e, 0x3c,
    0x83, 0x04, 0x46, 0xbe, 0x2d, 0x11, 0xd9, 0x3c, 0x40, 0x51, 0xe0, 0x3d,
    0xbe, 0x15, 0x99, 0xbe, 0x7c, 0x6d, 0x10, 0xbe, 0x86, 0x34, 0xa1, 0xbb,
    0x44, 0x25, 0x1a, 0xbe, 0x2c, 0x78, 0xda, 0xbd, 0x23, 0x76, 0x51, 0xbe,
    0x54, 0xcc, 0x05, 0xbe, 0xbd, 0x6c, 0x80, 0xbd, 0x81, 0xa2, 0x37, 0x3e,
    0xbc, 0x68, 0x90, 0xbc, 0x1b, 0x56, 0x18, 0xbe, 0x50, 0x71, 0xf3, 0x3c,
    0xea, 0x19, 0x37, 0xbc, 0xee, 0xb1, 0x73, 0xbd, 0x1b, 0xc7, 0x32, 0xbe,
    0xc8, 0xc1, 0x43, 0x3e, 0xd3, 0x4f, 0xab, 0xbe, 0x7b, 0xee, 0xaa, 0x3d,
    0xcd, 0x50, 0xc1, 0xbd, 0xa5, 0x30, 0x65, 0xbd, 0x96, 0x90, 0xa7, 0xbe,
    0xb4, 0x91, 0xb7, 0x3d, 0x65, 0x7e, 0xc5, 0xbc, 0x95, 0x16, 0x05, 0xbe,
    0xb2, 0x80, 0xa3, 0xbd, 0xa1, 0x1a, 0xf3, 0xbd, 0x9f, 0x94, 0x90, 0xbd,
    0x11, 0x5f, 0x85, 0xbd, 0xb5, 0xa6, 0x30, 0x3d, 0xa5, 0x37, 0x40, 0xbd,
    0xc1, 0xa5, 0x16, 0xbe, 0xf3, 0xaa, 0x51, 0x3d, 0x9f, 0xbe, 0x7c, 0xbe,
    0xd0, 0x63, 0x48, 0x3d, 0x3e, 0x5f, 0x09, 0xbe, 0xf0, 0x01, 0x0c, 0xbd,
    0xad, 0x3a, 0x77, 0xbe, 0x58, 0x45, 0x87, 0x3c, 0x7c, 0xd2, 0x43, 0x3c,
    0x95, 0x9f, 0x12, 0xbe, 0x8a, 0x8d, 0xb4, 0x3e, 0xc3, 0x35, 0x18, 0x3c,
    0x49, 0xf2, 0xc6, 0x3c, 0xca, 0x54, 0x16, 0xbe, 0xae, 0x62, 0xf0, 0xbb,
    0xa6, 0x5f, 0x03, 0xbe, 0xaf, 0xd6, 0x2d, 0x3d, 0xd8, 0xad, 0x32, 0xbd,
    0x97, 0xab, 0x8b, 0xbe, 0x7f, 0x00, 0x30, 0x3e, 0xcf, 0x04, 0x0e, 0x3e,
    0x82, 0xdd, 0xd0, 0x3d, 0x83, 0xeb, 0x38, 0xbe, 0xd4, 0x1d, 0x11, 0xbd,
    0x4c, 0xef, 0x04, 0xbc, 0xa0, 0x2f, 0x98, 0x3d, 0xab, 0x66, 0x32, 0xbd,
    0x24, 0x11, 0x1c, 0xbd, 0x40, 0x37, 0xa6, 0xbc, 0xdf, 0x98, 0x65, 0xbd,
    0x88, 0xd8, 0x49, 0xbb, 0x1d, 0x2b, 0x99, 0xbc, 0xea, 0x1a, 0x3b, 0x3d,
    0xd8, 0x50, 0xb6, 0x3d, 0x03, 0x81, 0xf8, 0xbd, 0xcd, 0x46, 0xd8, 0x3c,
    0xe2, 0x47, 0xf6, 0xbd, 0xc8, 0xb0, 0x24, 0xbd, 0xfd, 0xea, 0xa8, 0xbd,
    0xb0, 0x72, 0x3c, 0x3d, 0x80, 0xe1, 0xb0, 0x3d, 0x6d, 0x37, 0x49, 0x3d,
    0xc9, 0x17, 0x82, 0x3e, 0x4b, 0xde, 0xd6, 0xbd, 0x2f, 0x85, 0x34, 0x3d,
    0x62, 0x40, 0xc1, 0xbd, 0xce, 0x5b, 0xf4, 0x3d, 0x78, 0xa4, 0x10, 0xbe,
    0xa8, 0x54, 0xe2, 0x3d, 0x05, 0x7c, 0x4a, 0x3e, 0xad, 0xf5, 0x81, 0x3d,
    0x0d, 0x60, 0x21, 0x3d, 0x88, 0x2f, 0x3e, 0x3e, 0xce, 0xb9, 0xce, 0xbd,
    0x58, 0xd5, 0xb9, 0x3c, 0x38, 0x49, 0x4b, 0xbe, 0x3b, 0x4c, 0xb7, 0x3b,
    0x41, 0x71, 0x10, 0x3e, 0x52, 0xc3, 0xb8, 0x3d, 0x2f, 0x40, 0xdf, 0xbd,
    0x37, 0x12, 0x11, 0x3e, 0xc9, 0xee, 0xa9, 0xbd, 0xb2, 0x9e, 0x6f, 0xbd,
    0x20, 0x06, 0x11, 0x3e, 0xe2, 0xb3, 0x67, 0xbd, 0x0d, 0x83, 0x0e, 0xbc,
    0xab, 0xc2, 0x26, 0x3d, 0x6f, 0x11, 0xa3, 0xbc, 0x7c, 0x33, 0xf9, 0x3d,
    0x08, 0x6c, 0x01, 0xbe, 0x0a, 0x2f, 0x24, 0xbe, 0x66, 0x74, 0xf3, 0x3d,
    0xc5, 0xbb, 0xb9, 0xbd, 0xf7, 0x1b, 0x92, 0xbd, 0xb1, 0x86, 0xe6, 0xbb,
    0x2e, 0x99, 0x77, 0xbd, 0xa2, 0x27, 0xa8, 0x3c, 0x33, 0xdf, 0x17, 0xbe,
    0xd6, 0x72, 0xb2, 0xbd, 0x66, 0x04, 0xc3, 0x3c, 0xa4, 0xfb, 0xdb, 0x3d,
    0xf6, 0xd0, 0xd5, 0x3d, 0x74, 0xba, 0x3d, 0x3d, 0x5d, 0xfb, 0x67, 0x3d,
    0x16, 0x94, 0xb6, 0x3d, 0xae, 0x5e, 0xab, 0xbd, 0x43, 0x32, 0x2b, 0xbe,
    0xc7, 0xac, 0x8b, 0xbe, 0xba, 0x7c, 0xa2, 0xbd, 0xa9, 0xa2, 0xd9, 0xbd,
    0x77, 0x50, 0x17, 0xbe, 0x76, 0x60, 0x86, 0x3e, 0x3c, 0xaf, 0x50, 0xbd,
    0xd0, 0x44, 0x50, 0x3d, 0x29, 0xf7, 0xbe, 0x3d, 0x9a, 0xba, 0x1a, 0x3e,
    0xa2, 0x46, 0x12, 0xbd, 0xbc, 0xd7, 0x53, 0x3e, 0x73, 0xb9, 0x35, 0xbe,
    0x33, 0xf9, 0x79, 0x3d, 0xa0, 0xfb, 0x23, 0x3d, 0xe6, 0x6e, 0x8f, 0xbd,
    0x9f, 0x25, 0x2c, 0x3b, 0x15, 0xdb, 0xa8, 0xbd, 0xc3, 0xd0, 0x17, 0x3d,
    0xa0, 0xb0, 0x05, 0x3d, 0xc9, 0x19, 0xa6, 0x3d, 0xb5, 0x44, 0x8c, 0xbd,
    0xce, 0xde, 0x86, 0xbe, 0x8b, 0xe2, 0xb6, 0xbc, 0xa5, 0xfe, 0x63, 0xbc,
    0xe8, 0x61, 0x96, 0x3c, 0xf5, 0xa8, 0x44, 0xbd, 0x60, 0xe4, 0x7f, 0x3e,
    0xfa, 0x50, 0x2b, 0xbe, 0xb9, 0x34, 0x24, 0xbe, 0x2c, 0x49, 0xe0, 0xbd,
    0x84, 0xf6, 0xdf, 0xbd, 0x2d, 0xcd, 0x1d, 0xbe, 0x04, 0xd6, 0x15, 0xbe,
    0x0e, 0x6d, 0x13, 0xbe, 0xf4, 0x0d, 0x85, 0xbd, 0xf2, 0xa9, 0x43, 0xbe,
    0x22, 0xdf, 0x0b, 0x3d, 0x10, 0x99, 0x91, 0xbd, 0x11, 0x00, 0x82, 0x3e,
    0x1b, 0xd5, 0xd3, 0x3d, 0x30, 0x67, 0x62, 0xbd, 0x74, 0x71, 0x95, 0xbc,
    0x67, 0xbf, 0xe9, 0x3d, 0xc2, 0x21, 0xa9, 0xbe, 0x17, 0xd6, 0x19, 0x3d,
    0x0e, 0x2e, 0x8e, 0x3d, 0xac, 0x4e, 0x0c, 0x3e, 0xdb, 0x25, 0x4a, 0xbe,
    0x3a, 0x41, 0x0d, 0xbe, 0x11, 0x94, 0x1c, 0xbe, 0x39, 0x88, 0xd9, 0xbd,
    0x01, 0x8d, 0x31, 0xbe, 0x81, 0x77, 0x7c, 0x3e, 0x02, 0xbb, 0x8b, 0xbe,
    0x60, 0xca, 0x53, 0x3e, 0xa7, 0xcd, 0xe6, 0xbc, 0x3c, 0xff, 0xe9, 0x3d,
    0x42, 0x4c, 0x84, 0xbd, 0xbb, 0x99, 0xc6, 0x3d, 0x6a, 0x9c, 0x8c, 0xbe,
    0x3e, 0x01, 0x09, 0xbe, 0xc9, 0xac, 0xe5, 0x3d, 0xb1, 0x57, 0x88, 0xbd,
    0x3a, 0xab, 0x86, 0xbe, 0x05, 0x89, 0x97, 0xbe, 0x0a, 0xeb, 0xf0, 0xbc,
    0xbf, 0x9d, 0x83, 0x3c, 0x73, 0x39, 0xb5, 0xb9, 0x52, 0x57, 0x2d, 0x3e,
    0x6a, 0x51, 0x18, 0xbd, 0xfe, 0x5d, 0x1a, 0x3d, 0x39, 0x5e, 0x1e, 0xbe,
    0x94, 0xf5, 0x18, 0x3d, 0x51, 0x7a, 0x8b, 0x3b, 0x31, 0xd9, 0x4d, 0x3d,
    0x4f, 0x59, 0x01, 0xbe, 0x82, 0xd3, 0x0d, 0xbe, 0x17, 0xa7, 0xd6, 0xbd,
    0xda, 0x8a, 0x80, 0x3d, 0x83, 0x12, 0x85, 0xbb, 0xe1, 0x8e, 0xc5, 0xbd,
    0x4e, 0x4e, 0x83, 0x3d, 0x8f, 0x99, 0x02, 0xbd, 0x66, 0x5c, 0x19, 0xbd,
    0xba, 0xbe, 0xc8, 0x3d, 0xba, 0xe0, 0x7d, 0xbc, 0xf2, 0x21, 0x09, 0xbe,
    0x28, 0x5a, 0x3a, 0xbe, 0x63, 0x59, 0x14, 0xbd, 0xdf, 0x71, 0xdc, 0xbd,
    0xb7, 0x5d, 0x1e, 0xbd, 0x8f, 0x97, 0xfa, 0xbd, 0xf8, 0xea, 0x04, 0xbd,
    0xc5, 0xfe, 0x1a, 0xbe, 0x53, 0xa0, 0xc6, 0x3d, 0xb0, 0x0f, 0x6c, 0xbd,
    0xdd, 0xb9, 0x0e, 0xbe, 0xe4, 0xf2, 0xe1, 0xbd, 0x73, 0x0c, 0x2c, 0x3c,
    0x0f, 0x52, 0x9c, 0xbd, 0xea, 0xa3, 0x27, 0x3d, 0x85, 0x63, 0xbf, 0x3c,
    0xf6, 0x9d, 0x61, 0x3d, 0x9e, 0xd4, 0xf1, 0xbc, 0x24, 0xd9, 0x5b, 0x3e,
    0x61, 0xba, 0x8b, 0xbd, 0xa3, 0x06, 0xce, 0xbd, 0xe0, 0x4a, 0xf7, 0xbd,
    0x38, 0x65, 0x45, 0x3d, 0x02, 0x34, 0xec, 0xbc, 0xe3, 0x6f, 0xdc, 0xbd,
    0x1d, 0xbc, 0xa8, 0xbd, 0x58, 0x05, 0x91, 0x3c, 0xe7, 0x54, 0xfc, 0x3c,
    0x37, 0x37, 0x76, 0xbd, 0x1d, 0x40, 0x97, 0x3d, 0x5d, 0xdb, 0x31, 0x3e,
    0xff, 0x7a, 0xb2, 0xbd, 0x06, 0x20, 0x84, 0xbd, 0x3b, 0x33, 0xdc, 0xbd,
    0xaf, 0x37, 0xce, 0xbd, 0xe0, 0x3a, 0x1b, 0xbd, 0x4f, 0xfc, 0x96, 0xbc,
    0x33, 0x82, 0x8b, 0xbb, 0xbc, 0xec, 0xb0, 0xbc, 0xb1, 0xef, 0x9a, 0xbd,
    0xcf, 0xc3, 0x6a, 0x3b, 0x37, 0x7d, 0x52, 0x3d, 0x54, 0xca, 0x0c, 0xbd,
    0x8d, 0x52, 0xf5, 0xbd, 0xcf, 0x4e, 0x3e, 0xbe, 0x1f, 0xcd, 0x0d, 0xbe,
    0x16, 0xf5, 0x10, 0x3e, 0xc7, 0x16, 0xd0, 0xbd, 0x8a, 0x5a, 0x1e, 0xbe,
    0x48, 0x04, 0x9d, 0xbc, 0x42, 0x01, 0x37, 0x3e, 0x88, 0xa9, 0xda, 0xbd,
    0x53, 0xfc, 0xdd, 0x3b, 0x73, 0xc7, 0x48, 0x3d, 0x1a, 0xda, 0xec, 0xbd,
    0x1a, 0x9d, 0x94, 0x3d, 0xea, 0xbc, 0xaa, 0xbd, 0xb2, 0xee, 0x2e, 0xbc,
    0xe0, 0x10, 0xe6, 0xbd, 0x11, 0xcc, 0x3e, 0xbd, 0x41, 0x7a, 0x39, 0xbe,
    0xe9, 0xa8, 0xa9, 0xbc, 0xa0, 0xe9, 0x24, 0x3c, 0x81, 0x4d, 0x9c, 0xbd,
    0x06, 0x75, 0x25, 0xbe, 0xa5, 0x21, 0x09, 0xbd, 0xfb, 0x39, 0x63, 0xbe,
    0xaf, 0x6d, 0xa8, 0x3e, 0xc1, 0xa4, 0x04, 0x3c, 0xd2, 0x37, 0xee, 0xbd,
    0x90, 0xa0, 0xf3, 0xbd, 0xf0, 0xc2, 0xf8, 0xbd, 0x4b, 0xc3, 0x76, 0xbb,
    0x34, 0xbb, 0xe6, 0xbd, 0xc0, 0x91, 0xef, 0xbd, 0xf9, 0x15, 0x81, 0x3d,
    0x14, 0xa4, 0x3e, 0xbd, 0xfb, 0x91, 0x25, 0xbe, 0xbc, 0xaf, 0x16, 0x3e,
    0xbc, 0x53, 0x8b, 0x3e, 0x84, 0x10, 0xfe, 0x3c, 0x35, 0xba, 0xb0, 0x3c,
    0xde, 0x73, 0x36, 0xbe, 0xc5, 0x72, 0x0d, 0x3e, 0x83, 0xde, 0x5b, 0xbd,
    0x11, 0xb6, 0x82, 0xbe, 0x82, 0x6d, 0x89, 0x3e, 0x3d, 0xe6, 0xf1, 0xbd,
    0xad, 0x1a, 0x7e, 0x3e, 0xa2, 0xb7, 0xb9, 0xbd, 0xe9, 0xdd, 0x09, 0x3c,
    0xbc, 0xaa, 0xab, 0x3d, 0x45, 0xb8, 0x8f, 0xbd, 0x8f, 0x3a, 0x6d, 0xbe,
    0xa2, 0xbe, 0x1a, 0xbd, 0x54, 0x2a, 0x1d, 0xbd, 0xf4, 0x75, 0x0f, 0xbe,
    0x8b, 0xdc, 0x43, 0xbe, 0x94, 0x52, 0x85, 0xbd, 0x68, 0x5c, 0x46, 0x3d,
    0x6d, 0xdf, 0xdf, 0x3d, 0xf0, 0xad, 0x6d, 0xbe, 0xfa, 0xfc, 0xcd, 0x3c,
    0x72, 0x3f, 0xf0, 0x3b, 0xba, 0xda, 0xab, 0x3b, 0x53, 0x1b, 0xb7, 0xbc,
    0x76, 0x93, 0x9f, 0x3d, 0xdb, 0xad, 0x86, 0x3d, 0x4d, 0x3c, 0x42, 0xbd,
    0xd6, 0x15, 0xc3, 0x3c, 0x5b, 0x3c, 0x59, 0x3e, 0x8c, 0xe5, 0xc0, 0x3d,
    0x14, 0xc4, 0x0b, 0xbe, 0xf8, 0xb0, 0x8a, 0xbd, 0x73, 0x7b, 0x18, 0xbe,
    0xb0, 0x68, 0x77, 0x3e, 0x6e, 0x7f, 0x31, 0x3c, 0x3f, 0xf9, 0x51, 0xbe,
    0xf2, 0x15, 0x8e, 0x3d, 0x0a, 0xec, 0x77, 0x3b, 0x91, 0xbf, 0xbc, 0x3d,
    0xc8, 0xb2, 0xc5, 0xbb, 0x97, 0xb6, 0x3c, 0xbd, 0x0e, 0xb1, 0x1b, 0xbe,
    0xd4, 0x3e, 0x2c, 0xbd, 0xc4, 0xbc, 0x41, 0xbe, 0x26, 0x37, 0x1f, 0xbd,
    0x52, 0x28, 0x33, 0x3e, 0x6a, 0xe3, 0x91, 0xbd, 0x74, 0x12, 0x39, 0x3d,
    0xad, 0xef, 0xa5, 0x3e, 0xbe, 0x36, 0xc3, 0x3e, 0x28, 0x5e, 0x56, 0x3d,
    0x2e, 0x99, 0x1c, 0xbe, 0xf3, 0x09, 0x0f, 0xbe, 0x3c, 0x68, 0xb4, 0xbd,
    0xa2, 0x2e, 0x96, 0x3d, 0x1e, 0x75, 0x0e, 0xbb, 0xd1, 0x20, 0x15, 0xbd,
    0x04, 0x38, 0x94, 0x3d, 0xb2, 0x3a, 0x11, 0xbe, 0x13, 0xd0, 0xce, 0xbb,
    0xca, 0x0e, 0x04, 0xbe, 0x92, 0x0f, 0x3a, 0xbd, 0x2d, 0x56, 0x3f, 0x3d,
    0xe9, 0x8d, 0xf7, 0xbd, 0x7e, 0x8b, 0x35, 0x3e, 0x20, 0x5e, 0x06, 0xbe,
    0x72, 0x32, 0x0b, 0xbe, 0x6a, 0x1f, 0xb2, 0xbe, 0x66, 0x56, 0xba, 0x3c,
    0xca, 0x8a, 0xde, 0xbc, 0xca, 0xa3, 0xf8, 0x3d, 0x9d, 0xb4, 0xaa, 0x3d,
    0x73, 0xb2, 0x1c, 0xbe, 0xfa, 0x69, 0x13, 0xbd, 0xb4, 0x65, 0x22, 0xbe,
    0xca, 0xe5, 0x08, 0xbd, 0xf8, 0x62, 0xb9, 0x3d, 0x75, 0xf3, 0xa8, 0xbc,
    0x60, 0x2b, 0xb9, 0x3d, 0xcf, 0x38, 0xea, 0x3b, 0x72, 0xb2, 0x53, 0x3d,
    0x4f, 0xd2, 0xa7, 0x3d, 0x8f, 0x6f, 0x6d, 0x3c, 0xd0, 0x1a, 0xfd, 0xbd,
    0xaa, 0x41, 0xf9, 0xbd, 0x1f, 0x8c, 0xdd, 0xbd, 0x9e, 0xb6, 0x17, 0xbe,
    0xb3, 0xfa, 0xb8, 0xbd, 0x15, 0xc8, 0xa9, 0xbe, 0x03, 0x09, 0xa0, 0x3c,
    0xab, 0xa1, 0xd5, 0xbd, 0xed, 0xdb, 0x0b, 0xbe, 0xbe, 0xf5, 0xf7, 0x3d,
    0xbc, 0x5e, 0x54, 0xbe, 0x12, 0x86, 0x5e, 0xbd, 0xd7, 0xbd, 0x30, 0x3e,
    0x16, 0x2b, 0xee, 0x3d, 0xaf, 0x30, 0x16, 0xbe, 0xb9, 0xa5, 0x02, 0xbe,
    0x32, 0x85, 0x90, 0xbe, 0xb3, 0xa6, 0xad, 0x3c, 0xb3, 0x6a, 0xf6, 0xbd,
    0x39, 0x88, 0xff, 0xbc, 0xe7, 0xcf, 0x38, 0xbe, 0xe7, 0x91, 0x93, 0xbe,
    0xdb, 0x00, 0x72, 0xbe, 0xb8, 0x87, 0xa0, 0xbe, 0x83, 0x7d, 0xeb, 0xbd,
    0x76, 0x37, 0xe7, 0xbd, 0x29, 0x61, 0xd0, 0xbd, 0x23, 0x05, 0x3b, 0x3d,
    0x33, 0x65, 0x77, 0x3c, 0xaf, 0xd2, 0x36, 0x3d, 0xdb, 0x30, 0xae, 0xbd,
    0x5c, 0xba, 0xeb, 0x3d, 0xaa, 0x04, 0xb5, 0xbe, 0xf6, 0x2b, 0x0b, 0xbd,
    0xce, 0x6a, 0xe8, 0xbd, 0xae, 0xde, 0x81, 0x3d, 0x03, 0x03, 0x96, 0xbc,
    0xfa, 0x8f, 0xbf, 0xbd, 0x29, 0xc9, 0x54, 0x3d, 0x15, 0xb0, 0x6f, 0x3d,
    0x3c, 0x04, 0x0d, 0x3d, 0x10, 0x58, 0x15, 0xbe, 0x49, 0xad, 0x36, 0x3d,
    0x8c, 0xb9, 0x1c, 0x3e, 0x3d, 0x1f, 0x0b, 0xbb, 0xa2, 0x9f, 0xd2, 0x3d,
    0x6f, 0x3a, 0x65, 0xbc, 0xec, 0xb6, 0x84, 0x3d, 0xc9, 0xe7, 0xd3, 0xbd,
    0x4b, 0x46, 0xca, 0xbd, 0xb0, 0xb6, 0x9b, 0x3d, 0xb7, 0x01, 0x9a, 0xbd,
    0xfd, 0x25, 0x28, 0x3c, 0x1c, 0x5c, 0x10, 0xbe, 0xac, 0x40, 0xec, 0x3c,
    0x8c, 0xea, 0x37, 0xbd, 0xb5, 0x50, 0x27, 0xbe, 0x7d, 0xd2, 0xe9, 0xbd,
    0x69, 0xef, 0x89, 0x3c, 0x91, 0xea, 0x54, 0x3e, 0xd9, 0xe5, 0x23, 0x3c,
    0x88, 0xf1, 0x74, 0x3c, 0x03, 0xf2, 0x7b, 0x3d, 0x1d, 0xc7, 0x55, 0x3e,
    0x1d, 0x7a, 0x9b, 0xbd, 0xa5, 0x4b, 0x01, 0xbd, 0x66, 0xef, 0x14, 0x3e,
    0xe4, 0xa3, 0x89, 0x3d, 0x52, 0xbd, 0x86, 0xbc, 0x2f, 0x6e, 0xeb, 0xbd,
    0xee, 0xe8, 0x8c, 0xbe, 0x5c, 0xc0, 0x70, 0xbe, 0xf3, 0xa1, 0x9f, 0xbc,
    0x67, 0x1b, 0xf3, 0xba, 0xf8, 0x72, 0xc7, 0xbb, 0xff, 0xb9, 0x25, 0x3e,
    0x0a, 0x66, 0xfb, 0xbd, 0xab, 0xb8, 0xc3, 0xbc, 0x15, 0x96, 0x4c, 0x3e,
    0xd3, 0xde, 0x55, 0x3e, 0x0f, 0x0c, 0x1c, 0xbd, 0x46, 0x02, 0x86, 0xbd,
    0x07, 0x1c, 0x28, 0x3e, 0xca, 0xcf, 0x8c, 0xbe, 0xdb, 0x2b, 0xe0, 0x3b,
    0x14, 0xf3, 0x79, 0xbc, 0x54, 0xe6, 0x0d, 0xbe, 0x49, 0x37, 0xda, 0xbd,
    0xa9, 0x2a, 0xcf, 0xbd, 0x25, 0xd9, 0xa7, 0x3d, 0x9a, 0x8d, 0x34, 0x3d,
    0x33, 0x0e, 0x4b, 0x3e, 0x4a, 0x25, 0x4d, 0xbe, 0xf1, 0x78, 0xd7, 0x3d,
    0xf1, 0xd5, 0xfd, 0x3d, 0x12, 0xdd, 0x05, 0x3e, 0xb0, 0x66, 0x12, 0x3d,
    0x78, 0x66, 0xda, 0xbc, 0xc5, 0xb9, 0x89, 0xbe, 0x6e, 0x93, 0x73, 0x3b,
    0xb7, 0x28, 0x70, 0xbc, 0x74, 0x56, 0x64, 0xbd, 0xd0, 0x8d, 0xb0, 0x3d,
    0xfc, 0x0a, 0x41, 0xbd, 0xaa, 0x86, 0x82, 0x3d, 0x6b, 0x8a, 0xaa, 0xbd,
    0xf7, 0x3a, 0x6e, 0xbd, 0x73, 0x76, 0xe9, 0x3d, 0x14, 0x0e, 0x99, 0xbd,
    0x78, 0xb2, 0x39, 0xbc, 0xe7, 0xc8, 0x8c, 0x3d, 0x60, 0xde, 0x32, 0x3e,
    0x55, 0x3e, 0x4f, 0xbd, 0x97, 0x40, 0x05, 0xbe, 0x2b, 0x87, 0x32, 0xbe,
    0xd6, 0x34, 0x3f, 0xbe, 0xd5, 0x82, 0x0a, 0xbd, 0x03, 0xb4, 0x3f, 0xbe,
    0x47, 0xc5, 0x12, 0xbd, 0x07, 0x1b, 0x33, 0xbe, 0xd0, 0xd2, 0x9c, 0xbe,
    0xb7, 0x67, 0x13, 0x3d, 0x55, 0x78, 0x2b, 0xbe, 0xa7, 0x00, 0x22, 0x3e,
    0xa3, 0xcc, 0x34, 0xbd, 0x1a, 0xcd, 0xda, 0x3d, 0x98, 0xd3, 0xf9, 0x3d,
    0x45, 0x94, 0x53, 0x3e, 0x00, 0x64, 0x41, 0xbd, 0x1e, 0x2e, 0x14, 0xbe,
    0xc8, 0xeb, 0xd6, 0x3b, 0x4d, 0xde, 0x46, 0x3e, 0xdc, 0x81, 0x16, 0xbd,
    0x4c, 0xba, 0x2e, 0xbe, 0xa8, 0xb2, 0x2a, 0xbd, 0x87, 0x6c, 0x15, 0x3d,
    0xe7, 0x79, 0x1c, 0xbe, 0x88, 0xff, 0xe0, 0x3c, 0x1f, 0xac, 0x5c, 0xbd,
    0x5e, 0x0b, 0x45, 0x3e, 0xab, 0xa9, 0xb3, 0xbb, 0xbd, 0x9b, 0x00, 0x3e,
    0x2a, 0xba, 0x7c, 0x3d, 0x61, 0xbc, 0x73, 0x3e, 0x24, 0x23, 0x6c, 0xbd,
    0xda, 0x08, 0xb6, 0xbd, 0xc5, 0xeb, 0xaa, 0xbe, 0x3c, 0xda, 0xab, 0xbd,
    0xc9, 0x08, 0x2c, 0xbd, 0xa4, 0x80, 0x5f, 0xbe, 0xa7, 0x61, 0x60, 0xbe,
    0x1b, 0xbb, 0x2a, 0xbe, 0x4c, 0x59, 0x3e, 0xbe, 0xfe, 0x90, 0x59, 0x3e,
    0x46, 0x38, 0x63, 0xbe, 0xaa, 0x51, 0x2e, 0x3e, 0xfd, 0xfd, 0x6d, 0xbd,
    0x8a, 0xa9, 0xb7, 0xbb, 0x18, 0xa9, 0xfc, 0x3d, 0xb0, 0xce, 0xf7, 0x3d,
    0x4e, 0xac, 0x53, 0xbe, 0x31, 0xa4, 0x84, 0xbd, 0xe3, 0x35, 0x9c, 0xbe,
    0x37, 0x0d, 0x27, 0xbd, 0x52, 0xef, 0x89, 0xbd, 0xec, 0x16, 0x23, 0xbe,
    0x80, 0x82, 0xa6, 0xbc, 0x3b, 0x39, 0x71, 0x3c, 0x92, 0x51, 0x16, 0xbe,
    0xab, 0xd2, 0x03, 0x3e, 0x81, 0xf5, 0x1d, 0xbe, 0x46, 0x55, 0x1e, 0x3e,
    0x2c, 0x7c, 0x18, 0x3e, 0x5e, 0x16, 0x2d, 0x3d, 0x39, 0x04, 0x94, 0x3b,
    0xb7, 0xe8, 0x7e, 0x3e, 0x55, 0xba, 0xaf, 0xbd, 0x6d, 0x9b, 0xee, 0xbd,
    0x11, 0x87, 0x4b, 0xbc, 0xb5, 0xf1, 0x17, 0xbe, 0x18, 0x59, 0xbb, 0xbc,
    0x4d, 0x93, 0xcc, 0xbd, 0x78, 0x3c, 0xb8, 0x3d, 0xaf, 0x08, 0x61, 0xbe,
    0xaa, 0xd8, 0x06, 0xbe, 0x01, 0xaa, 0x97, 0xbb, 0x95, 0x7e, 0xc3, 0xbe,
    0x51, 0x09, 0x7e, 0x3e, 0x62, 0xe7, 0x71, 0x3d, 0x5a, 0xee, 0x4c, 0x3e,
    0x15, 0x89, 0x2a, 0x3e, 0xa3, 0xdb, 0x44, 0x3e, 0xe0, 0x6b, 0x5f, 0xbd,
    0xf6, 0x0b, 0xd9, 0xbd, 0x08, 0x31, 0xc8, 0xbc, 0xe7, 0xcd, 0x13, 0xbe,
    0x62, 0x5f, 0xa1, 0x3c, 0x04, 0xac, 0x4d, 0xbe, 0x84, 0x94, 0x83, 0xbe,
    0x3e, 0x92, 0x99, 0xbe, 0xbe, 0x03, 0x82, 0xbe, 0xcc, 0x63, 0x9c, 0x3b,
    0xd1, 0xcf, 0x23, 0xbe, 0x59, 0x9c, 0x55, 0x3e, 0xe5, 0xeb, 0x26, 0xbe,
    0x33, 0x03, 0x1b, 0x3e, 0x17, 0xea, 0xf7, 0xbc, 0xc2, 0x22, 0x08, 0xbe,
    0x44, 0x32, 0xcb, 0xbd, 0xa3, 0xa2, 0x48, 0xbe, 0xa9, 0x0a, 0xa0, 0xbe,
    0xfe, 0x2f, 0x04, 0x3e, 0x62, 0xbe, 0x27, 0x3d, 0x2e, 0xe6, 0xaf, 0xbe,
    0x5f, 0x07, 0x4c, 0xbd, 0xea, 0xa0, 0x74, 0xbe, 0xd6, 0x21, 0x13, 0xbf,
    0xaf, 0x1d, 0xea, 0xbd, 0x80, 0x38, 0x6c, 0xbe, 0x07, 0x7c, 0x89, 0xbe,
    0x05, 0xd9, 0x78, 0xbe, 0xf8, 0xa6, 0xa1, 0x3d, 0xc4, 0xb0, 0x8d, 0xbd,
    0x83, 0x7f, 0x0b, 0xbe, 0xf6, 0xff, 0x26, 0x3d, 0x1f, 0xb6, 0xc4, 0xbd,
    0x73, 0x4d, 0x1b, 0xbe, 0x0e, 0xbe, 0x34, 0x3e, 0xe7, 0x4a, 0xad, 0x3d,
    0x57, 0x98, 0xd3, 0xbe, 0xc2, 0x17, 0x97, 0x3d, 0xf7, 0xfd, 0xaf, 0x3d,
    0xde, 0xfd, 0xcf, 0xbe, 0xdf, 0xf9, 0x6b, 0xbd, 0x49, 0x12, 0xb7, 0xbe,
    0x20, 0xb2, 0xe3, 0xbe, 0x00, 0xcd, 0xaa, 0xbe, 0xde, 0x03, 0xae, 0x3d,
    0x90, 0x27, 0x1e, 0x3d, 0xae, 0xcd, 0x87, 0xbe, 0x34, 0xff, 0x45, 0xbd,
    0xe3, 0x3e, 0xb5, 0xbd, 0x36, 0x29, 0xe8, 0x3d, 0xb8, 0xea, 0xb4, 0xbd,
    0x30, 0x29, 0xbf, 0x3c, 0x49, 0x8c, 0xa0, 0xbe, 0x4d, 0x93, 0xa7, 0xbe,
    0xce, 0xe6, 0x06, 0xbf, 0xc4, 0x11, 0x8f, 0xbe, 0x0a, 0xd8, 0xb9, 0xbe,
    0xa5, 0x0b, 0x58, 0x3d, 0x79, 0xd1, 0xa7, 0xbe, 0x10, 0xb2, 0x61, 0xbe,
    0x2c, 0xe8, 0x54, 0x3d, 0x98, 0xb6, 0x2b, 0xbd, 0x32, 0x98, 0x35, 0x3d,
    0xcb, 0x81, 0xbc, 0xbd, 0x09, 0x2c, 0x76, 0xbe, 0x6f, 0xa2, 0x47, 0xbd,
    0x3d, 0xcc, 0xfb, 0xbd, 0xd9, 0xf3, 0xec, 0xbc, 0x8c, 0x65, 0xc7, 0xbc,
    0x8f, 0x25, 0x02, 0x3c, 0x6f, 0xe3, 0x18, 0x3c, 0x77, 0xbc, 0xed, 0xbd,
    0xb0, 0x23, 0xf1, 0xbc, 0xdd, 0x52, 0x65, 0xbd, 0xab, 0x9c, 0x08, 0xbe,
    0x7a, 0x15, 0x0f, 0xbe, 0xe9, 0xaa, 0x12, 0xbe, 0xbb, 0x41, 0x4f, 0x3d,
    0x0b, 0x19, 0x03, 0xbe, 0x86, 0x5d, 0x90, 0xbe, 0x22, 0xab, 0x5a, 0x3b,
    0x82, 0x35, 0xdb, 0xbd, 0x8f, 0xc5, 0x31, 0xbd, 0xd2, 0x7e, 0xac, 0x3a,
    0xb4, 0x6f, 0x66, 0xbc, 0x40, 0xf9, 0x09, 0xbc, 0x26, 0x0a, 0x5c, 0x3d,
    0xd0, 0x0e, 0x30, 0xbc, 0xba, 0x06, 0xb5, 0x3d, 0xae, 0xad, 0x04, 0xbd,
    0xc4, 0xd2, 0xa6, 0xbc, 0x1a, 0x84, 0x01, 0xbc, 0xaa, 0x41, 0xa8, 0xbd,
    0x6f, 0x17, 0x7c, 0xbc, 0x99, 0xf5, 0x50, 0x3a, 0x41, 0x98, 0x7c, 0xbe,
    0x6a, 0xad, 0xfb, 0x3c, 0x2c, 0x2f, 0x15, 0xbe, 0x15, 0x85, 0xef, 0x3d,
    0x96, 0xe3, 0xc0, 0xbd, 0x50, 0x0f, 0xe0, 0xbd, 0xd9, 0x30, 0x17, 0xbe,
    0xfa, 0x95, 0xc6, 0xbd, 0x2a, 0xb2, 0x5b, 0x3d, 0x74, 0x45, 0xaa, 0xbb,
    0x8f, 0xd9, 0xeb, 0xbd, 0x71, 0x6b, 0x45, 0x3d, 0x07, 0x16, 0xe1, 0xbb,
    0x25, 0x3b, 0xba, 0xbd, 0x45, 0xca, 0x10, 0x3e, 0xa9, 0x7e, 0xb7, 0xbd,
    0x73, 0xb8, 0x23, 0xbe, 0x42, 0xa4, 0x64, 0xbd, 0xe0, 0x05, 0xcf, 0xbd,
    0x71, 0x54, 0x9b, 0x3d, 0x3a, 0xc7, 0x1f, 0xbe, 0xed, 0x8f, 0x30, 0xbe,
    0x0b, 0xdf, 0x6b, 0xbd, 0xa3, 0x69, 0x50, 0x3c, 0x0a, 0xc8, 0x11, 0xbe,
    0x44, 0x36, 0x29, 0x3d, 0x70, 0xc6, 0xbd, 0x3d, 0x70, 0xe0, 0xd2, 0xbb,
    0x17, 0x34, 0x53, 0x3d, 0x0c, 0x88, 0xda, 0x3d, 0x24, 0xb0, 0x13, 0x3d,
    0x90, 0xe7, 0xb7, 0x3c, 0xa0, 0x77, 0x85, 0xbe, 0xef, 0xcd, 0xf3, 0x3b,
    0xe8, 0x8f, 0xd1, 0xbd, 0x6c, 0xe9, 0x32, 0xbe, 0x70, 0x54, 0xe8, 0x3d,
    0xc5, 0x59, 0x07, 0xbe, 0xe0, 0x36, 0x12, 0x3c, 0x6a, 0x0c, 0x96, 0x3d,
    0x64, 0x77, 0x39, 0x3d, 0x66, 0x4c, 0x07, 0xbe, 0x42, 0x1d, 0x15, 0xbe,
    0xbf, 0xc0, 0xfe, 0xbd, 0x70, 0x09, 0x15, 0xbd, 0xe7, 0xeb, 0x96, 0x3d,
    0xf9, 0x93, 0x44, 0xbd, 0x5d, 0x46, 0x41, 0xbe, 0x7b, 0xbf, 0x03, 0xbe,
    0xec, 0x95, 0x3f, 0xbe, 0x18, 0x3c, 0x0f, 0xbe, 0xaa, 0x82, 0x01, 0x3e,
    0xca, 0x7f, 0x07, 0xbe, 0xb2, 0x08, 0x33, 0xbe, 0xee, 0x2a, 0x52, 0xbd,
    0xee, 0x93, 0x2b, 0xbe, 0x09, 0x50, 0xc9, 0xbd, 0x1f, 0x01, 0xad, 0xbd,
    0x2a, 0x41, 0x9c, 0xbd, 0x9d, 0x85, 0x60, 0x3d, 0x7b, 0xed, 0xe9, 0xbc,
    0x04, 0x4f, 0x9a, 0x3d, 0x7c, 0xb8, 0x5e, 0xbd, 0xbf, 0x2b, 0x1c, 0xbe,
    0xf9, 0x9a, 0x1b, 0xbd, 0x80, 0x4e, 0xc4, 0x3d, 0x83, 0x2a, 0x77, 0x3d,
    0x4d, 0x82, 0x28, 0x3d, 0x52, 0x41, 0xb2, 0xbd, 0xec, 0x6f, 0x68, 0xbe,
    0x74, 0xfc, 0xd4, 0xbd, 0x5e, 0xf2, 0x9b, 0xbd, 0x1f, 0xd2, 0xb2, 0x3d,
    0x8e, 0xe4, 0xe7, 0x3d, 0xfd, 0x9f, 0x17, 0xbe, 0xe4, 0x65, 0x8b, 0xbc,
    0x4e, 0xac, 0x9e, 0x3c, 0xcb, 0x2d, 0x7a, 0x3d, 0xd4, 0x00, 0x17, 0x3e,
    0x34, 0x75, 0x40, 0xbe, 0xe8, 0x12, 0xf7, 0xbd, 0xc1, 0x15, 0x02, 0x3d,
    0x2a, 0x21, 0xe7, 0x3d, 0x79, 0xff, 0xf8, 0xbd, 0x6b, 0x8d, 0xb0, 0xbd,
    0x77, 0xcc, 0x42, 0xbe, 0x00, 0x9e, 0x6b, 0xbd, 0x24, 0xf1, 0xc5, 0xbd,
    0x9f, 0x8f, 0x6f, 0xbd, 0x02, 0x10, 0x9f, 0xbd, 0x0a, 0xfd, 0xa7, 0xbd,
    0xa6, 0x83, 0x18, 0xbe, 0x86, 0xa7, 0x5e, 0x3d, 0xd9, 0x16, 0x5d, 0xbe,
    0x4c, 0xa1, 0x88, 0x3d, 0xa3, 0xab, 0x11, 0xbb, 0x74, 0x2c, 0xa4, 0xbd,
    0x66, 0xe8, 0x83, 0x3d, 0x21, 0x85, 0x78, 0x3d, 0x26, 0x8b, 0x8b, 0x3c,
    0xa3, 0x60, 0x85, 0xbd, 0x66, 0x28, 0x40, 0x3c, 0xd8, 0x53, 0xa9, 0x3d,
    0x52, 0xd6, 0xbe, 0x3c, 0x19, 0x24, 0x24, 0xbe, 0x88, 0xf0, 0x34, 0x3d,
    0xfd, 0x3c, 0xfd, 0xbd, 0xd4, 0x41, 0x06, 0xbe, 0x18, 0x14, 0x06, 0xbe,
    0x3d, 0xbf, 0x51, 0xbe, 0xcd, 0x75, 0xd5, 0xbc, 0xc4, 0xef, 0x43, 0x3d,
    0xb9, 0x33, 0x94, 0x3c, 0x2c, 0x80, 0x49, 0xbe, 0x4a, 0x44, 0xdf, 0xbd,
    0x2b, 0x89, 0x01, 0x3e, 0x34, 0xa4, 0x40, 0xbd, 0x13, 0xf7, 0x02, 0xbd,
    0x6e, 0x06, 0xa1, 0x3d, 0xab, 0x17, 0x27, 0xbe, 0x6b, 0x69, 0x8e, 0xbc,
    0x3a, 0xdc, 0xbd, 0x3d, 0xac, 0xcd, 0x19, 0xbe, 0x32, 0x6b, 0x14, 0xbd,
    0x15, 0x7f, 0xf1, 0xbc, 0x41, 0x1a, 0xd9, 0x3d, 0xb1, 0xf0, 0xa0, 0xbd,
    0x79, 0x1c, 0x08, 0xbe, 0x17, 0xc7, 0x7e, 0xbe, 0xa6, 0x10, 0x1e, 0xbe,
    0x88, 0xce, 0xce, 0x3c, 0xcb, 0x92, 0x45, 0xbd, 0xe2, 0xc0, 0x1f, 0xbe,
    0x46, 0xf7, 0x4e, 0xbe, 0x21, 0x3c, 0xf2, 0x3d, 0xe5, 0x26, 0xcf, 0xbb,
    0x60, 0x08, 0x26, 0xbc, 0x2c, 0x42, 0x09, 0xbe, 0x11, 0x80, 0xd6, 0x3d,
    0x07, 0x40, 0xc5, 0x3b, 0xde, 0xd9, 0x02, 0xbe, 0x4f, 0x3d, 0x5e, 0xbe,
    0x97, 0x06, 0xf3, 0xbd, 0xd7, 0x54, 0x07, 0xbe, 0xd9, 0xc7, 0x11, 0xbd,
    0xb8, 0x11, 0xfa, 0xbc, 0x26, 0xbf, 0xd0, 0x3d, 0x4d, 0x16, 0xaa, 0xbd,
    0xf9, 0xef, 0x44, 0x3d, 0xa8, 0x33, 0xfb, 0xbd, 0x9d, 0xda, 0xde, 0x3d,
    0x2f, 0xb2, 0xe9, 0xbd, 0x28, 0x79, 0x5a, 0x3d, 0x95, 0x99, 0x03, 0xbe,
    0x83, 0x43, 0xec, 0xbd, 0x62, 0x58, 0x0f, 0xbe, 0x76, 0x25, 0x0d, 0xbd,
    0x19, 0xf4, 0x7f, 0x3c, 0x5c, 0xca, 0x96, 0xbd, 0x21, 0x3f, 0xbe, 0xbd,
    0x6e, 0x9c, 0xa0, 0xbd, 0xc1, 0x90, 0x0e, 0xbd, 0xea, 0x22, 0x86, 0xbd,
    0x41, 0x80, 0xfb, 0xbd, 0xdc, 0xef, 0x25, 0xbe, 0xee, 0x78, 0x8e, 0xbe,
    0x2d, 0x2a, 0xaa, 0x3d, 0x9c, 0xc8, 0x9e, 0xbd, 0xd5, 0x6a, 0x2e, 0x3d,
    0x73, 0x99, 0x22, 0xbe, 0x7d, 0x7d, 0x43, 0xbd, 0x80, 0xbc, 0xbc, 0xbd,
    0x39, 0x9e, 0xce, 0xbd, 0xec, 0x7b, 0x38, 0xbd, 0xba, 0x99, 0x08, 0x3d,
    0x6f, 0xd4, 0x12, 0xbe, 0x3d, 0x82, 0xed, 0xbd, 0xe3, 0x4b, 0xcc, 0x3d,
    0xe8, 0xab, 0x89, 0xbc, 0x20, 0x3b, 0x9b, 0xbd, 0x4e, 0x1e, 0x7b, 0xbd,
    0x37, 0xc0, 0x3e, 0xbe, 0xd0, 0x75, 0xc7, 0xbd, 0xb0, 0x0d, 0x96, 0xbe,
    0x7e, 0xf2, 0x5e, 0xbe, 0x4e, 0x4d, 0x04, 0xbe, 0x30, 0x14, 0x8b, 0x3d,
    0x9e, 0xcb, 0x4a, 0xbe, 0x83, 0x65, 0xbe, 0xbd, 0xdb, 0x64, 0x2e, 0x3d,
    0xd7, 0xb1, 0xa2, 0xbd, 0xa8, 0xd9, 0x2e, 0xbe, 0xcf, 0x04, 0x7b, 0xbe,
    0x25, 0x95, 0x56, 0xbe, 0xf0, 0xa6, 0xb0, 0xbc, 0xcb, 0x5f, 0x81, 0x3d,
    0x2a, 0xe4, 0x2b, 0xbe, 0x0f, 0x17, 0x63, 0xbe, 0x1b, 0xa6, 0x91, 0xbd,
    0x77, 0x16, 0x07, 0x3e, 0x63, 0xa7, 0xb1, 0x3d, 0xde, 0xc8, 0xb7, 0xbc,
    0x13, 0x1a, 0x23, 0xbe, 0x3d, 0x5b, 0xf6, 0x3d, 0x86, 0xce, 0x5c, 0xbe,
    0x32, 0xc3, 0xce, 0x3d, 0xfc, 0xad, 0x01, 0xbe, 0xce, 0x78, 0x21, 0xbe,
    0x3d, 0x39, 0xe2, 0xbb, 0x7f, 0x4f, 0x7a, 0xbd, 0x03, 0x2b, 0x14, 0xbd,
    0xc1, 0x43, 0x91, 0xbd, 0xa6, 0xeb, 0xc2, 0x3d, 0x78, 0x1d, 0x4c, 0xbe,
    0x33, 0x69, 0x81, 0xbd, 0x85, 0x39, 0xa0, 0x3d, 0x50, 0x59, 0x12, 0xbd,
    0x83, 0x28, 0xa6, 0x3c, 0x7f, 0x46, 0x8c, 0x3d, 0x9a, 0x9d, 0x29, 0xbe,
    0x79, 0x7a, 0x9f, 0x3b, 0x1d, 0x52, 0x42, 0x3e, 0x29, 0xcf, 0x02, 0x3e,
    0x62, 0x4d, 0x57, 0xbe, 0x37, 0xa8, 0xf4, 0xbd, 0xa7, 0xcf, 0x83, 0xbe,
    0xb6, 0xbb, 0xd3, 0xbd, 0xd0, 0x80, 0x38, 0xbe, 0x46, 0xb0, 0x92, 0x3e,
    0x07, 0x2d, 0xd2, 0xbe, 0xef, 0xa6, 0x26, 0xbe, 0x03, 0xbd, 0x2d, 0xbe,
    0xbb, 0x8b, 0x06, 0x3c, 0xd4, 0x2b, 0x81, 0xbc, 0xce, 0x3f, 0x3b, 0xbe,
    0x97, 0xf0, 0x12, 0xbf, 0xa8, 0xaf, 0x32, 0xbe, 0xdb, 0xe5, 0x22, 0x3e,
    0xe6, 0x6a, 0x12, 0x3d, 0xeb, 0xf7, 0x9a, 0x3c, 0x19, 0x0e, 0x2f, 0x3d,
    0x3f, 0xd2, 0x3f, 0xbe, 0x5e, 0xa3, 0x9f, 0xbd, 0x57, 0x00, 0x4c, 0xbe,
    0x26, 0x90, 0x86, 0x3d, 0xd8, 0x7a, 0x8e, 0xbe, 0x40, 0x6b, 0x05, 0xbe,
    0x3d, 0x07, 0x09, 0xbd, 0xa0, 0x5d, 0x27, 0x3d, 0x53, 0xb2, 0x5a, 0x3e,
    0xff, 0x31, 0xf3, 0x3d, 0x27, 0x7f, 0xf1, 0xbc, 0xc7, 0xd9, 0xb9, 0xbd,
    0xc7, 0x71, 0x4e, 0x3e, 0x33, 0x53, 0xdf, 0x3d, 0xfe, 0xc4, 0x85, 0x3c,
    0x4d, 0x06, 0x80, 0xbd, 0xd3, 0x35, 0xe8, 0xbc, 0x51, 0x17, 0x04, 0xbe,
    0x61, 0x05, 0x59, 0x3e, 0x0b, 0x87, 0xdd, 0xbc, 0xb7, 0x09, 0x68, 0xbb,
    0xec, 0xd0, 0x22, 0x3e, 0xb9, 0x6e, 0x47, 0x3e, 0x77, 0xe8, 0x01, 0x3d,
    0xba, 0xd5, 0x2c, 0x3e, 0xab, 0x11, 0x16, 0x3e, 0xef, 0x99, 0x2c, 0x3e,
    0x1a, 0xde, 0x9a, 0xbd, 0x9d, 0x07, 0x85, 0x3d, 0xb9, 0x3f, 0x0b, 0xbc,
    0x93, 0x3c, 0x08, 0x3d, 0xe8, 0xf6, 0xf2, 0xbd, 0x55, 0x8d, 0xe6, 0xbd,
    0x25, 0x6b, 0x00, 0xbe, 0x08, 0xd7, 0x06, 0x3e, 0xc7, 0xb8, 0x12, 0xbe,
    0x02, 0x2b, 0x87, 0x3b, 0xd3, 0xa7, 0x80, 0xbd, 0xb4, 0xd6, 0x8b, 0x3e,
    0x4a, 0x22, 0xd3, 0x3d, 0x88, 0xdb, 0x70, 0x3d, 0x1e, 0x50, 0xa1, 0x3d,
    0x10, 0x39, 0xcc, 0xbd, 0xf1, 0xfe, 0x72, 0xbb, 0x16, 0x85, 0x8e, 0x3d,
    0x4b, 0x3e, 0x45, 0x3e, 0x7c, 0xa9, 0x2f, 0xbd, 0xe2, 0x9b, 0xd4, 0xbd,
    0xbd, 0x08, 0x4c, 0xbe, 0xd1, 0xbc, 0xe1, 0xbc, 0xfb, 0xf9, 0x98, 0xbd,
    0x40, 0x0d, 0x1a, 0x3e, 0x69, 0xeb, 0x47, 0xbd, 0x30, 0xc1, 0x8d, 0xbe,
    0xbf, 0xf7, 0xa5, 0xbe, 0x85, 0xa7, 0x7d, 0x3d, 0x86, 0x2c, 0x1b, 0x3e,
    0x72, 0x5f, 0xdb, 0x3b, 0xa2, 0x7d, 0x9a, 0xbe, 0xe7, 0x40, 0x86, 0xbd,
    0xca, 0x4a, 0x17, 0x3d, 0xcb, 0x9e, 0xc7, 0x3d, 0x2b, 0x8b, 0x64, 0xbd,
    0x9f, 0xb7, 0x3c, 0xbe, 0x9c, 0xd7, 0x88, 0xbe, 0x6f, 0xcf, 0x81, 0xbe,
    0x2d, 0xb7, 0xc3, 0xba, 0xe1, 0xc1, 0x0b, 0xbe, 0x0a, 0x4f, 0x21, 0xbe,
    0xce, 0x86, 0x20, 0x3c, 0x72, 0x74, 0xc2, 0xbd, 0xfd, 0x68, 0x3e, 0x3e,
    0x87, 0xd8, 0xd2, 0x3b, 0x6d, 0xed, 0xde, 0xbd, 0x1f, 0xc8, 0xc4, 0xba,
    0x93, 0x96, 0x2d, 0xbc, 0xe5, 0x64, 0x8f, 0xbe, 0x1b, 0x35, 0x44, 0xbe,
    0xf0, 0x39, 0xcd, 0x3d, 0xb3, 0x79, 0x20, 0xbe, 0x44, 0xbf, 0x20, 0xbe,
    0x65, 0x58, 0x89, 0xbe, 0x70, 0xdb, 0xdd, 0xbd, 0x91, 0x99, 0x86, 0xbe,
    0xc1, 0xf2, 0xc8, 0xbd, 0x74, 0x61, 0x7e, 0x3d, 0x9c, 0x75, 0x70, 0x3b,
    0x0d, 0x6a, 0x2e, 0x3e, 0xcd, 0x24, 0x4b, 0x3e, 0x64, 0x06, 0xb9, 0xbd,
    0x58, 0x7d, 0xc0, 0xbe, 0x5e, 0x1e, 0x66, 0xbd, 0x6f, 0xf7, 0x07, 0x3c,
    0x9a, 0x62, 0x85, 0xbd, 0x87, 0xb7, 0x16, 0xbe, 0xfb, 0x6b, 0x6b, 0xbe,
    0xdd, 0x75, 0x7b, 0xbe, 0x6d, 0x10, 0xc9, 0x3d, 0x68, 0x35, 0x52, 0x3d,
    0x44, 0x90, 0x7a, 0xbe, 0x47, 0xbe, 0x5c, 0xbe, 0x5b, 0xce, 0x27, 0xbe,
    0x07, 0xf5, 0x10, 0xbe, 0x95, 0x5a, 0x03, 0x3e, 0x44, 0x85, 0xe3, 0xbd,
    0xfd, 0xbc, 0x9f, 0xbc, 0xa4, 0xbb, 0x00, 0xbf, 0x69, 0x30, 0x0f, 0xbd,
    0x22, 0xda, 0x61, 0xbd, 0x0f, 0x30, 0x92, 0xbd, 0xb0, 0x54, 0x3d, 0xbe,
    0x7e, 0x8f, 0x34, 0x3c, 0x18, 0xcc, 0x3e, 0xbe, 0x40, 0xe9, 0x95, 0xbd,
    0x74, 0x3d, 0x1d, 0x3d, 0xd7, 0xd7, 0xb6, 0xbe, 0xf5, 0x04, 0x2e, 0xbe,
    0x80, 0x70, 0x5f, 0xbe, 0x56, 0x4a, 0x16, 0xbd, 0x2a, 0xd8, 0x37, 0x3e,
    0xd8, 0x96, 0x19, 0x3e, 0x67, 0x13, 0x85, 0x3e, 0x88, 0x0a, 0x0e, 0xbe,
    0x5a, 0xf0, 0x83, 0xbb, 0xc3, 0xda, 0xb2, 0xbd, 0x53, 0xcd, 0x01, 0xbd,
    0x7c, 0xb0, 0x37, 0x3e, 0x0e, 0x6f, 0x81, 0xbe, 0x8b, 0x04, 0xd2, 0xbd,
    0x57, 0xd3, 0x42, 0x3d, 0xc8, 0xbc, 0x6c, 0xbd, 0x1c, 0xb3, 0xde, 0xbe,
    0xfd, 0xcb, 0x0f, 0xbe, 0x33, 0x44, 0x54, 0xbd, 0x07, 0x43, 0x09, 0x3e,
    0x65, 0x57, 0x49, 0x3e, 0x09, 0xc6, 0xbc, 0xbd, 0x4d, 0x56, 0x92, 0x3d,
    0x80, 0x34, 0xb2, 0xbd, 0x67, 0x24, 0xa2, 0xbc, 0x0a, 0x09, 0x57, 0xbd,
    0x4b, 0xe7, 0xb9, 0xbd, 0xc2, 0xda, 0xa4, 0x3d, 0x8a, 0x9d, 0x89, 0xbe,
    0xbc, 0xae, 0xf7, 0x3d, 0x51, 0x1b, 0xe8, 0xbd, 0xc6, 0x0c, 0xa9, 0x3d,
    0xb0, 0xfc, 0xd0, 0xbe, 0xd8, 0x5e, 0x5b, 0xbe, 0x3c, 0x4e, 0x41, 0x3e,
    0xf6, 0xda, 0xb4, 0x3e, 0x02, 0x93, 0xd2, 0x3e, 0x70, 0x30, 0x82, 0xbd,
    0x79, 0x59, 0x13, 0x3e, 0x8b, 0xc4, 0xfc, 0xbe, 0xdb, 0x13, 0xf6, 0x3d,
    0xc1, 0x79, 0x9c, 0xbd, 0xa5, 0x2a, 0xcf, 0xbc, 0x56, 0x4c, 0x0e, 0x3d,
    0x0d, 0xb9, 0xc5, 0xbd, 0xac, 0x1c, 0xae, 0x3e, 0xb4, 0xb3, 0x12, 0x3d,
    0x96, 0x70, 0xb3, 0x3c, 0x2e, 0x4a, 0xc3, 0xbe, 0x5e, 0x91, 0xcb, 0x3c,
    0xd1, 0xa4, 0xbe, 0x3d, 0xf9, 0x69, 0x45, 0x3d, 0xa8, 0xc7, 0x3f, 0xbe,
    0x58, 0x94, 0x31, 0xbf, 0xb1, 0x42, 0x9d, 0x3d, 0x6f, 0x61, 0x20, 0xbe,
    0x66, 0x93, 0x2b, 0xbd, 0x10, 0xfb, 0x07, 0xbe, 0x2a, 0xe2, 0xad, 0xbd,
    0x48, 0x9f, 0x12, 0x3e, 0xf1, 0xb3, 0xd8, 0xbc, 0x2b, 0xf4, 0xfe, 0x3e,
    0x8b, 0x21, 0x8c, 0x3e, 0x02, 0xfc, 0xba, 0x3d, 0xda, 0xe1, 0xe0, 0xbe,
    0x90, 0xd0, 0x61, 0xbe, 0x7a, 0xb7, 0x90, 0xbd, 0xa0, 0xf8, 0xa8, 0xbe,
    0x3b, 0xd1, 0x72, 0xbe, 0x2e, 0x8f, 0xeb, 0x3c, 0xac, 0x72, 0xa5, 0xbd,
    0x8b, 0x9e, 0xc3, 0x3d, 0x65, 0x61, 0x74, 0xbd, 0xd4, 0xa1, 0x2e, 0xbe,
    0xce, 0x1a, 0x20, 0xbc, 0xd7, 0xdc, 0x68, 0x3d, 0x36, 0xb6, 0x2e, 0x3d,
    0xc5, 0xec, 0xba, 0xbd, 0xde, 0x2a, 0xff, 0x3d, 0x9d, 0x41, 0xd2, 0x3d,
    0x97, 0xb3, 0xa3, 0xbe, 0x20, 0xdd, 0x7f, 0x3d, 0xb6, 0x82, 0xaf, 0x3d,
    0x6e, 0xca, 0x28, 0x3e, 0x98, 0x63, 0x3c, 0x3e, 0x58, 0xef, 0xac, 0x3c,
    0x78, 0x13, 0xc6, 0xbd, 0x1a, 0xfb, 0x0d, 0xbc, 0x2a, 0xb2, 0xa4, 0x3b,
    0x4a, 0x60, 0x12, 0x3d, 0x04, 0xaf, 0x3f, 0xbd, 0xf8, 0xe9, 0x36, 0xbd,
    0x0f, 0xe4, 0x91, 0x3d, 0xbe, 0xf1, 0xac, 0x3d, 0xcd, 0xc1, 0xdb, 0x3e,
    0x7d, 0xc1, 0xd5, 0xbd, 0xe8, 0x6d, 0x3f, 0xbe, 0xa1, 0xdf, 0xcd, 0x3d,
    0xe7, 0xec, 0x08, 0x3e, 0xf6, 0x43, 0x45, 0x3d, 0x21, 0x32, 0xca, 0x3d,
    0x14, 0xb8, 0x24, 0x3d, 0x62, 0x4a, 0x1a, 0xbe, 0x1f, 0xa9, 0xb7, 0xbd,
    0x37, 0x9a, 0xc1, 0xbd, 0x71, 0xb0, 0x3b, 0x3e, 0xca, 0xbd, 0x0b, 0x3e,
    0x07, 0x19, 0x9f, 0xbc, 0xad, 0x0c, 0x3c, 0x3b, 0x59, 0xb4, 0xea, 0xbc,
    0x5f, 0x72, 0x17, 0x3e, 0x82, 0x3d, 0xe6, 0xbd, 0x9a, 0x9a, 0xa8, 0x3c,
    0x94, 0x06, 0xcb, 0x3d, 0xf3, 0x72, 0x8d, 0x3e, 0x8b, 0x3c, 0xcc, 0x3d,
    0xd1, 0xc1, 0x7a, 0x3e, 0x6b, 0x20, 0x7a, 0x3e, 0x56, 0x03, 0x3a, 0xbe,
    0x65, 0xfa, 0xe3, 0x3d, 0x5c, 0xba, 0x12, 0xbe, 0x18, 0x60, 0xe5, 0x3d,
    0x69, 0xb8, 0x98, 0xbe, 0x0c, 0xec, 0xed, 0xbc, 0xb4, 0x8b, 0x93, 0xbe,
    0x10, 0x6c, 0x6f, 0x3e, 0xd7, 0xf4, 0xe2, 0x3d, 0x8c, 0xb1, 0x0f, 0xbe,
    0x37, 0x2f, 0x3e, 0xbe, 0x9b, 0xc0, 0x80, 0xbd, 0x58, 0x18, 0x7b, 0x3e,
    0x85, 0xb9, 0xb8, 0x3d, 0x26, 0xf9, 0xe1, 0x3d, 0xf3, 0xc5, 0xdc, 0x3d,
    0xf2, 0x0e, 0x44, 0xbd, 0xc2, 0x23, 0x49, 0x3d, 0xa2, 0x7e, 0x04, 0xbd,
    0xd2, 0xe4, 0xcd, 0x3c, 0x0e, 0x83, 0x97, 0xbe, 0x86, 0x2b, 0x1a, 0x3e,
    0xc2, 0x76, 0x07, 0xbe, 0xe0, 0x6b, 0x2d, 0x3e, 0x3d, 0x2b, 0x2f, 0x3e,
    0xf5, 0x5c, 0xb5, 0x3d, 0x0e, 0xea, 0xa8, 0xbe, 0xbb, 0xbc, 0xc0, 0xbc,
    0x30, 0x95, 0x8b, 0x3e, 0x2d, 0xe8, 0x10, 0x3e, 0x29, 0x0c, 0x18, 0x3c,
    0x54, 0xd1, 0x04, 0x3e, 0xb6, 0x91, 0xce, 0xbd, 0x06, 0xbd, 0x03, 0x3e,
    0xfc, 0x58, 0x91, 0x3d, 0x76, 0xbb, 0xf7, 0xbc, 0xdb, 0xe1, 0xeb, 0xbc,
    0xd8, 0x5e, 0x45, 0x3e, 0x6c, 0x73, 0x1f, 0x3e, 0x63, 0x81, 0xb4, 0x3d,
    0x08, 0x65, 0xb1, 0xbc, 0x11, 0x43, 0x62, 0x3e, 0xeb, 0x84, 0x0a, 0xbf,
    0x4e, 0x34, 0xc1, 0x3d, 0x3b, 0xbe, 0x1f, 0x3e, 0x3a, 0x89, 0xf5, 0x3d,
    0xd3, 0x5e, 0x0e, 0x3e, 0xa7, 0x51, 0x1c, 0x3e, 0x79, 0x56, 0xe5, 0xbd,
    0x08, 0x88, 0x19, 0xbd, 0xe8, 0x82, 0xa7, 0xbc, 0x50, 0xf6, 0xa2, 0xbd,
    0xa6, 0xe4, 0x9e, 0x3d, 0x89, 0x9e, 0xda, 0xbc, 0x47, 0xea, 0x58, 0xbe,
    0x2f, 0x05, 0xd8, 0x3d, 0xdb, 0xa2, 0x6a, 0x3e, 0x82, 0x32, 0x4c, 0xbd,
    0x21, 0x0c, 0xb9, 0xbe, 0xb5, 0x81, 0xfe, 0x3d, 0x13, 0x39, 0x74, 0x3e,
    0x03, 0x8b, 0xc0, 0x3e, 0x65, 0x88, 0x23, 0x3e, 0x10, 0x3f, 0x23, 0x3e,
    0xbc, 0xa3, 0xb3, 0xbd, 0x36, 0xe3, 0x72, 0x3d, 0xe8, 0x2f, 0x8a, 0x3d,
    0x30, 0x7f, 0xd2, 0x3c, 0xbe, 0x77, 0x2d, 0xbd, 0xe5, 0x35, 0xa8, 0x3d,
    0xb2, 0x0e, 0x76, 0xbd, 0x5c, 0xcb, 0x24, 0x3e, 0x66, 0xb5, 0xff, 0x3e,
    0x88, 0x41, 0x91, 0xbd, 0x88, 0x90, 0x94, 0xbe, 0x10, 0xc2, 0x11, 0xbc,
    0x50, 0xb3, 0x64, 0x3e, 0x3c, 0xb1, 0x76, 0x3e, 0x37, 0x84, 0x80, 0x3e,
    0xe0, 0x5b, 0x50, 0x3e, 0x16, 0xb2, 0x8f, 0xbd, 0x68, 0x76, 0x25, 0xbd,
    0x33, 0x2a, 0x50, 0xbe, 0x06, 0x72, 0x37, 0xbd, 0x1e, 0xa6, 0xd9, 0x3d,
    0xd2, 0xd5, 0x33, 0x3e, 0xc6, 0xa6, 0x22, 0xbe, 0x42, 0x7a, 0x70, 0x3e,
    0x56, 0xf6, 0xc1, 0x3e, 0x37, 0x08, 0x89, 0xbd, 0x9e, 0x32, 0x54, 0xbf,
    0x3c, 0x8e, 0x6d, 0xbd, 0xe1, 0xdc, 0x9d, 0x3e, 0xf7, 0x91, 0xc8, 0x3d,
    0xc7, 0x78, 0x97, 0x3d, 0x20, 0xe2, 0xed, 0x3d, 0xd7, 0x8b, 0xf0, 0x3d,
    0xb4, 0x1f, 0xcf, 0xbd, 0x05, 0xb8, 0x02, 0xbe, 0xe7, 0x87, 0x02, 0xbe,
    0x2f, 0x42, 0x2d, 0x3d, 0xf8, 0x9c, 0x13, 0x3c, 0x05, 0x3b, 0x9e, 0xbe,
    0x23, 0xc0, 0xf5, 0x3d, 0x6d, 0x3b, 0x0c, 0x3f, 0x6f, 0x81, 0x08, 0xbe,
    0x6a, 0xc7, 0x4e, 0xbf, 0x54, 0x3c, 0x5b, 0xbd, 0x41, 0x46, 0x3e, 0x3e,
    0x77, 0xab, 0xff, 0x3e, 0x77, 0xb3, 0xaa, 0x3d, 0xd4, 0x8f, 0x09, 0x3e,
    0xcd, 0x7c, 0x05, 0xbd, 0x02, 0xf7, 0x11, 0x3b, 0x07, 0x31, 0xba, 0x3d,
    0x7b, 0x9b, 0x24, 0xbd, 0x58, 0x2b, 0x23, 0xbd, 0x46, 0x84, 0xb6, 0x3c,
    0x1a, 0x6a, 0xb3, 0xbe, 0x87, 0x86, 0xaa, 0x3e, 0x82, 0xa2, 0xd8, 0xbc,
    0xb7, 0x59, 0x10, 0xbd, 0x5f, 0xd8, 0x42, 0xbf, 0x3b, 0x4c, 0x8b, 0x3b,
    0x85, 0x86, 0x34, 0x3e, 0x88, 0xe9, 0x69, 0x3e, 0xe9, 0xab, 0x13, 0xbe,
    0x22, 0x18, 0x82, 0x3e, 0xc6, 0x22, 0x97, 0xbc, 0x1a, 0x40, 0x99, 0x3e,
    0x30, 0xce, 0xa9, 0xbe, 0xc1, 0x7c, 0xd7, 0x3d, 0x86, 0xee, 0x4c, 0x3d,
    0x47, 0x5a, 0xaa, 0x3d, 0xe6, 0xad, 0xa9, 0xbe, 0xd2, 0x3a, 0x08, 0x3d,
    0x5d, 0x05, 0x31, 0xbe, 0x6f, 0xe8, 0xc1, 0x3d, 0xca, 0xeb, 0x0f, 0xbf,
    0x08, 0x0b, 0x00, 0xbe, 0xcf, 0x6c, 0x9f, 0x3c, 0x5d, 0x3f, 0x13, 0x3f,
    0x10, 0xf7, 0xae, 0xbe, 0xb0, 0xf7, 0x84, 0x3e, 0x63, 0x28, 0x9e, 0xbd,
    0xb2, 0x0a, 0x63, 0x3e, 0xb9, 0xad, 0x32, 0xbe, 0x5e, 0xd1, 0x11, 0x3e,
    0x89, 0x38, 0x2c, 0xbe, 0xa8, 0x15, 0x36, 0x3e, 0x83, 0x60, 0xae, 0xbe,
    0x50, 0xeb, 0x4e, 0x3e, 0x3b, 0xd8, 0x13, 0xbd, 0x5b, 0xac, 0x36, 0x3d,
    0xe2, 0xe0, 0xf2, 0xbe, 0xcb, 0xab, 0x55, 0xbd, 0xaa, 0xbd, 0x65, 0x3d,
    0x06, 0x61, 0x0d, 0x3e, 0xb5, 0x7a, 0x23, 0xbd, 0x6c, 0x03, 0x20, 0x3e,
    0x4e, 0xd0, 0x61, 0xbe, 0xb7, 0xc4, 0xfc, 0x3c, 0x61, 0xfa, 0x78, 0x3d,
    0xcc, 0xc2, 0x0c, 0xbd, 0xdc, 0xe7, 0x34, 0x3e, 0x66, 0xf9, 0x64, 0x3e,
    0x57, 0x1c, 0x1e, 0xbe, 0xea, 0x4d, 0xb2, 0xbc, 0xd9, 0x8d, 0x11, 0x3e,
    0x2a, 0xa1, 0xf7, 0x3d, 0x35, 0x0d, 0xbe, 0xbe, 0x1c, 0x62, 0x5d, 0xbd,
    0x44, 0x64, 0xd0, 0x3a, 0x30, 0xb3, 0xa0, 0xbd, 0x6c, 0x69, 0x51, 0xbe,
    0x2b, 0xa9, 0x17, 0xbd, 0xfc, 0x60, 0x63, 0xbb, 0x30, 0x34, 0xd3, 0x3d,
    0x90, 0x24, 0x07, 0xbd, 0xbd, 0x6c, 0x44, 0x3d, 0x5f, 0xcb, 0x3d, 0xbd,
    0x82, 0x33, 0x39, 0x3e, 0x73, 0x77, 0xb2, 0x3c, 0xe9, 0x4e, 0x80, 0xbd,
    0x4d, 0xa3, 0xa5, 0x3d, 0x55, 0x77, 0x6b, 0xbc, 0xf5, 0xda, 0x50, 0x3c,
    0xda, 0xb6, 0x6f, 0xbc, 0xef, 0x34, 0xc8, 0x3d, 0xd7, 0xe0, 0x8b, 0x3b,
    0x4d, 0x88, 0x45, 0xbe, 0xda, 0x95, 0xa5, 0xbd, 0x78, 0xcb, 0x68, 0xbb,
    0x4c, 0xe6, 0x16, 0x3e, 0x4e, 0xa8, 0x53, 0xbd, 0xbd, 0x7d, 0xec, 0x3d,
    0xba, 0x8c, 0xa5, 0xbd, 0x55, 0x95, 0x05, 0x3e, 0x9d, 0x43, 0x0d, 0x3d,
    0x27, 0xf8, 0x38, 0xbe, 0x11, 0x79, 0xa6, 0x3d, 0xf5, 0xac, 0xf9, 0xbd,
    0xfc, 0xfa, 0x91, 0x3b, 0xba, 0x3e, 0x85, 0xbd, 0x87, 0x7e, 0xce, 0x3d,
    0x11, 0x7a, 0x88, 0xbd, 0xfd, 0x32, 0x55, 0x3c, 0x66, 0x2b, 0x13, 0xbe,
    0x6c, 0xa7, 0xe2, 0xbb, 0xef, 0x19, 0xef, 0x3d, 0x78, 0x7a, 0x34, 0x3d,
    0x09, 0x38, 0xbb, 0x3d, 0x0c, 0xfd, 0x02, 0x3d, 0x28, 0x10, 0xac, 0x3d,
    0x5a, 0x63, 0xb6, 0xbd, 0x39, 0xf1, 0x31, 0xbe, 0x75, 0x81, 0x3f, 0x3c,
    0x12, 0x8e, 0xb8, 0x3b, 0xe3, 0xb7, 0x20, 0xbd, 0xaa, 0x08, 0x0f, 0xbd,
    0x2b, 0xb9, 0x01, 0x3e, 0x7d, 0xd6, 0x71, 0xbd, 0xea, 0x84, 0xb5, 0xbd,
    0x82, 0x86, 0x9b, 0xbc, 0xeb, 0x9a, 0x91, 0xbd, 0x26, 0xff, 0x4c, 0x3e,
    0x31, 0xd6, 0x60, 0xbd, 0xbc, 0x1d, 0xb3, 0x3c, 0x4f, 0x54, 0x21, 0x3d,
    0xc5, 0x61, 0x46, 0x3d, 0x62, 0xad, 0x36, 0xbd, 0x1f, 0x3a, 0x40, 0xbd,
    0x2f, 0xc3, 0x53, 0xbe, 0x99, 0x3b, 0x08, 0xbe, 0xcf, 0x39, 0x77, 0x3b,
    0x7a, 0x57, 0x33, 0xbd, 0xe3, 0x81, 0x06, 0xbd, 0x04, 0xc0, 0x96, 0x3d,
    0xc6, 0x82, 0x3b, 0x3d, 0x51, 0x42, 0x8e, 0xbe, 0x6b, 0x63, 0x36, 0x3c,
    0xc0, 0x87, 0xbf, 0x3d, 0xf7, 0xa2, 0xfb, 0xbd, 0xf2, 0x58, 0x49, 0x3d,
    0xb0, 0x71, 0x9b, 0x3d, 0x2c, 0xf4, 0x25, 0x3e, 0xc1, 0xb7, 0x06, 0xbe,
    0xf6, 0x40, 0xe1, 0xbd, 0xbc, 0xce, 0x37, 0xbe, 0xe6, 0xe8, 0xf8, 0xbe,
    0x84, 0x86, 0x5b, 0xbc, 0x95, 0x3c, 0x42, 0xbc, 0x53, 0x06, 0xa3, 0x39,
    0x15, 0xb0, 0x83, 0x3d, 0x52, 0x9d, 0xdb, 0x3c, 0x21, 0x6e, 0xca, 0x3d,
    0x86, 0xff, 0x4b, 0xbd, 0xa1, 0x60, 0x16, 0x3e, 0xf8, 0xea, 0x4f, 0x3c,
    0x6b, 0x24, 0x98, 0x3d, 0x65, 0xf4, 0x81, 0xbd, 0x4b, 0x66, 0x30, 0x3e,
    0xe0, 0xa2, 0xf2, 0xbd, 0xca, 0x67, 0x08, 0xbe, 0x85, 0x45, 0x6d, 0x3c,
    0x8d, 0x5e, 0x72, 0x3d, 0x1f, 0x4b, 0x9f, 0xbc, 0x0b, 0x1d, 0xa3, 0xbd,
    0x51, 0x40, 0xe7, 0x3d, 0x3e, 0xb7, 0x46, 0x3e, 0xfc, 0x4c, 0x9a, 0xbd,
    0x13, 0x45, 0x9b, 0xbd, 0xba, 0x29, 0xcb, 0xbc, 0x23, 0xcf, 0x4f, 0x3e,
    0x60, 0x5d, 0x53, 0xbd, 0x60, 0x3c, 0x94, 0x3d, 0x1e, 0x01, 0x51, 0x39,
    0x8e, 0xce, 0x3d, 0x3e, 0xde, 0xe9, 0xc9, 0x3c, 0x16, 0x55, 0xf2, 0xbb,
    0xb6, 0x83, 0x96, 0xbe, 0x96, 0xb2, 0x5e, 0xbe, 0x6a, 0xa9, 0x61, 0xbd,
    0x3d, 0x6a, 0x0d, 0xbd, 0x5f, 0x9b, 0xe1, 0xbd, 0x72, 0xde, 0x0a, 0xbd,
    0x04, 0x82, 0x79, 0xbe, 0x01, 0xcd, 0x28, 0xbe, 0x5f, 0xf7, 0x93, 0x3d,
    0x0e, 0xc6, 0x40, 0x3e, 0x1a, 0xfa, 0x3e, 0xbe, 0x9c, 0x06, 0xe7, 0x3d,
    0x7b, 0xea, 0xc9, 0x3d, 0x6d, 0xc5, 0x55, 0x3e, 0xf1, 0x26, 0x0c, 0xbe,
    0xd0, 0x73, 0x0b, 0xbd, 0xd0, 0x1e, 0xe3, 0x3c, 0xcc, 0x85, 0xcc, 0xbe,
    0xb7, 0xcb, 0xf0, 0xbb, 0x49, 0xce, 0x81, 0x3c, 0xf9, 0xc4, 0x36, 0xbe,
    0xb1, 0x56, 0x64, 0xbd, 0xd0, 0x89, 0x90, 0xbe, 0x96, 0xc9, 0xe7, 0xbc,
    0x0e, 0x62, 0x9e, 0xbd, 0xc2, 0x1b, 0x99, 0x3e, 0x93, 0xc7, 0x8c, 0x3c,
    0xfa, 0xd7, 0xc8, 0xba, 0x07, 0x01, 0x28, 0xbd, 0x3a, 0x5a, 0x1a, 0x3e,
    0x9f, 0x8c, 0x81, 0xbc, 0x4c, 0x21, 0x72, 0xbe, 0x6b, 0x7e, 0x8d, 0xbe,
    0x28, 0xdd, 0xf3, 0xbd, 0x14, 0x70, 0xd0, 0xbc, 0x2a, 0xf1, 0xb5, 0xbd,
    0x5b, 0xac, 0xdb, 0xbd, 0xd7, 0xb5, 0x05, 0xbe, 0x34, 0xe5, 0xf0, 0xbd,
    0xec, 0x5c, 0x9c, 0x3d, 0xd5, 0xb5, 0xd4, 0x3d, 0x8d, 0x69, 0xab, 0x3e,
    0x00, 0xb3, 0x58, 0xbd, 0xa7, 0x5c, 0x9b, 0x3d, 0x8c, 0x3c, 0x33, 0xbe,
    0xc7, 0x37, 0xa5, 0x3e, 0x2c, 0x26, 0x07, 0xbc, 0x99, 0x7d, 0xcf, 0xbe,
    0x67, 0x52, 0xc4, 0xbe, 0xa7, 0x14, 0xd7, 0xbe, 0x1c, 0xd0, 0x2d, 0xbc,
    0xfc, 0x39, 0xdf, 0xbd, 0x32, 0x65, 0xba, 0xbe, 0xcc, 0x48, 0xc7, 0xbe,
    0x03, 0xfa, 0x24, 0x3d, 0xe6, 0x65, 0x00, 0xbe, 0xe1, 0x4d, 0xd2, 0xbd,
    0x78, 0xca, 0x9a, 0x3e, 0x6b, 0xd6, 0xd6, 0xbc, 0xa2, 0x4e, 0x64, 0x3d,
    0xc3, 0x8c, 0x9a, 0x3d, 0xcd, 0x31, 0x0c, 0x3e, 0x83, 0x75, 0xa4, 0x3c,
    0x36, 0xa6, 0xe7, 0xbe, 0xe1, 0x38, 0xa3, 0xbe, 0x8e, 0xb0, 0xdd, 0x3d,
    0xa0, 0x75, 0xb0, 0x39, 0x0d, 0xe2, 0x3e, 0xbd, 0xd7, 0x4f, 0x39, 0xbe,
    0x18, 0xa8, 0x3b, 0xbd, 0x93, 0xfd, 0x55, 0x3d, 0x38, 0xc2, 0x41, 0xbe,
    0x14, 0xa9, 0x80, 0xbd, 0xdd, 0x98, 0xb0, 0x3e, 0x0e, 0xaf, 0x84, 0xbd,
    0x5d, 0x39, 0x8d, 0x3d, 0x22, 0x8b, 0x77, 0xbe, 0x47, 0xcc, 0x1f, 0xbe,
    0x20, 0x56, 0x61, 0xbd, 0xa5, 0x46, 0xbf, 0xbb, 0x6b, 0xc7, 0x13, 0xbe,
    0xb5, 0x2c, 0x17, 0xbd, 0x49, 0xc8, 0x91, 0x3c, 0xbf, 0x10, 0x92, 0xbd,
    0xbc, 0xe2, 0x45, 0x3d, 0xd1, 0xe1, 0xf1, 0x3e, 0x89, 0x89, 0x0d, 0x3d,
    0xf6, 0xe2, 0x1f, 0x3e, 0xfe, 0x7c, 0x9d, 0x3c, 0x2d, 0x75, 0x46, 0x3e,
    0xef, 0x5a, 0xf3, 0x3c, 0x59, 0xff, 0xc9, 0x3d, 0xc7, 0x65, 0x8d, 0xbd,
    0xf6, 0x10, 0x24, 0xbe, 0xc8, 0xa0, 0xbe, 0xbd, 0x3c, 0xe5, 0xb7, 0x3e,
    0x18, 0xee, 0x8d, 0x3d, 0x31, 0xa2, 0xf9, 0x3c, 0x28, 0x01, 0x32, 0x3d,
    0x5e, 0x86, 0xc5, 0xbc, 0x34, 0xce, 0x7c, 0xbe, 0x14, 0x76, 0x62, 0xbf,
    0x09, 0xe6, 0x01, 0xbf, 0xaf, 0x8a, 0xcd, 0xbd, 0xb0, 0x8e, 0xa4, 0x3d,
    0xd5, 0x0a, 0x1a, 0xbf, 0xb9, 0x8c, 0x12, 0xbe, 0x70, 0x9b, 0xc0, 0x3d,
    0x41, 0x14, 0xed, 0xbd, 0x87, 0x49, 0xd0, 0x3c, 0xdd, 0x0e, 0x27, 0xbd,
    0xa8, 0x35, 0xd1, 0xbe, 0xcb, 0xcb, 0x79, 0x3c, 0xf8, 0xc8, 0x27, 0x3e,
    0x1c, 0x38, 0x26, 0x3d, 0x60, 0xf8, 0xcf, 0x3d, 0xd1, 0xd8, 0x5e, 0x3e,
    0x80, 0xab, 0xba, 0xbd, 0xd2, 0xa4, 0x9c, 0x3e, 0x86, 0xe0, 0xf3, 0x3d,
    0xa0, 0x58, 0x6b, 0xbe, 0x7b, 0x99, 0x71, 0x3d, 0x64, 0x94, 0x37, 0x3d,
    0x29, 0x53, 0x43, 0xbe, 0x89, 0xdc, 0x34, 0x3d, 0xb3, 0x3d, 0x99, 0xbd,
    0x01, 0x70, 0x7e, 0xbd, 0x44, 0x98, 0x7a, 0x3d, 0xc1, 0x6c, 0x7e, 0xbd,
    0x30, 0xb0, 0x43, 0x3c, 0xaf, 0x97, 0x00, 0xbc, 0x10, 0x63, 0x69, 0x3b,
    0x25, 0xb5, 0x65, 0x3e, 0xc8, 0x8a, 0x82, 0xbd, 0xfd, 0x7f, 0x37, 0x3d,
    0x1e, 0xc2, 0x4e, 0xbc, 0x67, 0xed, 0x87, 0xbe, 0xbb, 0xa8, 0xf3, 0x3d,
    0xbb, 0x78, 0x82, 0xbd, 0x30, 0xdb, 0x8c, 0xbd, 0x24, 0xca, 0x97, 0x3c,
    0xec, 0x6e, 0xeb, 0x3d, 0xe2, 0x09, 0x22, 0x3e, 0x90, 0xe4, 0xe0, 0xba,
    0x95, 0x94, 0x9b, 0x3e, 0x61, 0x5c, 0x23, 0x3d, 0x30, 0xf2, 0xda, 0xbc,
    0x84, 0xea, 0xa9, 0xbd, 0x16, 0x64, 0xd1, 0x3c, 0x5e, 0x44, 0xf7, 0xbd,
    0x14, 0x9d, 0xa3, 0xbe, 0x18, 0x5d, 0x32, 0xbe, 0x35, 0x55, 0xa7, 0xbe,
    0x20, 0xde, 0xb2, 0x3d, 0x4b, 0x30, 0xea, 0xbd, 0x94, 0x69, 0xc5, 0xbd,
    0xbc, 0xa6, 0x30, 0xbe, 0xf0, 0x74, 0x8d, 0xbd, 0x93, 0x89, 0x07, 0xbe,
    0xc0, 0x9a, 0x3a, 0xbe, 0x87, 0x7b, 0x2c, 0xbe, 0x84, 0x6e, 0x0c, 0x3c,
    0x8d, 0x4f, 0x7f, 0x3a, 0x12, 0x36, 0x0e, 0xbc, 0x48, 0xba, 0x6a, 0x3e,
    0x60, 0x74, 0x07, 0x3e, 0x4c, 0xb8, 0xb0, 0x3d, 0x21, 0xc0, 0xa9, 0xbd,
    0x3b, 0xe3, 0x0e, 0xbe, 0xb4, 0x5a, 0x9d, 0x3d, 0x2b, 0x5c, 0xdb, 0xbc,
    0x0e, 0x94, 0x96, 0xbd, 0x33, 0x24, 0x8b, 0xbd, 0xf8, 0x97, 0x01, 0x3d,
    0x53, 0xa3, 0x4e, 0xbd, 0x41, 0x85, 0x39, 0x3e, 0xdc, 0xf4, 0xdd, 0x3d,
    0xa9, 0xd7, 0xab, 0x3c, 0x40, 0xe8, 0xae, 0xbc, 0x06, 0xf7, 0x2b, 0x3d,
    0x3d, 0x62, 0x96, 0x3e, 0xbc, 0xa2, 0x02, 0x3d, 0xab, 0xde, 0x1a, 0x3e,
    0x0d, 0xee, 0x8b, 0xbe, 0x24, 0x02, 0x1c, 0x3e, 0x6e, 0x9c, 0x8e, 0x3d,
    0xcd, 0x34, 0x9d, 0x3d, 0x6e, 0x15, 0xc0, 0xbd, 0xd6, 0x0d, 0x12, 0xbe,
    0x7a, 0x89, 0xd2, 0x3d, 0x5c, 0xeb, 0xf5, 0xbd, 0xb6, 0x71, 0x0e, 0x3e,
    0xdb, 0x68, 0xd4, 0x3e, 0x80, 0x02, 0x44, 0x3e, 0x42, 0x2e, 0x39, 0xbd,
    0x6f, 0xe3, 0x99, 0x3d, 0xe5, 0xee, 0x88, 0x3e, 0x93, 0xd8, 0x35, 0x3e,
    0xac, 0xe7, 0x45, 0x3e, 0xff, 0xbe, 0x3c, 0x3d, 0xc4, 0x76, 0x98, 0x3d,
    0x83, 0x89, 0xf5, 0x3d, 0xcf, 0xf9, 0x48, 0x3d, 0x69, 0x84, 0x84, 0xbd,
    0x4f, 0xf6, 0x81, 0x3d, 0x89, 0x81, 0x21, 0x3e, 0x47, 0x97, 0xe7, 0x3d,
    0x29, 0x5e, 0xf8, 0x3c, 0x47, 0xc0, 0xdb, 0x3e, 0x2f, 0x18, 0x61, 0x3e,
    0x52, 0x43, 0xa6, 0x3c, 0xce, 0xa4, 0x45, 0x3d, 0xf0, 0x06, 0xa8, 0x3e,
    0x88, 0xf4, 0x81, 0x3e, 0x1d, 0x32, 0x90, 0x3e, 0x5d, 0xb8, 0x61, 0xbd,
    0x29, 0x2f, 0x3b, 0xbe, 0xef, 0x98, 0x25, 0xbd, 0xe4, 0x12, 0xa6, 0xbd,
    0x27, 0x06, 0x0e, 0xbd, 0x01, 0x9f, 0x09, 0xbd, 0x01, 0x9f, 0x80, 0xbd,
    0xf7, 0xa2, 0x48, 0x3d, 0x74, 0x98, 0x12, 0x3e, 0x69, 0x4e, 0xdc, 0x3e,
    0xc0, 0x3f, 0x28, 0xbe, 0xd8, 0x81, 0x49, 0xbd, 0x43, 0xb8, 0x6d, 0xbd,
    0xc0, 0x2a, 0x91, 0x3e, 0x0c, 0xf6, 0x85, 0x3e, 0x96, 0x95, 0x97, 0x3e,
    0x75, 0x74, 0x93, 0x3d, 0x18, 0x15, 0xb5, 0xbe, 0x25, 0x60, 0xec, 0x3b,
    0x67, 0xd9, 0x06, 0x3d, 0x57, 0x55, 0x31, 0xbd, 0x3a, 0x2f, 0x84, 0xbe,
    0x00, 0xed, 0xc2, 0xbd, 0xef, 0xa9, 0x9d, 0xbc, 0xc6, 0xc1, 0x8f, 0x3e,
    0x86, 0xcf, 0xe0, 0x3e, 0x82, 0xaf, 0xa1, 0x3d, 0xbe, 0x5e, 0x65, 0xbe,
    0xe6, 0x8d, 0x90, 0xbd, 0x5b, 0x44, 0xf2, 0x3d, 0xeb, 0xb0, 0xcd, 0x3d,
    0xc6, 0x0c, 0xae, 0xbe, 0x7c, 0xb7, 0x51, 0x3d, 0x0c, 0x6b, 0x3b, 0xbe,
    0xe9, 0xfb, 0x91, 0xbc, 0x30, 0xba, 0x1e, 0xbe, 0x60, 0xad, 0xbb, 0xbe,
    0x69, 0x99, 0x74, 0x3d, 0x37, 0xa5, 0x0a, 0x3e, 0xe6, 0x9c, 0x4b, 0xbe,
    0x81, 0xcd, 0x3d, 0x3e, 0x93, 0x65, 0xf5, 0x3e, 0x68, 0xff, 0x0a, 0x3c,
    0x73, 0xcd, 0x02, 0xbf, 0x62, 0xa3, 0xb6, 0xbe, 0xb3, 0xf3, 0x5d, 0x3e,
    0xf5, 0xc5, 0x1e, 0x3e, 0x78, 0x3d, 0x5b, 0xbe, 0x90, 0xa1, 0x11, 0x3e,
    0xee, 0xb2, 0x3a, 0x3e, 0xcc, 0x44, 0x98, 0x3d, 0x63, 0x79, 0x09, 0xbe,
    0xeb, 0x01, 0x0a, 0xbe, 0xf0, 0x39, 0x4a, 0xbe, 0xee, 0x2b, 0x8c, 0x3e,
    0xfd, 0xcb, 0xca, 0xbd, 0xad, 0xb3, 0x15, 0x3e, 0xb0, 0x83, 0xdd, 0x3e,
    0x49, 0xac, 0x8d, 0x3e, 0x49, 0xab, 0x41, 0xbf, 0xea, 0x6c, 0x61, 0xbe,
    0x34, 0x3a, 0xb7, 0x3e, 0x43, 0x56, 0xa4, 0x3e, 0x6c, 0x88, 0x17, 0xbe,
    0x63, 0x1a, 0x93, 0x3e, 0xe7, 0xf3, 0xa6, 0xbd, 0xfd, 0x47, 0x81, 0xbd,
    0x0c, 0x09, 0x19, 0x3e, 0x43, 0xe1, 0x6f, 0xbd, 0xf7, 0x03, 0xc9, 0xbd,
    0xa9, 0x61, 0x07, 0xba, 0xc0, 0xe7, 0x48, 0xbd, 0xe4, 0x10, 0x96, 0x3e,
    0xba, 0xa0, 0xcf, 0x3e, 0x77, 0x61, 0xb6, 0xbd, 0x00, 0xee, 0xa0, 0xbe,
    0xf4, 0xda, 0x86, 0x3d, 0xbc, 0xb0, 0x8f, 0x3e, 0x0f, 0xce, 0xac, 0x3e,
    0xb0, 0xe0, 0x14, 0x3e, 0x5b, 0xe1, 0x18, 0x3c, 0xc3, 0x6c, 0x88, 0xbc,
    0x17, 0x69, 0x02, 0x3b, 0xfd, 0xd5, 0xa2, 0xbe, 0x82, 0xc3, 0x99, 0xbd,
    0x73, 0xe0, 0xe4, 0x3c, 0x4a, 0x57, 0xee, 0x3c, 0xd7, 0xb2, 0xb6, 0xbd,
    0x39, 0x65, 0x99, 0x3e, 0x19, 0x2a, 0x89, 0x3e, 0x84, 0x94, 0xb7, 0x3d,
    0xec, 0xe7, 0x54, 0xbe, 0xea, 0x4f, 0x9e, 0xbe, 0x91, 0xe5, 0x54, 0x3e,
    0xd6, 0x88, 0x6f, 0x3f, 0x2b, 0x83, 0x10, 0xbf, 0xae, 0xdc, 0x53, 0x3e,
    0x90, 0x96, 0x20, 0xbe, 0xa6, 0x0b, 0x25, 0x3e, 0xdc, 0xc0, 0x33, 0xbe,
    0x7c, 0xaa, 0x4f, 0x3e, 0x04, 0x6b, 0x42, 0xbd, 0xff, 0xb9, 0x90, 0x3e,
    0xe2, 0xfd, 0x2c, 0xbe, 0xac, 0x94, 0x96, 0x3e, 0xfa, 0xfe, 0x59, 0x3e,
    0xf6, 0x1c, 0x85, 0x3d, 0x80, 0xda, 0x78, 0xbe, 0xee, 0xe9, 0xd1, 0xbe,
    0xa8, 0xee, 0x1c, 0xbe, 0x8c, 0xa3, 0x1b, 0xbd, 0xf8, 0x31, 0xd6, 0xbd,
    0x23, 0xac, 0x4e, 0x3e, 0x1c, 0x89, 0x67, 0xbe, 0xab, 0xdb, 0xce, 0x3e,
    0x9f, 0xe3, 0x1d, 0x3e, 0x50, 0xa5, 0xb0, 0x3e, 0xfb, 0x59, 0x92, 0x3e,
    0x79, 0xf9, 0x86, 0x3e, 0xdf, 0x84, 0x5e, 0xbe, 0x99, 0xcc, 0xa0, 0x3d,
    0xed, 0x09, 0x4f, 0x3e, 0xba, 0x15, 0x85, 0x3e, 0x39, 0x2b, 0x36, 0xbe,
    0x2e, 0x86, 0x83, 0xbe, 0x57, 0xc4, 0x97, 0x3e, 0xe5, 0xab, 0x3f, 0x3e,
    0xac, 0x2d, 0x1e, 0x3e, 0xfd, 0x3d, 0x3c, 0x3e, 0x3e, 0xf1, 0xd3, 0xbd,
    0xa1, 0x36, 0xd1, 0xbc, 0x23, 0x2b, 0x08, 0xbc, 0x74, 0xc4, 0x03, 0xbe,
    0xab, 0xdb, 0x58, 0xbc, 0xd3, 0xbc, 0x6c, 0x3e, 0x80, 0xd4, 0x9e, 0x3d,
    0xae, 0xbb, 0x0b, 0xbd, 0x50, 0x98, 0x97, 0x3e, 0x44, 0xdf, 0x79, 0x3d,
    0xec, 0xde, 0x05, 0xbe, 0x6f, 0x34, 0x81, 0x3d, 0x61, 0xed, 0x1e, 0x3e,
    0x2b, 0x1f, 0x67, 0x3e, 0x74, 0x3e, 0x25, 0x3e, 0x73, 0x16, 0x99, 0x3e,
    0xbf, 0xc8, 0xbf, 0xbe, 0xeb, 0xb3, 0xa3, 0x3d, 0x5a, 0x69, 0x28, 0x3d,
    0x6f, 0x28, 0x29, 0xbd, 0x45, 0x1f, 0x12, 0xbe, 0xf2, 0xdf, 0xa7, 0xbc,
    0x0c, 0x01, 0x26, 0x3d, 0x66, 0x92, 0xd6, 0xbd, 0xc1, 0x16, 0x91, 0x3e,
    0xe9, 0x63, 0xaf, 0xbd, 0xe6, 0x81, 0xda, 0xbb, 0x36, 0xf3, 0x9c, 0xbc,
    0x43, 0x66, 0xa5, 0x3e, 0x23, 0x1b, 0x92, 0x3e, 0xb5, 0x4e, 0x66, 0x3e,
    0x3c, 0xda, 0xd2, 0xbd, 0xca, 0x3b, 0x64, 0xbe, 0xb2, 0x55, 0x9b, 0xbd,
    0xd2, 0xb8, 0x0a, 0xbe, 0xe1, 0x12, 0xf7, 0xbd, 0xa7, 0xe0, 0xff, 0xbd,
    0x0b, 0x63, 0xe2, 0xbe, 0x04, 0x83, 0xb7, 0xbc, 0xe6, 0xda, 0x62, 0xbd,
    0xce, 0x49, 0x19, 0x3f, 0xdd, 0xb6, 0xb6, 0xbe, 0xd6, 0x7d, 0x6e, 0xbd,
    0x98, 0x68, 0x0e, 0xbd, 0xce, 0x85, 0x7a, 0x3e, 0x90, 0x47, 0x84, 0x3e,
    0xb5, 0x30, 0x25, 0x3e, 0x6c, 0x7a, 0x55, 0xbe, 0xb2, 0x2f, 0x01, 0xbe,
    0xe3, 0x26, 0x52, 0xbe, 0xa6, 0xdb, 0x8e, 0x3c, 0xd3, 0x88, 0x07, 0xbe,
    0x61, 0xc2, 0x1d, 0xbe, 0x9f, 0x31, 0x98, 0xbe, 0xab, 0x99, 0x8c, 0xbd,
    0x79, 0xfd, 0x07, 0x3e, 0x32, 0x7f, 0xe9, 0x3e, 0x1a, 0x2b, 0x4e, 0xbe,
    0x0e, 0x1c, 0xad, 0xbd, 0x2f, 0xc0, 0x2e, 0x3c, 0x7c, 0x4d, 0x9d, 0x3e,
    0x37, 0xae, 0xa1, 0x3e, 0xec, 0x91, 0x9e, 0x3e, 0xe1, 0x15, 0x92, 0xbe,
    0x83, 0xde, 0xca, 0x3c, 0x32, 0x53, 0x04, 0xbd, 0x46, 0xbf, 0x1c, 0xbd,
    0xd3, 0xaf, 0x0c, 0x3d, 0x7f, 0x2c, 0x07, 0xbe, 0x35, 0x5e, 0x54, 0x3d,
    0xa5, 0x22, 0x5b, 0xbd, 0x8e, 0xe1, 0x1d, 0x3e, 0x4e, 0xde, 0x1d, 0x3f,
    0x44, 0x76, 0x0f, 0x3e, 0xff, 0xe4, 0x6a, 0xbd, 0xae, 0x85, 0x63, 0xbb,
    0x1e, 0x90, 0x6d, 0x3e, 0x95, 0x24, 0x29, 0x3e, 0x83, 0x38, 0x30, 0x3e,
    0xb3, 0x7e, 0x72, 0x3e, 0xd0, 0x3b, 0x62, 0xbe, 0xe6, 0x47, 0x4b, 0x3d,
    0x84, 0xb9, 0x3a, 0x3d, 0xee, 0xa9, 0x02, 0xbe, 0xcf, 0x1f, 0x94, 0xbd,
    0x97, 0x94, 0x88, 0x3d, 0xfc, 0xd0, 0xdc, 0x3d, 0x85, 0x29, 0xc6, 0xba,
    0x59, 0x27, 0x31, 0x3e, 0x64, 0x01, 0x86, 0x3e, 0x4a, 0x41, 0x06, 0xbe,
    0x48, 0x37, 0x60, 0xbe, 0x64, 0x73, 0x87, 0x3e, 0x16, 0x25, 0xd2, 0xbc,
    0x34, 0x36, 0x62, 0xbe, 0xea, 0xd7, 0x44, 0x3d, 0x66, 0x2b, 0x81, 0xbd,
    0xdc, 0x6c, 0x88, 0xbd, 0x7c, 0xc1, 0x60, 0xbd, 0xe8, 0xda, 0x05, 0xbd,
    0x15, 0xfc, 0xa7, 0x3a, 0x21, 0xb0, 0x5d, 0x3d, 0x40, 0xfb, 0xe2, 0xbd,
    0x6e, 0xdd, 0x84, 0xbd, 0x36, 0xa2, 0x8f, 0x3e, 0x37, 0xa6, 0x0a, 0x3d,
    0x58, 0x13, 0x8c, 0x3d, 0xb4, 0x37, 0x34, 0x3d, 0x19, 0xb1, 0x83, 0x3e,
    0x95, 0x3f, 0x3c, 0x3e, 0x9d, 0xb6, 0x2c, 0x3e, 0x21, 0x61, 0x18, 0x3e,
    0x0e, 0xb3, 0x28, 0xbe, 0x08, 0xdd, 0xf9, 0xbc, 0x16, 0xc6, 0xc7, 0x3c,
    0x93, 0xc9, 0x3e, 0x3d, 0xbc, 0xc7, 0x27, 0xbe, 0xfd, 0x3b, 0xb9, 0x3d,
    0x12, 0xb3, 0xa4, 0x3d, 0xc2, 0xbb, 0xb9, 0x3d, 0x60, 0xb0, 0xc0, 0x3e,
    0x13, 0xc6, 0xa0, 0x3d, 0x0b, 0x3d, 0x31, 0x3d, 0x22, 0x99, 0x25, 0x3d,
    0x3f, 0x5e, 0x9d, 0x3e, 0x31, 0xf3, 0x27, 0x3e, 0x27, 0xd6, 0x90, 0xbd,
    0xc8, 0x2a, 0x09, 0xbe, 0x43, 0xcc, 0x3d, 0xbe, 0x8b, 0x5e, 0xec, 0xbc,
    0x15, 0x68, 0x0b, 0xbe, 0x9e, 0xc3, 0x9c, 0xbd, 0x85, 0x2a, 0x83, 0xbd,
    0x72, 0xf7, 0xf5, 0x3d, 0xfc, 0x45, 0xc6, 0xbb, 0xb6, 0xb6, 0xc1, 0xbc,
    0x57, 0x53, 0xf1, 0x3e, 0xeb, 0x2f, 0x32, 0x3e, 0x6b, 0x3f, 0xde, 0xbd,
    0x5c, 0xf2, 0xb0, 0x3c, 0x4b, 0x3a, 0xc7, 0x3e, 0x59, 0x2e, 0x0c, 0x3e,
    0x67, 0xa6, 0x58, 0x3e, 0x36, 0x3f, 0xae, 0x3d, 0xdd, 0x73, 0xb1, 0x3d,
    0xf9, 0x16, 0x98, 0x3d, 0x11, 0xca, 0x1d, 0x3a, 0x0c, 0x87, 0x0c, 0x3e,
    0xd8, 0xab, 0x92, 0xbd, 0xa0, 0x5f, 0x1f, 0x3e, 0xf1, 0x07, 0xdf, 0x3c,
    0xf3, 0xbe, 0xbf, 0x3c, 0x78, 0x6d, 0xbc, 0x3e, 0x3b, 0x2f, 0xc8, 0x3d,
    0x6d, 0x20, 0x3e, 0xbe, 0x36, 0x8a, 0xc8, 0x3c, 0x5a, 0x5d, 0x7c, 0x3e,
    0x3c, 0xb9, 0x86, 0x3e, 0x13, 0xcd, 0x05, 0x3e, 0x12, 0x49, 0x21, 0x3e,
    0xe0, 0x2f, 0x90, 0xbd, 0xf6, 0x53, 0x8b, 0x3c, 0x17, 0x4b, 0x62, 0xbd,
    0x77, 0xb2, 0xfe, 0xbc, 0x68, 0xd3, 0x9d, 0xbd, 0xcf, 0xee, 0x6e, 0xbd,
    0x02, 0x26, 0x7a, 0xbd, 0xed, 0x2d, 0x79, 0x3d, 0xf0, 0x85, 0xc7, 0x3e,
    0xa8, 0x17, 0xa2, 0xbe, 0x1a, 0x15, 0x25, 0xbe, 0x50, 0x66, 0x22, 0xbd,
    0xd1, 0xa9, 0x33, 0x3e, 0x8f, 0x31, 0xcf, 0x3e, 0x81, 0x64, 0x84, 0x3e,
    0x27, 0xff, 0x62, 0x3e, 0x56, 0x26, 0x57, 0xbe, 0xf6, 0x4f, 0xc1, 0x3a,
    0xd7, 0x2d, 0x65, 0xbe, 0xe5, 0xd4, 0x64, 0xbe, 0xc9, 0x39, 0xc7, 0xbd,
    0x6d, 0xa5, 0x68, 0x3e, 0xe9, 0x85, 0xd9, 0xbd, 0x62, 0xf3, 0x87, 0x3e,
    0xf8, 0xa0, 0x47, 0x3f, 0xba, 0x86, 0xad, 0xbd, 0x08, 0xf6, 0x6e, 0xbe,
    0x52, 0xb3, 0x72, 0xbe, 0x57, 0x1f, 0x73, 0x3e, 0xef, 0x83, 0x90, 0x3f,
    0xc2, 0xfc, 0xf7, 0xbe, 0xce, 0xd0, 0x27, 0x3e, 0x73, 0xfe, 0x66, 0xbe,
    0xa4, 0xf2, 0x3c, 0x3e, 0xa6, 0x1c, 0x48, 0xbe, 0x00, 0x10, 0x3e, 0x3d,
    0x76, 0x56, 0x32, 0xbd, 0xe7, 0x1e, 0x0d, 0x3e, 0xf2, 0x50, 0x68, 0xbd,
    0x83, 0xfc, 0xd7, 0x3e, 0x6a, 0xb6, 0x09, 0x3e, 0x05, 0xc5, 0x37, 0xbe,
    0x95, 0x11, 0x45, 0xbe, 0xa7, 0x71, 0x8f, 0xbe, 0xc2, 0xc2, 0xe8, 0x3d,
    0x33, 0x2e, 0x33, 0x3d, 0x67, 0x63, 0xc1, 0x3d, 0x49, 0x11, 0x9e, 0x3e,
    0x2b, 0x72, 0x57, 0xbe, 0xe7, 0x23, 0x8d, 0x3c, 0x0d, 0x59, 0x12, 0x3c,
    0xe8, 0x7a, 0x28, 0x3e, 0x16, 0x8d, 0x91, 0x3e, 0x33, 0x85, 0xda, 0x3c,
    0xab, 0xb5, 0x22, 0xbd, 0x2d, 0x81, 0x2c, 0x3e, 0x54, 0x1e, 0x87, 0x3e,
    0xc4, 0xa2, 0x3a, 0x3e, 0x27, 0xbe, 0xb3, 0xbc, 0x2b, 0x59, 0x7e, 0xbc,
    0xb3, 0x88, 0xdf, 0x3e, 0xec, 0xe4, 0x6e, 0x3e, 0xb1, 0xfe, 0x13, 0x3e,
    0xd1, 0x41, 0x92, 0x3e, 0x73, 0xc0, 0xc5, 0xbd, 0x05, 0x02, 0x86, 0xbd,
    0x0b, 0xca, 0xc6, 0xbb, 0x6e, 0x44, 0x10, 0xbf, 0x83, 0x19, 0x26, 0xbe,
    0xcb, 0xd2, 0x57, 0x3e, 0x82, 0x8c, 0x3e, 0x3d, 0x06, 0x95, 0xbf, 0xbd,
    0xe9, 0xcd, 0x8f, 0x3e, 0xcd, 0x36, 0x8e, 0x3d, 0x45, 0x20, 0xac, 0xbe,
    0xbf, 0x00, 0x28, 0x3e, 0xe0, 0xb8, 0xf6, 0x3d, 0x19, 0xb2, 0x6a, 0x3e,
    0x71, 0x40, 0x62, 0x3e, 0x82, 0x25, 0x71, 0xbd, 0xad, 0x28, 0x87, 0xbe,
    0xac, 0x4b, 0x35, 0xbd, 0x1d, 0x9a, 0x28, 0x3d, 0x6b, 0x5e, 0xa0, 0xbd,
    0x5d, 0xa2, 0xac, 0xbc, 0xd4, 0xcb, 0x98, 0xbe, 0x85, 0xa4, 0x45, 0xbb,
    0x00, 0x47, 0x3b, 0xbc, 0xd5, 0x7b, 0x91, 0x3e, 0x76, 0x50, 0x1a, 0xbe,
    0xbb, 0xb6, 0x8c, 0xbe, 0x44, 0x31, 0x31, 0xbd, 0x99, 0x39, 0xae, 0x3e,
    0x03, 0x79, 0x21, 0x3e, 0xb8, 0xc3, 0x96, 0xbc, 0xc8, 0x5e, 0xd6, 0xbe,
    0xa0, 0x89, 0x22, 0xbe, 0x74, 0x04, 0x89, 0xbe, 0x7c, 0xdd, 0xb5, 0xbc,
    0x00, 0xb1, 0x0c, 0xbe, 0x5a, 0x7b, 0x8e, 0xbd, 0xfc, 0x70, 0x45, 0xbe,
    0x83, 0xbc, 0x84, 0xbd, 0x58, 0x0d, 0x2c, 0x3e, 0xb2, 0x89, 0xed, 0x3e,
    0xb7, 0x64, 0x6d, 0xbe, 0x09, 0x58, 0x9d, 0xbe, 0x8d, 0x15, 0xad, 0xbd,
    0xbf, 0xcf, 0x96, 0x3e, 0x25, 0x1e, 0x42, 0x3e, 0x26, 0x73, 0x77, 0x3e,
    0x2f, 0x20, 0x39, 0xbe, 0x04, 0x22, 0x0d, 0xbf, 0xa0, 0xaa, 0x57, 0xbe,
    0x6a, 0x98, 0x72, 0xbd, 0xaa, 0x10, 0x5c, 0xbe, 0xac, 0x61, 0xc6, 0xbd,
    0x2e, 0xa8, 0xb5, 0xbd, 0x5d, 0x99, 0x99, 0xbd, 0x11, 0x72, 0x43, 0x3d,
    0x0b, 0xa1, 0x0f, 0x3f, 0x56, 0x8d, 0x57, 0x3d, 0xee, 0xfb, 0x3a, 0xbe,
    0x53, 0x2e, 0x5e, 0xbe, 0xce, 0x58, 0x1a, 0x3e, 0x86, 0xda, 0xa9, 0x3e,
    0x28, 0x9a, 0x35, 0xbe, 0x93, 0x78, 0x00, 0x3e, 0x22, 0xc0, 0xf8, 0xbe,
    0x2e, 0xf3, 0x01, 0xbe, 0x4a, 0xf8, 0xac, 0xbd, 0x53, 0x77, 0x71, 0x3b,
    0xd7, 0x23, 0x18, 0xbe, 0x6c, 0xfb, 0xb2, 0xbd, 0x65, 0x58, 0xb1, 0xbd,
    0x7d, 0x60, 0x7f, 0x3c, 0x0e, 0x69, 0x03, 0x3f, 0x42, 0xff, 0x29, 0xbe,
    0x58, 0xff, 0x9a, 0xbd, 0x29, 0x1b, 0xb7, 0xbd, 0xc6, 0x6c, 0xa8, 0x3e,
    0x6f, 0xe7, 0xe1, 0x3e, 0x0f, 0x45, 0x36, 0x3e, 0x6f, 0x09, 0x5c, 0x3e,
    0x93, 0x07, 0xcc, 0xbe, 0x45, 0x51, 0x1a, 0xbe, 0xe3, 0x3c, 0xd1, 0x3d,
    0xef, 0xd6, 0x0a, 0x3c, 0xa3, 0x3c, 0x8e, 0x3d, 0xb4, 0x06, 0x2a, 0xbe,
    0x1d, 0x47, 0x00, 0xbe, 0x44, 0x91, 0x6e, 0x3e, 0x1a, 0xcc, 0xfd, 0x3e,
    0x4b, 0x12, 0x1e, 0x3e, 0x7f, 0x35, 0xd7, 0xbd, 0xa7, 0x8b, 0xd6, 0xbd,
    0xbd, 0x06, 0x93, 0x3e, 0x88, 0xbf, 0xa0, 0x3d, 0x85, 0x26, 0x1c, 0x3d,
    0x00, 0x4e, 0xb4, 0x3c, 0x3b, 0x78, 0xb0, 0xbe, 0xba, 0xc9, 0x10, 0xbe,
    0xd9, 0xb6, 0x1c, 0xbc, 0xc7, 0x4f, 0xd6, 0x3d, 0x5f, 0x77, 0xb4, 0x3c,
    0x2a, 0xa6, 0x3c, 0x3e, 0xcd, 0xc0, 0x2e, 0x3c, 0xcd, 0xc8, 0x12, 0xbe,
    0xb6, 0x1d, 0x01, 0x3e, 0x3b, 0xde, 0x0d, 0x3e, 0x18, 0xd0, 0x83, 0x3c,
    0xb4, 0xe7, 0x58, 0xbe, 0x1e, 0xb4, 0x90, 0x3d, 0x80, 0x00, 0x55, 0x3d,
    0xbf, 0x2c, 0x34, 0xbd, 0x07, 0x66, 0x29, 0x3d, 0xaa, 0x31, 0xf5, 0xbe,
    0xed, 0x1f, 0x32, 0x3d, 0x10, 0x34, 0xc5, 0x3d, 0x02, 0xbf, 0xc2, 0xbc,
    0x2a, 0x7a, 0x8a, 0x3c, 0x73, 0x0a, 0x8a, 0x3e, 0x28, 0x0c, 0x12, 0x3c,
    0xd1, 0x26, 0xcb, 0xbd, 0x21, 0x53, 0x25, 0xbc, 0x73, 0xd1, 0x30, 0x3e,
    0x3f, 0x8d, 0xac, 0xbc, 0xe8, 0x7f, 0x19, 0xbd, 0xb5, 0x0a, 0x39, 0x3e,
    0xfb, 0x12, 0xb8, 0x3e, 0x06, 0x75, 0x02, 0x3e, 0x3b, 0xcd, 0x2e, 0x3e,
    0x2f, 0x83, 0xe8, 0xbe, 0xb4, 0x26, 0x5e, 0xbd, 0x52, 0x75, 0x16, 0x3e,
    0x5e, 0x50, 0xf2, 0x3d, 0xd3, 0xf7, 0x99, 0x3d, 0xa2, 0x18, 0x58, 0x3e,
    0x96, 0xf2, 0x27, 0x3c, 0x22, 0x81, 0x1a, 0x3c, 0x0f, 0x39, 0xbf, 0x3e,
    0x02, 0xba, 0x67, 0x3e, 0x8d, 0x39, 0x80, 0x3d, 0x76, 0xad, 0x0c, 0x3d,
    0xeb, 0xba, 0xf9, 0x3e, 0x2c, 0x3e, 0xe8, 0x3d, 0xab, 0xda, 0x35, 0x3e,
    0xa0, 0x4e, 0x91, 0x3e, 0x70, 0xb3, 0xa7, 0xbe, 0xd0, 0xbb, 0xd3, 0xbd,
    0xce, 0x56, 0xac, 0xbd, 0xad, 0x71, 0xa1, 0x3c, 0x9a, 0xa7, 0x37, 0xbd,
    0xd0, 0x41, 0x70, 0xbe, 0x8c, 0x91, 0xdb, 0x3d, 0x50, 0xa4, 0x03, 0x3e,
    0xdb, 0x40, 0x50, 0x3e, 0xf9, 0x82, 0xb0, 0x3d, 0x1f, 0x6d, 0x8c, 0x3d,
    0x0c, 0xbf, 0x83, 0x3d, 0x2f, 0xdc, 0x5c, 0x3e, 0x80, 0x5c, 0xaa, 0x3e,
    0x7b, 0x33, 0x98, 0x3e, 0x58, 0xa5, 0x9c, 0x3e, 0x9a, 0x04, 0x9a, 0xbe,
    0x1f, 0x76, 0x8b, 0xbd, 0x62, 0x7a, 0x36, 0xbe, 0xb7, 0x87, 0x8b, 0xbd,
    0xf8, 0xaf, 0x47, 0xbe, 0x75, 0xf3, 0x30, 0xbe, 0x53, 0xd0, 0x88, 0xbc,
    0xb4, 0x8d, 0x21, 0x3d, 0xac, 0xc2, 0xeb, 0x3e, 0xb6, 0xbd, 0x9d, 0xbd,
    0xad, 0x61, 0xc6, 0xbc, 0x01, 0x09, 0x39, 0xbe, 0xda, 0x89, 0xfc, 0xbb,
    0x50, 0xac, 0x04, 0x3e, 0xc4, 0xf7, 0x10, 0xbf, 0xa9, 0xd7, 0x94, 0x3d,
    0xdd, 0xe2, 0x23, 0xbf, 0xe9, 0x68, 0x45, 0x3e, 0xef, 0xcb, 0xa9, 0x3d,
    0x22, 0x17, 0xc3, 0xbd, 0x17, 0xb1, 0x51, 0xbd, 0xf9, 0x5c, 0xe5, 0x3d,
    0x5a, 0x11, 0xb6, 0xbd, 0x46, 0x2b, 0x4a, 0x3e, 0x78, 0xa4, 0xf8, 0x3d,
    0x33, 0xb9, 0x28, 0x3d, 0xc6, 0x5b, 0x99, 0xbd, 0xd9, 0x66, 0xd8, 0xbe,
    0xdb, 0x97, 0xcf, 0x3d, 0x1e, 0xca, 0x29, 0x3e, 0x80, 0x08, 0x88, 0xbe,
    0xbc, 0x10, 0x89, 0x3d, 0xa8, 0x9a, 0x2b, 0xbf, 0x3c, 0xde, 0xed, 0x3e,
    0x53, 0x31, 0xcf, 0x3b, 0xa5, 0x31, 0xb8, 0xbd, 0x58, 0x5a, 0xd9, 0x3c,
    0xd0, 0x2e, 0x07, 0x3e, 0x4d, 0xbb, 0xfb, 0xbd, 0xb1, 0x30, 0xaf, 0x3d,
    0x69, 0x99, 0x7a, 0x3d, 0x7a, 0x8f, 0x95, 0x3d, 0xc6, 0xae, 0x24, 0x3d,
    0xb0, 0x1b, 0x88, 0xbe, 0x60, 0xd0, 0xa9, 0xbd, 0xce, 0xd1, 0x89, 0xbe,
    0x88, 0xd6, 0x8c, 0xbd, 0x20, 0xa9, 0x14, 0x3f, 0x99, 0xa4, 0x97, 0xbe,
    0xbc, 0xb1, 0x88, 0x3e, 0x82, 0xea, 0x17, 0x3e, 0x89, 0x40, 0xbc, 0x3d,
    0xdb, 0x7c, 0x3d, 0xbe, 0xbd, 0x2e, 0xdc, 0xbd, 0x0e, 0xf5, 0xbb, 0xbd,
    0xcf, 0x34, 0x3c, 0xbe, 0x78, 0xf8, 0xe8, 0xbc, 0x08, 0x67, 0x8f, 0x3d,
    0xb6, 0x0f, 0x21, 0x3d, 0x79, 0x56, 0xb9, 0x3d, 0x54, 0x56, 0xfa, 0x3d,
    0xd5, 0x62, 0x34, 0x3e, 0xd4, 0xbe, 0x47, 0x3e, 0x8e, 0x8a, 0xd1, 0xbd,
    0xc5, 0x76, 0xb6, 0x3d, 0xa4, 0xe9, 0x5c, 0xbe, 0x0d, 0xfc, 0xf8, 0x3c,
    0x2d, 0xc3, 0x9e, 0xbe, 0xf2, 0x62, 0xc9, 0x3d, 0x66, 0x4b, 0x1c, 0x3d,
    0xc2, 0x03, 0x88, 0x3d, 0xdb, 0x9b, 0xf2, 0x3d, 0x1d, 0x11, 0xa7, 0x3c,
    0x8a, 0x19, 0xa5, 0x3d, 0x99, 0x2f, 0xcc, 0xbe, 0x88, 0x92, 0xf0, 0x3d,
    0x09, 0x9b, 0x8b, 0x3e, 0xd2, 0x1d, 0x56, 0x3e, 0xeb, 0xcf, 0x1b, 0x3e,
    0x14, 0x61, 0x2b, 0x3e, 0xe1, 0x63, 0x8c, 0xbe, 0x8b, 0x66, 0x27, 0xbd,
    0xde, 0xed, 0x97, 0x3d, 0x39, 0x23, 0xb4, 0x3c, 0xd7, 0x66, 0x52, 0xbd,
    0xf1, 0xef, 0x6a, 0xbe, 0x13, 0xdd, 0x7b, 0x3d, 0x9a, 0xa2, 0x0d, 0x3d,
    0xd3, 0x7e, 0xd2, 0x3e, 0x3a, 0x8f, 0xe1, 0xbb, 0x90, 0x7d, 0x69, 0xbe,
    0xc5, 0x1e, 0x72, 0x3c, 0x84, 0xd2, 0x13, 0x3e, 0x16, 0x7f, 0x0e, 0xbc,
    0x78, 0x16, 0x35, 0xbe, 0xef, 0xc8, 0xc7, 0x3c, 0x9b, 0x33, 0x9e, 0xbe,
    0xd3, 0x05, 0x83, 0xbb, 0x9e, 0x00, 0x8a, 0xbd, 0x7e, 0x58, 0x15, 0xbe,
    0xc4, 0xc6, 0x19, 0x3e, 0x3a, 0x85, 0x7c, 0x3d, 0xce, 0xa7, 0x3d, 0xbe,
    0x48, 0x65, 0x0e, 0xbe, 0x88, 0xfa, 0x64, 0x3e, 0x36, 0xbd, 0x0d, 0xbe,
    0xa7, 0x1c, 0xae, 0xbe, 0x93, 0x60, 0x52, 0xbe, 0x49, 0x44, 0x5d, 0x3e,
    0x0c, 0x30, 0xa3, 0xbd, 0xa5, 0x39, 0x48, 0xbd, 0xc5, 0xd0, 0xe2, 0x3c,
    0x98, 0x8d, 0x9e, 0xbe, 0xb0, 0x3d, 0xbd, 0x3d, 0xe5, 0x42, 0x05, 0xbe,
    0xa3, 0x0d, 0xab, 0xbe, 0xf2, 0x85, 0x6e, 0xbd, 0xec, 0xec, 0xdb, 0x3c,
    0x79, 0x26, 0x17, 0xbe, 0xa0, 0x77, 0xd4, 0x3d, 0x58, 0x52, 0x94, 0x3d,
    0x98, 0xbf, 0x64, 0xbe, 0x87, 0xb6, 0x82, 0xbe, 0xd5, 0x9a, 0x57, 0xbe,
    0x68, 0x68, 0x2e, 0xbe, 0x77, 0xe7, 0xd5, 0xbd, 0x6c, 0x61, 0x39, 0xbd,
    0xfa, 0x48, 0x7a, 0x3e, 0x7a, 0xf4, 0x89, 0xbd, 0x2d, 0xff, 0xbb, 0x3d,
    0x49, 0x52, 0x36, 0xbe, 0xe9, 0x39, 0xe8, 0x3b, 0x1d, 0x15, 0x98, 0x3d,
    0xf0, 0xce, 0x24, 0xbc, 0xf0, 0x4a, 0x09, 0xbe, 0x1d, 0xd3, 0xd3, 0xb9,
    0xc8, 0x6d, 0x99, 0xbd, 0x13, 0x35, 0xfa, 0x3d, 0xff, 0xe7, 0x31, 0xbe,
    0xaa, 0x6d, 0xb3, 0xbd, 0x63, 0xee, 0x96, 0x3e, 0x70, 0xc8, 0xc8, 0xbc,
    0xfc, 0xa6, 0xc7, 0xbc, 0x01, 0x40, 0xc2, 0x3e, 0x09, 0x8a, 0xfa, 0xbd,
    0x93, 0x96, 0xcf, 0xbd, 0x49, 0xe2, 0x57, 0x3d, 0x75, 0x76, 0x14, 0x3e,
    0x0a, 0x1b, 0x19, 0x3e, 0xa4, 0x7e, 0xd5, 0x3c, 0x73, 0xd8, 0x3c, 0xbe,
    0x1d, 0xd4, 0x1b, 0xbe, 0x93, 0x75, 0xc6, 0x3e, 0xd8, 0x10, 0xef, 0xbb,
    0x01, 0x7b, 0x24, 0xbe, 0x2f, 0x17, 0x68, 0xbe, 0xd0, 0xe9, 0x91, 0x3d,
    0x8d, 0x15, 0xa3, 0xbd, 0x25, 0x91, 0x91, 0x3c, 0xae, 0xec, 0xfc, 0x3d,
    0xdf, 0xd8, 0x8a, 0xbe, 0xe5, 0x0e, 0x8d, 0xbd, 0xe1, 0x46, 0x34, 0x3c,
    0x59, 0xa2, 0x55, 0xbd, 0x47, 0xe9, 0xfe, 0x3c, 0x4b, 0xff, 0x7c, 0x3d,
    0x23, 0xb9, 0x06, 0xbd, 0x9b, 0x7c, 0x4c, 0x3d, 0xe2, 0x8a, 0x5a, 0xbc,
    0xe5, 0xd6, 0x91, 0xbd, 0x52, 0x95, 0x42, 0xbe, 0xbb, 0x89, 0xed, 0xbd,
    0xf0, 0x53, 0x0f, 0x3e, 0x66, 0x41, 0x38, 0xbe, 0xba, 0xba, 0xec, 0xbd,
    0x0b, 0xf9, 0xf5, 0x3d, 0x22, 0x87, 0xab, 0xbe, 0xb0, 0x44, 0xdb, 0xbd,
    0x10, 0x5b, 0xb6, 0xbd, 0x9b, 0xc3, 0x61, 0x3e, 0x4f, 0xec, 0x61, 0x3c,
    0xd7, 0xdf, 0x5a, 0x3c, 0x65, 0xbb, 0xeb, 0xbd, 0x53, 0x3c, 0xcd, 0x3d,
    0xe7, 0x0d, 0xc6, 0xbd, 0xb3, 0x0e, 0x0d, 0x3c, 0x98, 0xff, 0x30, 0xbe,
    0xb6, 0x5a, 0xae, 0xbd, 0x85, 0xee, 0x42, 0x3e, 0x05, 0x9c, 0x53, 0x3e,
    0x20, 0xa7, 0x2c, 0x3e, 0x34, 0x69, 0x7f, 0x3d, 0x2b, 0x23, 0x88, 0xbd,
    0x7b, 0xf4, 0x1f, 0x3c, 0x0b, 0xa3, 0x8d, 0xb9, 0xb3, 0xed, 0x73, 0x3e,
    0x22, 0x7d, 0xb0, 0xba, 0xc5, 0xcc, 0x1b, 0xbd, 0x36, 0xa1, 0xa6, 0x3d,
    0x0a, 0xd4, 0x81, 0x3d, 0xfc, 0xf8, 0x13, 0x3e, 0x40, 0xf9, 0x58, 0xbd,
    0x60, 0x07, 0xb8, 0xbc, 0x09, 0xe9, 0xcb, 0x3a, 0x4a, 0x24, 0x97, 0x3d,
    0x4c, 0x59, 0x2a, 0x3e, 0x81, 0x89, 0x29, 0xbd, 0x5e, 0xe7, 0x76, 0x3e,
    0x60, 0x14, 0xd3, 0xbe, 0x5d, 0x04, 0xc1, 0xbb, 0x14, 0xff, 0xc6, 0x3d,
    0xd1, 0xe2, 0xe7, 0x3b, 0x77, 0x5e, 0x81, 0x3d, 0x8c, 0xf9, 0x87, 0x3d,
    0x2f, 0x55, 0x0c, 0xbc, 0x38, 0xf2, 0xba, 0xbd, 0x51, 0x00, 0xac, 0x3d,
    0x1e, 0x1f, 0xa5, 0x3c, 0xc7, 0x5f, 0x00, 0xbd, 0xb8, 0xa5, 0x83, 0xbe,
    0x33, 0x15, 0xc4, 0x3d, 0x86, 0x28, 0xff, 0x3d, 0x46, 0x7c, 0x82, 0x3e,
    0x6d, 0x7e, 0x30, 0x3e, 0x59, 0x27, 0x02, 0xbe, 0x54, 0xb1, 0x6a, 0xbd,
    0x6b, 0x9b, 0xb3, 0x3d, 0x24, 0x73, 0x68, 0xbc, 0xeb, 0xa5, 0xbd, 0xbb,
    0x74, 0xbd, 0x2c, 0x3d, 0x21, 0x83, 0x99, 0xbd, 0x68, 0x69, 0x43, 0xbe,
    0x67, 0x4c, 0xef, 0x3d, 0x4e, 0xe5, 0x19, 0xbe, 0x93, 0xd7, 0xc5, 0xbd,
    0x48, 0x34, 0x90, 0xbe, 0xe7, 0xe3, 0x68, 0xbc, 0xc1, 0x79, 0x44, 0xbe,
    0xbe, 0xd4, 0x02, 0xbe, 0xc4, 0xf5, 0x16, 0x3e, 0x4a, 0x97, 0x5e, 0xbe,
    0x25, 0x87, 0xda, 0x3d, 0xf0, 0x77, 0xe5, 0x3c, 0x8f, 0x79, 0xec, 0xbc,
    0xc7, 0xc3, 0x59, 0xbc, 0x9e, 0x2c, 0x08, 0x3d, 0xa8, 0x6d, 0xbc, 0xbc,
    0xea, 0xb2, 0x04, 0xbe, 0x6f, 0x2d, 0x16, 0xbe, 0x90, 0xa2, 0x95, 0x3d,
    0x33, 0xc8, 0x0d, 0xbd, 0xdc, 0x54, 0x5b, 0xbe, 0xbf, 0x87, 0xc5, 0x3d,
    0xe6, 0xb8, 0x9a, 0x3d, 0x63, 0xef, 0x21, 0x3e, 0xc8, 0x95, 0xc7, 0x3e,
    0xb7, 0x1d, 0x65, 0xbe, 0xfe, 0x14, 0x0a, 0x3e, 0xfb, 0x6d, 0x40, 0x3e,
    0x81, 0x07, 0xb1, 0x3d, 0xdb, 0x25, 0xf2, 0xbd, 0xe2, 0x29, 0x8c, 0x3d,
    0xe9, 0xaa, 0x2a, 0xbe, 0x0a, 0x51, 0x22, 0xbe, 0xf4, 0x51, 0x0b, 0x3e,
    0xe4, 0xaa, 0xec, 0xbd, 0x12, 0xbd, 0x08, 0x3d, 0x99, 0x92, 0x80, 0xbe,
    0xd7, 0x85, 0xb3, 0xbe, 0x6e, 0x5e, 0x6f, 0xbe, 0x56, 0x60, 0xc9, 0x3d,
    0x49, 0xbd, 0x97, 0x3e, 0xf5, 0x53, 0x89, 0xbe, 0x85, 0x3b, 0x1b, 0xbe,
    0x49, 0xab, 0x94, 0x3d, 0xd7, 0x79, 0xa2, 0x3e, 0xe2, 0xaf, 0x47, 0x3c,
    0xa9, 0xde, 0x44, 0xbe, 0x7a, 0xe3, 0xf5, 0xbd, 0xea, 0x43, 0x98, 0x3c,
    0x86, 0x3b, 0xc4, 0x3d, 0x42, 0xea, 0xb2, 0x3d, 0x77, 0x79, 0xd3, 0xbd,
    0x8d, 0xab, 0x4a, 0xbe, 0x85, 0xb7, 0x58, 0xbe, 0x2a, 0xb2, 0x04, 0x3e,
    0x45, 0xc3, 0xf6, 0x3d, 0x8e, 0xd3, 0x1f, 0x3e, 0xd5, 0x6a, 0x29, 0x3d,
    0x56, 0x46, 0xa4, 0xbd, 0x62, 0x08, 0x2d, 0x3d, 0xc9, 0x7d, 0x76, 0x3e,
    0x4b, 0xe5, 0x1a, 0x3e, 0x81, 0x93, 0x89, 0xbe, 0x74, 0x31, 0xf0, 0x3c,
    0x0a, 0x1f, 0x49, 0xbe, 0x50, 0x2f, 0x71, 0xbe, 0x9a, 0x8e, 0x0e, 0xbe,
    0xc8, 0xa4, 0xf4, 0x3d, 0xff, 0xc5, 0x7a, 0xbe, 0x26, 0x4f, 0x47, 0xbe,
    0x96, 0x38, 0xba, 0x3d, 0xe3, 0x27, 0x00, 0x3d, 0x11, 0x2c, 0x27, 0x3d,
    0x12, 0x91, 0x11, 0x3d, 0xa6, 0x18, 0x43, 0xbe, 0x70, 0x21, 0x20, 0x3e,
    0x5d, 0x95, 0x50, 0x3e, 0x14, 0x90, 0xd0, 0x3d, 0x32, 0x28, 0xf3, 0xbd,
    0xf6, 0x5c, 0x28, 0x3d, 0x3c, 0x3b, 0xac, 0xbe, 0x90, 0x9a, 0xe2, 0xbe,
    0xbe, 0xde, 0x48, 0x3a, 0x5a, 0xf0, 0x10, 0x3e, 0xcd, 0x9e, 0x85, 0xbe,
    0xeb, 0xf7, 0xe1, 0xbd, 0xbb, 0x61, 0x05, 0x3e, 0x3d, 0xb6, 0xea, 0x3c,
    0x11, 0xd3, 0x0b, 0x3e, 0x24, 0x24, 0x8d, 0x3d, 0xf9, 0x43, 0x43, 0x3d,
    0xaa, 0xc7, 0x93, 0x3e, 0xef, 0x43, 0xd2, 0x3d, 0xb7, 0xa8, 0x92, 0x3e,
    0x84, 0xa1, 0xac, 0x3d, 0x6f, 0xe0, 0xb2, 0x3d, 0xd8, 0x16, 0x88, 0xbe,
