/* Copyright 2019 The TensorFlow Authors. All Rights Reserved.

Licensed under the Apache License, Version 2.0 (the "License");
you may not use this file except in compliance with the License.
You may obtain a copy of the License at

    http://www.apache.org/licenses/LICENSE-2.0

Unless required by applicable law or agreed to in writing, software
distributed under the License is distributed on an "AS IS" BASIS,
WITHOUT WARRANTIES OR CONDITIONS OF ANY KIND, either express or implied.
See the License for the specific language governing permissions and
limitations under the License.
==============================================================================*/

// Automatically created from a TensorFlow Lite flatbuffer using the command:
// xxd -i magic_wand_model.tflite > magic_wand_model_data.cc
// See the README for a full description of the creation process.

#include "magic_wand_model_data.h"

// We need to keep the data array aligned on some architectures.
#ifdef __has_attribute
#define HAVE_ATTRIBUTE(x) __has_attribute(x)
#else
#define HAVE_ATTRIBUTE(x) 0
#endif
#if HAVE_ATTRIBUTE(aligned) || (defined(__GNUC__) && !defined(__clang__))
#define DATA_ALIGN_ATTRIBUTE __attribute__((aligned(4)))
#else
#define DATA_ALIGN_ATTRIBUTE
#endif

const unsigned char g_magic_wand_model_data[] DATA_ALIGN_ATTRIBUTE = {
  0x20, 0x00, 0x00, 0x00, 0x54, 0x46, 0x4c, 0x33, 0x00, 0x00, 0x00, 0x00,
  0x14, 0x00, 0x20, 0x00, 0x1c, 0x00, 0x18, 0x00, 0x14, 0x00, 0x10, 0x00,
  0x0c, 0x00, 0x00, 0x00, 0x08, 0x00, 0x04, 0x00, 0x14, 0x00, 0x00, 0x00,
  0x1c, 0x00, 0x00, 0x00, 0x88, 0x00, 0x00, 0x00, 0xe0, 0x00, 0x00, 0x00,
  0x3c, 0x1b, 0x00, 0x00, 0x4c, 0x1b, 0x00, 0x00, 0x80, 0x25, 0x00, 0x00,
  0x03, 0x00, 0x00, 0x00, 0x01, 0x00, 0x00, 0x00, 0x04, 0x00, 0x00, 0x00,
  0xb6, 0xe3, 0xff, 0xff, 0x0c, 0x00, 0x00, 0x00, 0x1c, 0x00, 0x00, 0x00,
  0x38, 0x00, 0x00, 0x00, 0x0f, 0x00, 0x00, 0x00, 0x73, 0x65, 0x72, 0x76,
  0x69, 0x6e, 0x67, 0x5f, 0x64, 0x65, 0x66, 0x61, 0x75, 0x6c, 0x74, 0x00,
  0x01, 0x00, 0x00, 0x00, 0x04, 0x00, 0x00, 0x00, 0x94, 0xff, 0xff, 0xff,
  0x11, 0x00, 0x00, 0x00, 0x04, 0x00, 0x00, 0x00, 0x07, 0x00, 0x00, 0x00,
  0x64, 0x65, 0x6e, 0x73, 0x65, 0x5f, 0x31, 0x00, 0x01, 0x00, 0x00, 0x00,
  0x04, 0x00, 0x00, 0x00, 0x9a, 0xe4, 0xff, 0xff, 0x04, 0x00, 0x00, 0x00,
  0x0c, 0x00, 0x00, 0x00, 0x63, 0x6f, 0x6e, 0x76, 0x32, 0x64, 0x5f, 0x69,
  0x6e, 0x70, 0x75, 0x74, 0x00, 0x00, 0x00, 0x00, 0x02, 0x00, 0x00, 0x00,
  0x34, 0x00, 0x00, 0x00, 0x04, 0x00, 0x00, 0x00, 0xdc, 0xff, 0xff, 0xff,
  0x14, 0x00, 0x00, 0x00, 0x04, 0x00, 0x00, 0x00, 0x13, 0x00, 0x00, 0x00,
  0x43, 0x4f, 0x4e, 0x56, 0x45, 0x52, 0x53, 0x49, 0x4f, 0x4e, 0x5f, 0x4d,
  0x45, 0x54, 0x41, 0x44, 0x41, 0x54, 0x41, 0x00, 0x08, 0x00, 0x0c, 0x00,
  0x08, 0x00, 0x04, 0x00, 0x08, 0x00, 0x00, 0x00, 0x13, 0x00, 0x00, 0x00,
  0x04, 0x00, 0x00, 0x00, 0x13, 0x00, 0x00, 0x00, 0x6d, 0x69, 0x6e, 0x5f,
  0x72, 0x75, 0x6e, 0x74, 0x69, 0x6d, 0x65, 0x5f, 0x76, 0x65, 0x72, 0x73,
  0x69, 0x6f, 0x6e, 0x00, 0x15, 0x00, 0x00, 0x00, 0x58, 0x1a, 0x00, 0x00,
  0x50, 0x1a, 0x00, 0x00, 0x00, 0x1a, 0x00, 0x00, 0xe4, 0x19, 0x00, 0x00,
  0xb4, 0x19, 0x00, 0x00, 0x64, 0x19, 0x00, 0x00, 0x4c, 0x19, 0x00, 0x00,
  0x7c, 0x18, 0x00, 0x00, 0xec, 0x16, 0x00, 0x00, 0xdc, 0x0e, 0x00, 0x00,
  0xcc, 0x00, 0x00, 0x00, 0xc4, 0x00, 0x00, 0x00, 0xbc, 0x00, 0x00, 0x00,
  0xb4, 0x00, 0x00, 0x00, 0xac, 0x00, 0x00, 0x00, 0xa4, 0x00, 0x00, 0x00,
  0x9c, 0x00, 0x00, 0x00, 0x94, 0x00, 0x00, 0x00, 0x8c, 0x00, 0x00, 0x00,
  0x6c, 0x00, 0x00, 0x00, 0x04, 0x00, 0x00, 0x00, 0x6a, 0xe5, 0xff, 0xff,
  0x04, 0x00, 0x00, 0x00, 0x58, 0x00, 0x00, 0x00, 0x0c, 0x00, 0x00, 0x00,
  0x08, 0x00, 0x0e, 0x00, 0x08, 0x00, 0x04, 0x00, 0x08, 0x00, 0x00, 0x00,
  0x10, 0x00, 0x00, 0x00, 0x28, 0x00, 0x00, 0x00, 0x00, 0x00, 0x06, 0x00,
  0x08, 0x00, 0x04, 0x00, 0x06, 0x00, 0x00, 0x00, 0x04, 0x00, 0x00, 0x00,
  0x01, 0x00, 0x00, 0x00, 0xea, 0x03, 0x00, 0x00, 0x00, 0x00, 0x0a, 0x00,
  0x10, 0x00, 0x0c, 0x00, 0x08, 0x00, 0x04, 0x00, 0x0a, 0x00, 0x00, 0x00,
  0x02, 0x00, 0x00, 0x00, 0x02, 0x00, 0x00, 0x00, 0x04, 0x00, 0x00, 0x00,
  0x05, 0x00, 0x00, 0x00, 0x32, 0x2e, 0x39, 0x2e, 0x32, 0x00, 0x00, 0x00,
  0xce, 0xe5, 0xff, 0xff, 0x04, 0x00, 0x00, 0x00, 0x10, 0x00, 0x00, 0x00,
  0x32, 0x2e, 0x33, 0x2e, 0x30, 0x00, 0x00, 0x00, 0x00, 0x00, 0x00, 0x00,
  0x00, 0x00, 0x00, 0x00, 0x6c, 0xdc, 0xff, 0xff, 0x70, 0xdc, 0xff, 0xff,
  0x74, 0xdc, 0xff, 0xff, 0x78, 0xdc, 0xff, 0xff, 0x7c, 0xdc, 0xff, 0xff,
  0x80, 0xdc, 0xff, 0xff, 0x84, 0xdc, 0xff, 0xff, 0x88, 0xdc, 0xff, 0xff,
  0x0a, 0xe6, 0xff, 0xff, 0x04, 0x00, 0x00, 0x00, 0x00, 0x0e, 0x00, 0x00,
  0x02, 0x1d, 0x03, 0xf7, 0x00, 0x03, 0xfe, 0xfe, 0xfa, 0xfb, 0x02, 0xfb,
  0x00, 0x0d, 0xff, 0x00, 0xfa, 0x22, 0x01, 0xfd, 0xff, 0x05, 0x00, 0xf8,
  0xfb, 0xfd, 0xff, 0xfa, 0x03, 0x12, 0x00, 0x06, 0xff, 0x1f, 0x01, 0xfa,
  0x01, 0x07, 0x03, 0xf9, 0xfc, 0xfb, 0x02, 0xfe, 0xfd, 0x12, 0xfc, 0x10,
  0x02, 0x1e, 0x10, 0xee, 0xfc, 0x19, 0x08, 0xff, 0xf9, 0xff, 0x02, 0x01,
  0xff, 0x05, 0x01, 0x26, 0xfd, 0x10, 0x0a, 0xf9, 0x00, 0x0c, 0x0b, 0xfa,
  0xfd, 0xfe, 0x05, 0x06, 0xfd, 0xf6, 0xfc, 0x25, 0x00, 0x0f, 0xff, 0xf9,
  0xfb, 0x0f, 0x06, 0x06, 0xfe, 0xff, 0xfe, 0x07, 0x05, 0x02, 0xf6, 0x1b,
  0x03, 0x05, 0xfc, 0x03, 0xff, 0x0e, 0x06, 0x02, 0x03, 0x01, 0x00, 0x03,
  0x02, 0xf5, 0xfe, 0x0a, 0xfa, 0xef, 0xfa, 0x0a, 0x07, 0x08, 0x03, 0x0b,
  0xfb, 0x01, 0x09, 0xfe, 0x03, 0xf1, 0xff, 0xf7, 0x04, 0xe0, 0xf8, 0xfe,
  0x03, 0xfd, 0xfd, 0x04, 0x01, 0xfd, 0x06, 0xf7, 0x05, 0xf8, 0xff, 0xe9,
  0x00, 0xe3, 0xfd, 0x00, 0x05, 0xf3, 0xfd, 0x0e, 0x00, 0x01, 0x02, 0xf4,
  0x03, 0xf6, 0xff, 0xe2, 0x04, 0xdf, 0xfb, 0x01, 0x05, 0xfc, 0xff, 0x04,
  0x03, 0xff, 0x04, 0xf3, 0xfb, 0xfe, 0xfe, 0xe9, 0x00, 0xe6, 0xfc, 0x01,
  0x04, 0xef, 0xfe, 0x04, 0x03, 0x03, 0x01, 0xfa, 0xfb, 0xf3, 0xff, 0xea,
  0x01, 0xef, 0xfd, 0xfd, 0xff, 0xf0, 0x07, 0x00, 0x00, 0xfd, 0x02, 0xf7,
  0xfa, 0xf3, 0xfe, 0xe3, 0xf9, 0xf4, 0x00, 0xf6, 0x00, 0xf2, 0x07, 0x04,
  0xff, 0x00, 0x01, 0x00, 0x04, 0xed, 0xff, 0xfb, 0x03, 0xd9, 0xf3, 0x06,
  0x04, 0xe8, 0xda, 0xfb, 0xfe, 0xff, 0xfc, 0xfd, 0x04, 0x03, 0xfe, 0xd5,
  0x02, 0xdc, 0x0e, 0x00, 0x02, 0xde, 0xd4, 0x03, 0x00, 0x03, 0x04, 0xf2,
  0x03, 0x05, 0xfd, 0xd4, 0x01, 0xf2, 0x08, 0x0c, 0x05, 0xd7, 0xea, 0xff,
  0xfe, 0xfe, 0xff, 0xf7, 0x01, 0x06, 0xfc, 0xd2, 0xfb, 0x05, 0xf2, 0x07,
  0x01, 0xff, 0xfb, 0x0a, 0x03, 0xfd, 0xf3, 0xfd, 0xfe, 0x01, 0x00, 0xf2,
  0xfe, 0x15, 0xd7, 0x0a, 0x00, 0xf1, 0x00, 0x01, 0x00, 0xf9, 0xe9, 0xf8,
  0xff, 0x04, 0x00, 0xfb, 0x02, 0x0b, 0xe0, 0x18, 0x05, 0xf2, 0x01, 0x08,
  0x03, 0xf3, 0xf0, 0xf9, 0xff, 0x08, 0xfc, 0x00, 0x04, 0x21, 0xf7, 0x15,
  0x08, 0x05, 0x07, 0x11, 0xfe, 0xfb, 0xf5, 0xfc, 0xfb, 0xff, 0x00, 0x17,
  0x04, 0x22, 0x00, 0x09, 0xfc, 0x14, 0x0d, 0x0c, 0xfe, 0xfc, 0x00, 0x01,
  0x04, 0xfd, 0xfc, 0x17, 0xfd, 0x22, 0x0d, 0xfc, 0x05, 0x21, 0x0f, 0xf6,
  0x00, 0x03, 0x02, 0xfe, 0x00, 0x01, 0xf9, 0x1c, 0xff, 0x2e, 0x06, 0xfb,
  0xfb, 0x19, 0x0f, 0xff, 0x02, 0xfc, 0xff, 0xf7, 0xfe, 0x00, 0xfc, 0x18,
  0x01, 0x26, 0x04, 0xf5, 0x08, 0x17, 0x05, 0x0d, 0x04, 0xfb, 0xff, 0xf6,
  0x00, 0x00, 0xfb, 0x16, 0x03, 0x14, 0x0d, 0x02, 0xff, 0x01, 0x02, 0x00,
  0x02, 0xfd, 0xfd, 0xfa, 0x01, 0x08, 0xf8, 0x05, 0x03, 0xfd, 0x0a, 0xfb,
  0x00, 0xff, 0xf2, 0x02, 0x03, 0xfd, 0x02, 0xfd, 0xfb, 0xff, 0xfd, 0xfb,
  0xfa, 0xeb, 0x0d, 0xf8, 0x07, 0xfb, 0xf5, 0xf2, 0x01, 0xf6, 0xff, 0xff,
  0xff, 0xfc, 0xf9, 0xe9, 0x02, 0xe9, 0x00, 0x0b, 0x06, 0x0c, 0xe3, 0x05,
  0x01, 0x01, 0x00, 0xf2, 0x02, 0x0a, 0x00, 0xf3, 0x01, 0xf0, 0x0a, 0x02,
  0x03, 0x0d, 0xec, 0x08, 0x02, 0xff, 0x03, 0xfd, 0x05, 0x00, 0xfb, 0xef,
  0x01, 0xfd, 0xfc, 0xfc, 0xff, 0x13, 0xe4, 0xfd, 0x01, 0xfe, 0x03, 0xf8,
  0xfb, 0x02, 0x00, 0xfd, 0x01, 0xf6, 0x08, 0xff, 0xff, 0xf5, 0xd4, 0x07,
  0xfc, 0x02, 0x00, 0x0e, 0x01, 0x00, 0xfc, 0xed, 0x02, 0xf6, 0x09, 0xec,
  0x06, 0xf9, 0xdb, 0x00, 0xfb, 0x04, 0x03, 0x0c, 0xfe, 0xf3, 0x01, 0xe9,
  0xfb, 0xe9, 0x09, 0xf0, 0xfc, 0x01, 0xd5, 0x01, 0x01, 0x08, 0x05, 0x10,
  0x01, 0xed, 0xfa, 0xdf, 0xfd, 0xe4, 0x01, 0xf8, 0xfc, 0x01, 0xdb, 0x00,
  0xfe, 0xfe, 0xfc, 0x09, 0x00, 0x03, 0xfd, 0xe5, 0x02, 0xd4, 0xf9, 0x02,
  0x00, 0x0e, 0xd9, 0x03, 0xf7, 0xf8, 0xf7, 0x07, 0xfd, 0xfe, 0xf9, 0xe3,
  0x03, 0xd6, 0xfa, 0x0c, 0x02, 0x0c, 0xd5, 0x09, 0xfc, 0xfb, 0xfe, 0x07,
  0x03, 0xf8, 0xfe, 0xe2, 0xfc, 0xda, 0xf7, 0x07, 0x0a, 0xf8, 0xdc, 0xfb,
  0xfe, 0xfd, 0xfa, 0x0e, 0x02, 0xfc, 0xfb, 0xd4, 0xfe, 0xcb, 0xf6, 0x02,
  0x02, 0x07, 0xda, 0xfd, 0xfc, 0x02, 0x01, 0x0a, 0x05, 0xf9, 0xff, 0xe0,
  0xfb, 0xdb, 0xf6, 0x02, 0x04, 0x0c, 0xe1, 0x05, 0xff, 0x02, 0xff, 0x0e,
  0xfa, 0x08, 0xff, 0xf1, 0xff, 0xec, 0xf9, 0x07, 0x01, 0x0c, 0xf3, 0x00,
  0xfd, 0xfe, 0x04, 0x04, 0x02, 0xf8, 0x03, 0xf8, 0xfa, 0x04, 0xf3, 0x08,
  0x01, 0x0a, 0xf0, 0x0c, 0x00, 0x03, 0xff, 0x09, 0xff, 0xf6, 0xfb, 0x0a,
  0xfc, 0x05, 0xf2, 0x03, 0xff, 0xfc, 0xf6, 0xf5, 0xfc, 0x03, 0xfd, 0xf8,
  0xff, 0x01, 0x04, 0xfb, 0xfa, 0x27, 0xfc, 0x0b, 0x02, 0xfa, 0xfe, 0xfc,
  0xfd, 0xfd, 0xff, 0x09, 0x04, 0x00, 0xfb, 0x0b, 0x02, 0x42, 0xf8, 0x00,
  0x02, 0x00, 0xfd, 0xfb, 0x02, 0x01, 0xfc, 0x08, 0xfe, 0x00, 0xfc, 0x0b,
  0x02, 0x4d, 0xfb, 0x07, 0x01, 0x22, 0x03, 0xfb, 0x01, 0xff, 0xfe, 0xfd,
  0xfe, 0x05, 0xfe, 0x10, 0xfd, 0x22, 0xfd, 0x1b, 0x05, 0x18, 0x06, 0x03,
  0x06, 0x00, 0xf5, 0xef, 0x06, 0x04, 0xfb, 0x0b, 0xfb, 0x0f, 0xf6, 0x24,
  0xfe, 0x0f, 0xfc, 0x0b, 0xfd, 0xf6, 0xf0, 0xf8, 0xfb, 0x19, 0x00, 0x0e,
  0x01, 0x11, 0xfd, 0x16, 0x0b, 0x2b, 0xfa, 0x0a, 0xfc, 0xfb, 0xf6, 0xfd,
  0xff, 0x09, 0xfd, 0x17, 0x02, 0x12, 0x05, 0x06, 0xfa, 0x22, 0xf4, 0x06,
  0xfe, 0xfe, 0xf9, 0xf7, 0x05, 0x01, 0xfe, 0x0f, 0x01, 0x24, 0x04, 0x02,
  0xfd, 0x16, 0xf4, 0x03, 0x04, 0xfd, 0xfa, 0xf8, 0x02, 0x00, 0xfc, 0x05,
  0xff, 0x25, 0x05, 0xf6, 0xfe, 0x05, 0xf6, 0x0f, 0x00, 0xfe, 0xff, 0xf4,
  0x01, 0xf9, 0x01, 0xfe, 0xfc, 0x1c, 0x0a, 0xec, 0x00, 0x00, 0xf9, 0xff,
  0x01, 0xfd, 0x02, 0xfd, 0xfb, 0xfe, 0x02, 0xfa, 0xfa, 0x10, 0x01, 0xfe,
  0x01, 0xf3, 0xf9, 0x0d, 0x02, 0xfa, 0xfe, 0x00, 0x02, 0xff, 0xfe, 0xfb,
  0x01, 0x03, 0xfd, 0xfe, 0xfc, 0xf0, 0xf2, 0xfc, 0x07, 0xfe, 0xfc, 0xff,
  0x02, 0xff, 0xfd, 0xf2, 0xfb, 0x16, 0x00, 0xfa, 0xfb, 0xe5, 0xe9, 0xfd,
  0x09, 0x01, 0xfd, 0xf9, 0xff, 0x07, 0xfc, 0xed, 0x03, 0x02, 0x00, 0xfd,
  0xfb, 0x02, 0x01, 0x04, 0xf7, 0xff, 0x03, 0xfe, 0xfd, 0xfa, 0x00, 0xfa,
  0x00, 0xfe, 0xfc, 0x02, 0x05, 0x04, 0x04, 0xfc, 0xfc, 0xfe, 0xfd, 0xfd,
  0xfd, 0xfe, 0x04, 0xfa, 0x04, 0x02, 0x01, 0xfc, 0x03, 0x04, 0x00, 0x05,
  0xf8, 0x03, 0xff, 0xfa, 0xfe, 0xfe, 0x04, 0xfe, 0x03, 0x03, 0xfa, 0xfe,
  0x04, 0x00, 0x02, 0xfa, 0xfd, 0xf8, 0x05, 0xf6, 0x03, 0xff, 0x01, 0x02,
  0xff, 0xff, 0x03, 0x00, 0xfe, 0x01, 0xf9, 0xfd, 0x02, 0x00, 0x01, 0xf8,
  0x05, 0xff, 0xfd, 0x04, 0x03, 0xfe, 0xfb, 0xff, 0x04, 0xfc, 0xfd, 0xfc,
  0xfa, 0xfc, 0xfe, 0xfa, 0x04, 0x01, 0x00, 0xfe, 0x01, 0xff, 0x00, 0xf9,
  0x03, 0xfa, 0xf6, 0x02, 0x03, 0xf9, 0xfc, 0x04, 0xfb, 0xfc, 0xff, 0x00,
  0x00, 0xf7, 0x06, 0x01, 0xfe, 0xfe, 0xfa, 0xfd, 0xfc, 0xfc, 0x03, 0xfa,
  0x03, 0x01, 0xfd, 0xfc, 0x03, 0x01, 0x03, 0xfb, 0xfd, 0x01, 0xf9, 0xfc,
  0xfc, 0x03, 0x04, 0xfb, 0x05, 0xf9, 0xfc, 0x00, 0x02, 0xfc, 0xfe, 0xff,
  0xfa, 0x00, 0xfd, 0xfe, 0xff, 0x00, 0xfd, 0xf9, 0x00, 0xfd, 0x01, 0xfd,
  0xfe, 0x00, 0xff, 0x00, 0x02, 0x00, 0x00, 0x03, 0xfa, 0xfc, 0x00, 0xfc,
  0x04, 0xfe, 0x00, 0x00, 0xfd, 0xff, 0xfa, 0xff, 0xff, 0x03, 0xfc, 0x01,
  0x02, 0xfb, 0x03, 0xfb, 0x00, 0x00, 0xfb, 0xfe, 0x00, 0x01, 0x02, 0xf9,
  0xfe, 0x00, 0x00, 0xf9, 0xfa, 0xfb, 0xf9, 0xfe, 0x03, 0x01, 0x04, 0x01,
  0xff, 0x01, 0xff, 0xfb, 0xfc, 0x00, 0xfc, 0xfc, 0x02, 0x03, 0xff, 0xfd,
  0xfc, 0x01, 0xfe, 0x05, 0xfd, 0xed, 0x04, 0x04, 0x04, 0x0f, 0xe1, 0x00,
  0xf9, 0xff, 0x09, 0x03, 0x03, 0xfb, 0xfb, 0xf3, 0x01, 0xe1, 0x16, 0xeb,
  0x08, 0x0c, 0xde, 0x04, 0x00, 0x06, 0x04, 0x04, 0xfa, 0xf0, 0xfc, 0xed,
  0x05, 0xe6, 0x08, 0xe5, 0x05, 0xff, 0xda, 0x03, 0x03, 0x00, 0x02, 0x00,
  0x01, 0xf5, 0xfb, 0xdc, 0xfe, 0xeb, 0x13, 0xe0, 0xfb, 0xf3, 0xcf, 0x06,
  0xf7, 0x00, 0x04, 0x0c, 0xfc, 0xee, 0xfd, 0xde, 0x01, 0xef, 0x0a, 0xeb,
  0xfa, 0x00, 0xd8, 0xfd, 0xf8, 0x00, 0xfa, 0x0c, 0xfb, 0xfe, 0xfa, 0xeb,
  0x02, 0xee, 0xfb, 0x02, 0xfe, 0x02, 0xde, 0xff, 0x02, 0x00, 0xf6, 0x08,
  0xff, 0x02, 0xfd, 0xec, 0x00, 0xf1, 0xf7, 0x06, 0xfd, 0x0f, 0xf7, 0x03,
  0xfb, 0xff, 0xf9, 0x0b, 0x00, 0x0a, 0xfb, 0xf2, 0x04, 0xec, 0xf3, 0x07,
  0xfc, 0x06, 0xf5, 0x02, 0xfe, 0xfe, 0x04, 0x03, 0x04, 0x04, 0xff, 0xee,
  0xfe, 0xef, 0xf9, 0x0b, 0x00, 0x07, 0xf8, 0x09, 0xfe, 0xff, 0xff, 0x04,
  0x01, 0x01, 0xfe, 0xfb, 0xfc, 0xec, 0xf0, 0x04, 0x01, 0x05, 0xf5, 0x01,
  0xfe, 0xff, 0xfc, 0x0a, 0xfe, 0x03, 0xfe, 0xfd, 0xfe, 0xf2, 0xf3, 0x0a,
  0x01, 0x05, 0xf8, 0xff, 0xfe, 0xff, 0xff, 0x07, 0x05, 0x03, 0xff, 0xfd,
  0x03, 0xe7, 0xfc, 0x01, 0x04, 0x11, 0xf5, 0x06, 0x00, 0x03, 0xff, 0x02,
  0x04, 0x05, 0xff, 0xfa, 0xf9, 0xdb, 0xfd, 0x08, 0x06, 0x05, 0xf8, 0x05,
  0x00, 0x01, 0xfe, 0xfe, 0xff, 0x04, 0x04, 0xf5, 0x02, 0xf5, 0x02, 0x06,
  0x06, 0x02, 0xf9, 0xfe, 0x00, 0xfe, 0xff, 0x00, 0x04, 0x05, 0xfe, 0xf1,
  0xff, 0x15, 0xf5, 0xf2, 0x0a, 0xfc, 0xfe, 0xfb, 0x05, 0x02, 0xf9, 0xf0,
  0x01, 0xf4, 0x07, 0x06, 0x02, 0x1e, 0xf5, 0xfa, 0x06, 0xfc, 0xfd, 0x03,
  0x04, 0x00, 0x00, 0xf1, 0xfd, 0xf7, 0x02, 0x07, 0xfd, 0x4c, 0xf5, 0xfa,
  0x04, 0x07, 0xfa, 0x00, 0x04, 0x02, 0x00, 0xf3, 0xfa, 0xf6, 0x02, 0x1b,
  0xfc, 0x4b, 0xfd, 0xf4, 0x00, 0x21, 0x04, 0x05, 0x02, 0x02, 0x09, 0xf4,
  0xfe, 0xf3, 0x00, 0x31, 0xff, 0x33, 0x00, 0xfa, 0x04, 0x0c, 0x01, 0x01,
  0x03, 0x03, 0x02, 0xf4, 0xf9, 0xed, 0x04, 0x23, 0xff, 0x0e, 0x03, 0xf3,
  0x02, 0xfe, 0xfc, 0xfa, 0x06, 0x02, 0x01, 0xf8, 0xfb, 0xf6, 0x00, 0x0c,
  0x05, 0xe7, 0x02, 0xee, 0x07, 0xf1, 0xff, 0x02, 0x01, 0x01, 0x06, 0xf9,
  0x02, 0xe7, 0xfc, 0xfe, 0x00, 0xd6, 0xfc, 0xfd, 0x06, 0xf0, 0xfe, 0x07,
  0x05, 0x01, 0x01, 0xf9, 0x01, 0xf2, 0x02, 0xef, 0x00, 0xe8, 0xff, 0xfb,
  0x04, 0xf7, 0xff, 0xfc, 0x01, 0x00, 0xff, 0xf0, 0x01, 0xf7, 0x06, 0xf2,
  0x06, 0x20, 0xff, 0x00, 0x03, 0xff, 0xfa, 0x00, 0x03, 0x01, 0xfe, 0xf6,
  0xfd, 0xf3, 0x00, 0x06, 0x00, 0x20, 0x02, 0xf5, 0x02, 0x0f, 0xff, 0xfb,
  0x05, 0x06, 0xfd, 0xf7, 0xfb, 0xf3, 0x05, 0x10, 0x00, 0x02, 0x04, 0xf6,
  0x08, 0x01, 0xf9, 0xff, 0x03, 0xfe, 0xfd, 0xea, 0x01, 0xf1, 0x00, 0x05,
  0xfe, 0xe2, 0x03, 0xf7, 0x07, 0xf3, 0xfe, 0xfb, 0x02, 0x02, 0xfc, 0xf0,
  0xff, 0xf5, 0x05, 0xfb, 0x01, 0xdf, 0xf8, 0xf0, 0x07, 0xea, 0xfa, 0xff,
  0x07, 0x02, 0x02, 0xfe, 0x02, 0xf3, 0x05, 0xf4, 0x04, 0xec, 0xff, 0xde,
  0x0d, 0xf2, 0xf5, 0x05, 0x02, 0x03, 0x00, 0xe9, 0x02, 0xe1, 0x04, 0xff,
  0x03, 0xe7, 0xfa, 0xe5, 0x0a, 0xcb, 0xf3, 0x05, 0x01, 0x04, 0x04, 0xef,
  0x05, 0xe4, 0x08, 0xf5, 0xfc, 0xf2, 0xfe, 0xe3, 0x0c, 0xd6, 0xf6, 0x02,
  0x06, 0x06, 0xfe, 0xf4, 0x04, 0xe5, 0x03, 0x02, 0xfd, 0xe6, 0xfd, 0xee,
  0x0d, 0xe9, 0xf6, 0x05, 0xfe, 0x01, 0x04, 0xf1, 0xff, 0xef, 0x06, 0xff,
  0xfe, 0xf6, 0xfd, 0xe9, 0x0b, 0xe5, 0xf9, 0x06, 0x02, 0x03, 0x01, 0xf9,
  0x00, 0xf1, 0x02, 0xfc, 0xfc, 0xf5, 0x00, 0xf4, 0x0a, 0xd5, 0xfc, 0x00,
  0xff, 0x00, 0x03, 0xf9, 0xfe, 0xee, 0xff, 0x03, 0x04, 0xf8, 0xfb, 0xf1,
  0x04, 0xdb, 0xfc, 0x01, 0x01, 0x05, 0x01, 0xf7, 0x02, 0xf7, 0x04, 0xff,
  0x04, 0x02, 0x02, 0xf2, 0x08, 0xd4, 0xfb, 0x06, 0x06, 0x01, 0x01, 0xf3,
  0x03, 0xf2, 0x01, 0x05, 0x04, 0xf4, 0x00, 0xf8, 0x03, 0xd6, 0xf7, 0x04,
  0x02, 0x00, 0x00, 0xfa, 0xfb, 0xf9, 0x02, 0xff, 0xfd, 0xe3, 0xfd, 0xfa,
  0x00, 0xe3, 0xf9, 0x02, 0x07, 0x01, 0xfc, 0xfd, 0x03, 0xf9, 0x02, 0x0b,
  0x05, 0xe7, 0xfd, 0x03, 0x06, 0xe5, 0xf7, 0x01, 0x04, 0xff, 0xfe, 0xf5,
  0x02, 0xf9, 0x04, 0x06, 0x05, 0xf7, 0x03, 0xfa, 0x04, 0xec, 0xf4, 0xfc,
  0x07, 0xfe, 0x01, 0xf0, 0x00, 0xf9, 0x01, 0x07, 0x02, 0xf5, 0x07, 0xfc,
  0x08, 0xd3, 0xf6, 0x01, 0x08, 0x01, 0xfd, 0xec, 0x02, 0xf4, 0x02, 0x0b,
  0xfe, 0xb5, 0xfa, 0xfc, 0x08, 0xd5, 0xf4, 0xff, 0x05, 0xff, 0xfd, 0xfc,
  0xff, 0xf3, 0x08, 0xfa, 0x05, 0xda, 0x00, 0x01, 0x02, 0x05, 0xf7, 0x00,
  0xfc, 0x01, 0xff, 0xf9, 0xfd, 0xf6, 0x02, 0xe1, 0x04, 0xbc, 0x02, 0xed,
  0x0a, 0x05, 0xf6, 0xfe, 0x06, 0x03, 0x06, 0xf9, 0xfb, 0xf3, 0x00, 0xd7,
  0x05, 0x90, 0x0a, 0xdf, 0x09, 0xf5, 0xf5, 0x02, 0x03, 0x02, 0x03, 0xfb,
  0x02, 0xf0, 0x01, 0xbf, 0x01, 0x81, 0x04, 0xeb, 0x00, 0xe3, 0xfb, 0x00,
  0xff, 0xfd, 0xfe, 0x0d, 0xfc, 0xf2, 0x04, 0xbf, 0x07, 0xa1, 0xfd, 0xfc,
  0x07, 0x03, 0xff, 0x07, 0x03, 0x01, 0x00, 0x01, 0x03, 0xf1, 0x01, 0xe0,
  0x00, 0xbd, 0xfd, 0x07, 0x08, 0x08, 0xfc, 0xfe, 0x03, 0xfd, 0xfe, 0x02,
  0xfc, 0xf4, 0x01, 0xf2, 0x03, 0xe4, 0x05, 0x08, 0x0b, 0x06, 0xf8, 0x09,
  0x02, 0xff, 0x00, 0x02, 0x02, 0xf6, 0x00, 0xed, 0xff, 0xd4, 0xfe, 0xfe,
  0x08, 0x0b, 0xf5, 0xfd, 0xfe, 0x01, 0x01, 0xfe, 0x04, 0xf6, 0x02, 0xea,
  0x00, 0xd1, 0x05, 0xf8, 0x0a, 0x0b, 0xf9, 0xfe, 0x04, 0x00, 0xfd, 0xfd,
  0x01, 0xf5, 0x03, 0xe2, 0x06, 0xa6, 0x08, 0xe8, 0x05, 0xfa, 0xfa, 0x03,
  0x05, 0xff, 0xfc, 0xfc, 0x01, 0xf2, 0x02, 0xdb, 0x00, 0xad, 0x03, 0xf6,
  0x07, 0x03, 0xf4, 0x05, 0x04, 0xfe, 0x01, 0xf8, 0x04, 0xf6, 0x06, 0xd7,
  0xfd, 0xbb, 0x00, 0xf4, 0x0d, 0x04, 0xf9, 0x04, 0x06, 0x00, 0xff, 0xf7,
  0xfd, 0xf2, 0xfe, 0xe9, 0xfd, 0xd7, 0x00, 0xfa, 0x05, 0x0c, 0xfc, 0x03,
  0x04, 0x00, 0xfb, 0xef, 0xfc, 0xed, 0x01, 0xf5, 0xfe, 0x0a, 0xfc, 0xfc,
  0x04, 0x16, 0xfa, 0xf9, 0x03, 0x03, 0xfc, 0x00, 0xff, 0xf6, 0x03, 0xff,
  0x01, 0xf6, 0xf6, 0x00, 0x01, 0xed, 0xf9, 0x00, 0xfb, 0xfe, 0xeb, 0xfa,
  0xfe, 0x01, 0x02, 0xf1, 0xfb, 0xf2, 0x03, 0x03, 0xff, 0xe4, 0xf3, 0x04,
  0x03, 0xfe, 0xff, 0xfe, 0x01, 0x02, 0xfb, 0xe7, 0x02, 0xfb, 0xfc, 0x04,
  0x08, 0xe1, 0xf8, 0x05, 0xfd, 0xfe, 0xfb, 0x07, 0x02, 0x00, 0xfd, 0xee,
  0x03, 0xf6, 0xf4, 0xff, 0x05, 0x05, 0x0c, 0x0d, 0xfc, 0xf5, 0xe6, 0x01,
  0x00, 0x02, 0xf8, 0xfd, 0x04, 0xf7, 0xdd, 0x0c, 0x0b, 0x01, 0x11, 0xfe,
  0x02, 0xe5, 0xe0, 0xfa, 0xff, 0xfd, 0xf9, 0xff, 0xff, 0x0b, 0xf7, 0x10,
  0x03, 0x00, 0x0a, 0x04, 0xfd, 0xeb, 0xf4, 0xf9, 0x05, 0xff, 0x00, 0xff,
  0x04, 0x24, 0x0c, 0x15, 0xfa, 0xfe, 0x09, 0x03, 0x09, 0xfa, 0x03, 0xf7,
  0x05, 0x03, 0xfe, 0x1a, 0x00, 0x22, 0x0f, 0x01, 0x02, 0x06, 0x08, 0xfb,
  0x00, 0xfe, 0xfc, 0xfa, 0x04, 0x07, 0xf9, 0x1b, 0xfd, 0x18, 0x0b, 0xfc,
  0xfb, 0x0a, 0x05, 0xf8, 0x02, 0xfd, 0xff, 0x02, 0x01, 0xfc, 0x01, 0x09,
  0x04, 0x04, 0x08, 0xf5, 0xfb, 0x04, 0xff, 0x05, 0xfc, 0x04, 0x04, 0xfe,
  0x00, 0x03, 0xfb, 0x03, 0x01, 0xfb, 0x05, 0xf2, 0xf9, 0x05, 0xf8, 0x05,
  0xfd, 0xf9, 0xfd, 0x00, 0x04, 0xfb, 0xfc, 0xfa, 0xfc, 0xf4, 0xff, 0x01,
  0x02, 0xf3, 0xf8, 0x0b, 0xfe, 0xf8, 0x00, 0xfd, 0x04, 0x07, 0xfc, 0xf0,
  0x04, 0xf7, 0x08, 0x05, 0x01, 0xfb, 0xf7, 0xfa, 0x01, 0x02, 0xff, 0x07,
  0xfd, 0x02, 0x03, 0xf1, 0xfe, 0xf5, 0x0e, 0xf8, 0x03, 0xfa, 0xfe, 0xea,
  0xfe, 0xfb, 0x00, 0xff, 0xfd, 0x07, 0x01, 0xf3, 0x03, 0xd7, 0xf6, 0xe0,
  0x09, 0xf5, 0x00, 0x04, 0x05, 0x03, 0x03, 0xe9, 0xfe, 0xea, 0x06, 0x01,
  0x01, 0xcf, 0xf7, 0xe8, 0x10, 0xcb, 0xfb, 0x03, 0x05, 0x05, 0x01, 0xf4,
  0xfb, 0xe9, 0x05, 0xff, 0xfd, 0xc0, 0xfa, 0xe1, 0x0f, 0xe6, 0x00, 0x02,
  0x05, 0x03, 0x01, 0xf4, 0xfe, 0xec, 0x03, 0xfa, 0x02, 0xc0, 0xf7, 0xe8,
  0x06, 0xf6, 0xfd, 0x06, 0x00, 0x04, 0x00, 0xfc, 0xfd, 0xea, 0x02, 0xfd,
  0xfd, 0xe1, 0xfa, 0xed, 0x0a, 0xf2, 0xfd, 0x04, 0x03, 0x01, 0x05, 0xf6,
  0xfb, 0xed, 0x05, 0x03, 0x05, 0x05, 0xf9, 0xf5, 0x08, 0xe4, 0xfd, 0xfb,
  0x03, 0xff, 0x01, 0xfe, 0xff, 0xed, 0x03, 0x03, 0xfd, 0x03, 0xfc, 0xec,
  0x04, 0xf0, 0xfa, 0xfa, 0x03, 0xff, 0x00, 0xff, 0x03, 0xeb, 0x04, 0x02,
  0x02, 0xe7, 0xff, 0xec, 0x01, 0xef, 0xfd, 0xf9, 0x03, 0x03, 0x03, 0xfd,
  0x03, 0xf8, 0x02, 0x07, 0xfc, 0xba, 0xfe, 0xea, 0x06, 0xf0, 0xfa, 0xfe,
  0x08, 0xff, 0x00, 0xfa, 0xff, 0xfa, 0xfe, 0x04, 0x02, 0xb9, 0xfd, 0xfe,
  0x05, 0xf2, 0xfc, 0xff, 0x05, 0x00, 0x00, 0xfc, 0xff, 0xf6, 0x04, 0x08,
  0x05, 0xbc, 0xff, 0xfb, 0x04, 0xf2, 0xfa, 0xfc, 0x09, 0x02, 0xfe, 0xf5,
  0x02, 0xfb, 0x01, 0x05, 0x02, 0xc0, 0xff, 0xfd, 0x03, 0xe7, 0xfc, 0x00,
  0x0a, 0xff, 0xfb, 0xf2, 0x00, 0xf9, 0x04, 0xfc, 0x05, 0xe9, 0xf9, 0xfc,
  0x02, 0xdc, 0xf6, 0xff, 0x06, 0x03, 0x03, 0xf1, 0xff, 0xfb, 0x06, 0x08,
  0xfd, 0xf6, 0xf3, 0xf6, 0x03, 0xce, 0xf8, 0x01, 0x05, 0x02, 0x00, 0xf8,
  0x04, 0xec, 0x06, 0x00, 0xfc, 0xf4, 0x09, 0xfd, 0x02, 0x02, 0xf2, 0xff,
  0x04, 0x03, 0x02, 0x07, 0xfb, 0xed, 0xff, 0xf6, 0xfd, 0xf6, 0x09, 0xfe,
  0x03, 0xfa, 0xed, 0x06, 0x00, 0x00, 0x02, 0x07, 0x01, 0xe1, 0x00, 0xf6,
  0xfc, 0xf6, 0x07, 0xfd, 0xfe, 0x09, 0xf2, 0xfd, 0x00, 0xfd, 0x01, 0x06,
  0xff, 0xe1, 0xfe, 0xf9, 0xfa, 0xf7, 0x00, 0x07, 0x06, 0xfc, 0xe5, 0x06,
  0x01, 0x00, 0x05, 0x05, 0xfb, 0xf5, 0xfe, 0xf4, 0xfd, 0xfd, 0x02, 0x0d,
  0xfe, 0x00, 0xe7, 0x00, 0x01, 0xfe, 0x05, 0xfa, 0xff, 0x03, 0x00, 0xf1,
  0x01, 0xf7, 0xfd, 0x00, 0x02, 0xff, 0xe1, 0x04, 0xfe, 0x01, 0x05, 0x02,
  0x00, 0x00, 0x00, 0xe6, 0xfd, 0xed, 0xff, 0x03, 0x01, 0xfa, 0xeb, 0x0b,
  0xfc, 0x00, 0x01, 0x01, 0xff, 0xfd, 0x01, 0xe7, 0xfe, 0xe4, 0x01, 0xf5,
  0x00, 0x02, 0xf0, 0xfc, 0xf7, 0x03, 0x05, 0x01, 0xfe, 0xeb, 0xf8, 0xe5,
  0xfe, 0xda, 0xfd, 0xee, 0xfe, 0xfe, 0xe5, 0xfa, 0xfe, 0xfd, 0xfc, 0x08,
  0xfe, 0xed, 0xfa, 0xe4, 0xfd, 0xda, 0xfb, 0xe8, 0x03, 0xfb, 0xeb, 0xfe,
  0xf5, 0xff, 0xfd, 0x0e, 0xfe, 0xf5, 0xfb, 0xe0, 0xfc, 0xd9, 0xfd, 0xf7,
  0xfd, 0xfb, 0xec, 0xff, 0xfc, 0x03, 0xfc, 0x10, 0xfc, 0xf5, 0xfe, 0xe7,
  0x00, 0xe6, 0xfc, 0xf2, 0xfe, 0x0a, 0xf3, 0xfe, 0xf8, 0xfe, 0x01, 0x0e,
  0x02, 0xf9, 0x03, 0xf7, 0xfe, 0xf4, 0xf6, 0x04, 0xfd, 0x02, 0xfc, 0x01,
  0xff, 0x00, 0x01, 0x0c, 0xff, 0xf8, 0xfe, 0x0a, 0xfb, 0xf7, 0xfb, 0x0b,
  0xfd, 0x07, 0xf6, 0xff, 0x01, 0xfb, 0x03, 0x09, 0x01, 0xf2, 0xf7, 0x11,
  0x04, 0xda, 0xfd, 0xfd, 0x05, 0xf3, 0xee, 0xff, 0x00, 0xfe, 0xfc, 0xf3,
  0xfe, 0xfc, 0xff, 0xe4, 0xff, 0xd3, 0xfb, 0xfb, 0x04, 0xf0, 0xe8, 0xfc,
  0x02, 0xff, 0xfd, 0xfb, 0xfe, 0xfb, 0x00, 0xe3, 0x03, 0xea, 0xfb, 0xfe,
  0x02, 0xe8, 0xf8, 0x01, 0x01, 0xfe, 0xff, 0xfe, 0x03, 0x07, 0x00, 0xe8,
  0x00, 0xec, 0xf7, 0x08, 0x01, 0xf7, 0xfc, 0x04, 0xff, 0x01, 0x00, 0xfa,
  0xfb, 0xfe, 0xfd, 0xea, 0xfb, 0xdc, 0xff, 0x10, 0x01, 0xec, 0xf3, 0x00,
  0x01, 0x00, 0xff, 0x05, 0x04, 0x08, 0x00, 0xe3, 0xfd, 0xde, 0xf8, 0x07,
  0xff, 0xf0, 0xf6, 0x04, 0x01, 0x01, 0xfe, 0x02, 0xff, 0x01, 0x00, 0xe2,
  0xfd, 0xf6, 0xf9, 0x14, 0x01, 0xed, 0xfa, 0x04, 0x00, 0xfe, 0xfc, 0x01,
  0xff, 0x06, 0x01, 0xf2, 0xff, 0x16, 0xf3, 0x14, 0x04, 0xf6, 0x19, 0x00,
  0xfb, 0xfc, 0xf3, 0x04, 0x04, 0x0c, 0xfc, 0x0f, 0x01, 0x24, 0xe3, 0x15,
  0x00, 0x05, 0x19, 0xfd, 0xfb, 0xf8, 0xfd, 0x01, 0x01, 0x08, 0x01, 0x1a,
  0x04, 0x23, 0xed, 0x09, 0x00, 0x12, 0x0b, 0x08, 0xfc, 0xfc, 0xfd, 0xfe,
  0x05, 0x01, 0xfb, 0x25, 0xfe, 0x20, 0xff, 0xf5, 0xff, 0x1a, 0x06, 0xfb,
  0x03, 0x00, 0xfd, 0xf4, 0x02, 0xf8, 0xf9, 0x25, 0xfe, 0x1e, 0x11, 0xf6,
  0x02, 0x06, 0xff, 0xfe, 0x00, 0xff, 0xfc, 0xf9, 0x03, 0xfd, 0xff, 0x1f,
  0x06, 0x0a, 0x11, 0xf4, 0xff, 0x06, 0xef, 0x00, 0xff, 0xfb, 0xff, 0xfd,
  0xfd, 0xfd, 0xfd, 0x0c, 0x00, 0xff, 0x03, 0xf3, 0x01, 0xfa, 0xf3, 0x00,
  0xff, 0xfb, 0xfb, 0xff, 0x02, 0xfd, 0xf9, 0xf6, 0x04, 0xff, 0x01, 0x04,
  0xfa, 0x04, 0xfc, 0x03, 0xfb, 0xfe, 0xfb, 0xfc, 0x00, 0xfb, 0x01, 0x03,
  0x00, 0xfe, 0xfb, 0xfb, 0x00, 0xff, 0x00, 0xff, 0xff, 0xfc, 0xfe, 0xf9,
  0x01, 0xfa, 0xfd, 0xfe, 0x00, 0xfd, 0x01, 0x01, 0xfa, 0xfc, 0xfd, 0xfb,
  0xfe, 0xfa, 0xfa, 0xfc, 0x05, 0x04, 0x01, 0xfe, 0x03, 0x00, 0xfd, 0x01,
  0xfd, 0x02, 0xff, 0x00, 0x02, 0xfb, 0xfa, 0xfb, 0xfc, 0x04, 0xfe, 0xfe,
  0xfd, 0xfc, 0x05, 0xfc, 0x03, 0x05, 0x03, 0x01, 0x01, 0xfb, 0xff, 0xf7,
  0xfc, 0xff, 0xfd, 0x05, 0x02, 0xfb, 0xfc, 0xf9, 0xfd, 0xfc, 0x02, 0xfb,
  0xfc, 0x02, 0x03, 0xf9, 0xfd, 0xff, 0xfd, 0xfe, 0xfb, 0xfe, 0xfe, 0x00,
  0x01, 0x00, 0x02, 0xfa, 0xfb, 0xfc, 0xfb, 0xf9, 0x03, 0xfd, 0x05, 0x03,
  0xfb, 0xfe, 0xfd, 0x04, 0x03, 0xfb, 0xff, 0xfd, 0x04, 0x01, 0x01, 0xfa,
  0x05, 0xff, 0xfd, 0x02, 0x01, 0x03, 0xfd, 0x02, 0x03, 0xfe, 0xff, 0x02,
  0xf8, 0xfa, 0xfd, 0xff, 0xfd, 0xfa, 0xfe, 0x01, 0x04, 0x02, 0xfb, 0xfb,
  0x02, 0x03, 0xfd, 0xfb, 0x03, 0xfc, 0x00, 0x00, 0x04, 0xfa, 0x00, 0xfb,
  0xfe, 0x01, 0xfa, 0x03, 0xfc, 0xff, 0xfa, 0xff, 0xfa, 0x02, 0xfb, 0xfe,
  0xfe, 0xfd, 0xfb, 0x02, 0x04, 0xfa, 0xff, 0x03, 0x03, 0xfe, 0x00, 0x05,
  0x01, 0xfd, 0x04, 0x01, 0xfb, 0xfa, 0xfd, 0x00, 0x05, 0xfd, 0xfe, 0xfe,
  0xfb, 0xfa, 0xfc, 0xfe, 0xff, 0xfe, 0xff, 0x02, 0x02, 0x02, 0x01, 0xfd,
  0x00, 0x03, 0xfc, 0x00, 0x02, 0xfb, 0xfd, 0xff, 0xff, 0x01, 0xfe, 0xfe,
  0xfc, 0x03, 0xfb, 0xfb, 0xfc, 0x0a, 0xfb, 0x03, 0x06, 0xf3, 0x04, 0xf9,
  0xff, 0xff, 0xfa, 0xf6, 0xff, 0x04, 0xfc, 0xfe, 0xfb, 0x17, 0x07, 0x00,
  0x06, 0xf1, 0x02, 0x01, 0xfb, 0x00, 0xfd, 0xf4, 0x02, 0x03, 0xff, 0x02,
  0xfa, 0x28, 0xfd, 0x07, 0x07, 0xff, 0x10, 0x0b, 0x01, 0x00, 0xf9, 0xfc,
  0xff, 0x0b, 0xfc, 0x12, 0x02, 0x23, 0xfc, 0x06, 0x04, 0x17, 0x17, 0x04,
  0xfa, 0xfa, 0xfc, 0xff, 0xfe, 0x04, 0xfb, 0x1b, 0xfe, 0x1e, 0xed, 0x05,
  0x04, 0x0a, 0x16, 0x01, 0xfe, 0xf3, 0xeb, 0xfc, 0xfe, 0xfe, 0xf9, 0x13,
  0x00, 0x13, 0xeb, 0x11, 0xf9, 0x0f, 0x08, 0x0a, 0x00, 0xec, 0xf1, 0x01,
  0xfd, 0x07, 0xf4, 0x0d, 0x01, 0x20, 0xfd, 0x13, 0xf7, 0x0f, 0xfc, 0x03,
  0x03, 0xfb, 0xfa, 0x04, 0x06, 0xff, 0xff, 0x0e, 0x07, 0x18, 0x04, 0x08,
  0x05, 0x0a, 0xfc, 0xfa, 0x00, 0xfd, 0x01, 0x01, 0x02, 0xff, 0x03, 0x07,
  0xfd, 0x1a, 0x10, 0x01, 0x02, 0x09, 0xf9, 0xff, 0x00, 0x01, 0x03, 0x04,
  0x01, 0xfa, 0xfc, 0x01, 0x02, 0x09, 0x04, 0xf6, 0x01, 0xed, 0xec, 0x04,
  0x01, 0xfb, 0x03, 0xfc, 0x03, 0x00, 0x00, 0xf9, 0x02, 0xf2, 0xfe, 0xf4,
  0xff, 0xf9, 0xef, 0x10, 0x01, 0xfd, 0x03, 0xfc, 0xfc, 0xfc, 0xfe, 0xec,
  0xfa, 0xea, 0x06, 0x01, 0x01, 0xdd, 0xef, 0x07, 0x02, 0x01, 0x01, 0xf7,
  0xfc, 0x07, 0xfe, 0xea, 0xfb, 0xe8, 0x0a, 0x05, 0x06, 0xe0, 0xf5, 0x00,
  0x00, 0xfe, 0xff, 0xf1, 0x01, 0x00, 0x00, 0xe5, 0xf9, 0xe1, 0x0c, 0xf4,
  0x00, 0xda, 0xf0, 0xf7, 0x02, 0xfe, 0x00, 0x04, 0x04, 0x01, 0xfe, 0xe6,
  0x04, 0x0c, 0x02, 0x0d, 0x01, 0x04, 0xff, 0x03, 0xfb, 0xfa, 0x01, 0xf9,
  0xfb, 0x0d, 0x00, 0x0a, 0x03, 0x0b, 0x08, 0x06, 0xfb, 0x08, 0xf9, 0xfd,
  0xfd, 0xf9, 0xfc, 0xfd, 0xfd, 0x0a, 0xfb, 0x04, 0x00, 0x0a, 0x01, 0xfa,
  0xff, 0x0c, 0xfb, 0xfb, 0xff, 0xfb, 0x07, 0xf3, 0x03, 0x07, 0xfc, 0x07,
  0xfa, 0xfb, 0x07, 0xf4, 0x01, 0xec, 0xf1, 0xff, 0xee, 0x01, 0x04, 0xfb,
  0xfe, 0xfe, 0xf6, 0x01, 0x00, 0xf4, 0x0b, 0xdb, 0xfa, 0xec, 0xf3, 0xf9,
  0xeb, 0x06, 0x07, 0xfd, 0x00, 0xf9, 0xfb, 0xef, 0x03, 0xfb, 0x0b, 0xe2,
  0xfa, 0xe6, 0xf5, 0xf9, 0x09, 0x09, 0x02, 0x02, 0xfc, 0xf8, 0xf9, 0xef,
  0xfd, 0xfe, 0xfd, 0xef, 0xf8, 0xee, 0xfc, 0xf3, 0xf2, 0x00, 0xfa, 0x0e,
  0x01, 0x05, 0xfc, 0xf5, 0xfd, 0x0a, 0xf3, 0x06, 0xfe, 0x00, 0x04, 0xfa,
  0xf8, 0xfc, 0xfb, 0x09, 0xfa, 0x09, 0xfd, 0x02, 0x01, 0x07, 0xf5, 0x0d,
  0xfe, 0x0c, 0x08, 0xfe, 0x07, 0xfa, 0xfe, 0x07, 0x03, 0x03, 0xfd, 0x06,
  0xff, 0x01, 0xf6, 0x06, 0xf7, 0xff, 0x00, 0xfb, 0xfb, 0xfb, 0xfd, 0x07,
  0xfe, 0x07, 0xf8, 0x0a, 0x04, 0x06, 0xf8, 0xff, 0xfd, 0x0d, 0x05, 0xfe,
  0xff, 0xfd, 0x01, 0x05, 0x05, 0xff, 0xff, 0x09, 0xfd, 0x02, 0xfb, 0x08,
  0x07, 0x0b, 0x04, 0x01, 0xfb, 0x00, 0x01, 0x08, 0x02, 0x05, 0xfb, 0x0a,
  0xfc, 0x03, 0xf5, 0x01, 0x04, 0x03, 0x04, 0xfb, 0x03, 0x00, 0x00, 0xfd,
  0xfa, 0x03, 0xfe, 0x06, 0xfc, 0x09, 0xf9, 0x0a, 0x00, 0x08, 0x06, 0x0d,
  0xfc, 0x03, 0xfb, 0x0b, 0xf9, 0xfe, 0xfd, 0x08, 0x16, 0xf4, 0xff, 0xff,
  0x04, 0x00, 0x00, 0x00, 0x00, 0x08, 0x00, 0x00, 0x12, 0xde, 0x95, 0xbc,
  0x87, 0xda, 0x46, 0xbe, 0x1e, 0xcd, 0xc4, 0xbe, 0x24, 0x62, 0x00, 0xbe,
  0x39, 0x8a, 0x1a, 0xbc, 0x7f, 0xc7, 0x7a, 0xbd, 0x59, 0xa8, 0xcb, 0x3d,
  0xa8, 0x0e, 0x0a, 0xbe, 0x90, 0x51, 0xc2, 0x3d, 0xad, 0x32, 0xc7, 0xba,
  0x64, 0x69, 0x92, 0xbd, 0x66, 0x3d, 0xb0, 0xbe, 0x86, 0x71, 0x0f, 0xbe,
  0xe3, 0xa0, 0xf8, 0xbd, 0x85, 0xb3, 0x0a, 0xbe, 0xfc, 0xcc, 0xdc, 0x3c,
  0x9b, 0x07, 0xf1, 0x3d, 0x78, 0xd6, 0xab, 0xbe, 0x5b, 0x71, 0x4a, 0xbe,
  0xec, 0xf2, 0xe3, 0xbe, 0x2a, 0x37, 0x1b, 0xbe, 0x27, 0x31, 0x49, 0xbe,
  0xca, 0x72, 0x0c, 0x3e, 0x49, 0x99, 0x7c, 0xbe, 0xd2, 0xe8, 0x7d, 0x3c,
  0xa5, 0x82, 0x6c, 0xbd, 0x43, 0x03, 0xb5, 0x3d, 0x0e, 0x31, 0x83, 0xbe,
  0x36, 0x1c, 0x7f, 0xbe, 0x83, 0x0c, 0x5c, 0xbe, 0xf8, 0x1b, 0x22, 0x3e,
  0x91, 0x4f, 0x4f, 0xbe, 0xdc, 0x9a, 0xae, 0xbe, 0xd3, 0xec, 0x86, 0xbf,
  0x41, 0xd9, 0xa1, 0xbe, 0xc3, 0x62, 0xa6, 0xbf, 0x64, 0xa1, 0x21, 0x3e,
  0xe1, 0x49, 0xb1, 0xbf, 0xc6, 0xbf, 0x0f, 0x3f, 0xd8, 0x53, 0x1d, 0xbf,
  0x7b, 0x3e, 0x81, 0xbe, 0x42, 0x7f, 0x88, 0xbf, 0xa2, 0x2f, 0xf7, 0xbe,
  0x86, 0x70, 0x27, 0xbf, 0x51, 0x00, 0x2e, 0x3e, 0x6f, 0x0e, 0xec, 0xbf,
  0x41, 0xa2, 0x8b, 0xbe, 0x1c, 0xd3, 0x0f, 0xbf, 0x69, 0x9c, 0xac, 0x3b,
  0x61, 0xa9, 0x09, 0xbf, 0x60, 0x76, 0x40, 0x3b, 0x33, 0x16, 0x92, 0x3e,
  0x89, 0x7a, 0x9b, 0x3e, 0x77, 0x55, 0xdb, 0xbf, 0x24, 0xd0, 0x40, 0xbf,
  0x5c, 0x2f, 0x24, 0xbf, 0x4c, 0xfa, 0xd9, 0x3d, 0x1b, 0x5b, 0xd5, 0xbd,
  0xdd, 0x20, 0x09, 0xbf, 0xfb, 0xed, 0x45, 0x3f, 0x7f, 0x06, 0xd4, 0x3e,
  0x6b, 0x08, 0x95, 0xbf, 0xa3, 0xb1, 0x68, 0xbe, 0xa9, 0xd4, 0x08, 0xbf,
  0xf5, 0x94, 0xd4, 0x3d, 0x7f, 0xd2, 0x6d, 0xbe, 0x23, 0x18, 0x22, 0xbe,
  0xfd, 0x99, 0x68, 0xbe, 0x7a, 0x9f, 0xaf, 0x3d, 0x00, 0x4a, 0xb9, 0x3e,
  0xef, 0x93, 0x3a, 0x3e, 0x11, 0x80, 0x07, 0xbe, 0x9a, 0xff, 0xb5, 0x3d,
  0x3b, 0x2c, 0x61, 0xbe, 0x77, 0xa4, 0x4c, 0xbe, 0x9b, 0xd3, 0x31, 0xbd,
  0x32, 0x73, 0x51, 0x3b, 0xf4, 0x0c, 0xee, 0xbc, 0x2b, 0x4c, 0x52, 0x3e,
  0x7f, 0x4a, 0xd6, 0xbd, 0xea, 0x6d, 0x8d, 0x3e, 0x05, 0xfa, 0xa9, 0xbe,
  0xf1, 0x51, 0x4f, 0xbe, 0x95, 0x82, 0xaf, 0xbe, 0xe1, 0xf2, 0xf2, 0xbd,
  0x90, 0x8a, 0x7c, 0x3d, 0x61, 0x10, 0x0e, 0x3e, 0xec, 0x65, 0xa6, 0xbd,
  0x9e, 0x4f, 0x4f, 0x3e, 0xb0, 0x88, 0x93, 0xbe, 0x2d, 0x98, 0x05, 0x3d,
  0xec, 0x49, 0x06, 0xbe, 0xec, 0x9c, 0xf9, 0x3d, 0x37, 0x83, 0x58, 0xbd,
  0xef, 0x21, 0x00, 0xbe, 0xe3, 0x62, 0xf0, 0xbd, 0x2d, 0x14, 0xfb, 0xbe,
  0x56, 0xef, 0x88, 0x3e, 0x8a, 0x6b, 0x32, 0xbe, 0x8f, 0x8f, 0x99, 0x3d,
  0x50, 0x8f, 0x8a, 0xbf, 0xf0, 0xfc, 0x90, 0xbc, 0xe5, 0x50, 0xaa, 0xbd,
  0x4a, 0xee, 0x00, 0xbe, 0x14, 0x6b, 0xb6, 0xbe, 0xdb, 0x8b, 0x85, 0x3d,
  0xac, 0xc6, 0x4b, 0x3d, 0x51, 0x21, 0xb6, 0x3e, 0xf1, 0x3a, 0x7c, 0xbd,
  0x47, 0xe6, 0x3d, 0xbc, 0xb3, 0xcf, 0x19, 0xbe, 0x9d, 0x22, 0xbf, 0xbe,
  0x4f, 0x46, 0x38, 0xbe, 0x32, 0x65, 0xb7, 0x3d, 0x4d, 0x7b, 0x13, 0xbe,
  0xaa, 0x20, 0x2b, 0xbd, 0x1f, 0x2e, 0x35, 0xbf, 0x96, 0x8e, 0x8b, 0xbd,
  0x71, 0xb0, 0xf2, 0xbc, 0x68, 0x65, 0xa7, 0xbe, 0xbe, 0x7a, 0xe3, 0xbe,
  0x37, 0x64, 0x73, 0xbd, 0xae, 0xee, 0xfe, 0x3e, 0xc9, 0x58, 0xf2, 0xbd,
  0x3a, 0xea, 0x59, 0xbf, 0xac, 0x7d, 0x66, 0x3d, 0xaf, 0xd9, 0xfd, 0x3a,
  0xfd, 0xef, 0x64, 0xbd, 0xfb, 0x47, 0x6c, 0xbd, 0x7a, 0x0c, 0xbd, 0x3d,
  0xbe, 0x41, 0x16, 0x3e, 0xb9, 0xf3, 0x6b, 0xbd, 0x97, 0x0f, 0x8a, 0xbe,
  0x68, 0xdd, 0x67, 0xbe, 0xd7, 0x75, 0x96, 0x3c, 0xaf, 0x85, 0x32, 0x3e,
  0x8f, 0x08, 0xa2, 0xbe, 0x72, 0x39, 0x1f, 0xbe, 0x61, 0xeb, 0x31, 0x3e,
  0x2c, 0x63, 0xb7, 0x3d, 0x1d, 0x07, 0x6d, 0xbe, 0x56, 0xaf, 0x62, 0xbe,
  0xa0, 0xec, 0x80, 0xbd, 0x50, 0x6d, 0x74, 0x3e, 0x61, 0x7c, 0x3f, 0xbd,
  0x26, 0x49, 0x7d, 0x3e, 0xc0, 0x55, 0x5d, 0x3e, 0x5e, 0xa6, 0x14, 0x3e,
  0xda, 0xca, 0x88, 0xbe, 0x81, 0xa1, 0x53, 0xbe, 0x71, 0xe0, 0x43, 0x3e,
  0xc9, 0xcf, 0xa5, 0xbd, 0xf8, 0x51, 0xef, 0x3c, 0x1c, 0x9f, 0x9d, 0x3e,
  0x7c, 0x27, 0x35, 0xbe, 0x07, 0x05, 0x31, 0xbe, 0xe6, 0xb6, 0x70, 0xbe,
  0xe7, 0x8e, 0x85, 0xbe, 0x1b, 0x21, 0xe9, 0xbd, 0x1e, 0xa6, 0x17, 0x3e,
  0x5b, 0x51, 0xac, 0xbd, 0xb5, 0x46, 0x12, 0xbf, 0x0e, 0x39, 0xb3, 0xbe,
  0x3c, 0x4f, 0xb1, 0xbe, 0x98, 0x0b, 0xfb, 0xbd, 0x55, 0x9b, 0x89, 0xbe,
  0x21, 0x54, 0x01, 0xbf, 0x1b, 0x1d, 0x80, 0xbe, 0xa3, 0xb9, 0xbb, 0x3d,
  0x21, 0x30, 0x2b, 0xbf, 0x2c, 0x6f, 0x07, 0xbf, 0x9d, 0x58, 0xc6, 0xbd,
  0x05, 0xf7, 0x4a, 0x3e, 0x3f, 0x30, 0xef, 0xbe, 0xc4, 0x73, 0x18, 0xbf,
  0x77, 0x6f, 0x44, 0xbe, 0x15, 0xd2, 0xf5, 0x3d, 0xcd, 0xdc, 0x82, 0xbe,
  0x5b, 0x95, 0x59, 0xbe, 0xbc, 0xbb, 0x9c, 0x3d, 0x0e, 0xa7, 0xca, 0x3e,
  0xd9, 0xd8, 0xa4, 0xbe, 0xda, 0x94, 0xc9, 0xbe, 0xc2, 0x5f, 0x59, 0xbe,
  0xef, 0x02, 0x2f, 0x3e, 0xb4, 0x45, 0x23, 0x3e, 0x2d, 0x67, 0x03, 0x3e,
  0x94, 0x9b, 0xc1, 0x3e, 0x7b, 0x72, 0xb0, 0x3d, 0x7d, 0xf5, 0x7c, 0x3c,
  0x98, 0xd3, 0xaa, 0x3e, 0x3f, 0x56, 0x61, 0xbd, 0x20, 0x62, 0xba, 0x3d,
  0xcc, 0xd6, 0x9e, 0xbd, 0x12, 0x5e, 0x8d, 0xbe, 0x2f, 0x71, 0xe1, 0xbc,
  0xf9, 0x66, 0x02, 0x3b, 0xaf, 0x72, 0x53, 0xbf, 0x98, 0xb2, 0x8f, 0xbe,
  0xd0, 0x7b, 0x1a, 0x3e, 0x1a, 0x73, 0x1f, 0x3e, 0x53, 0x91, 0xc8, 0xbe,
  0x75, 0x73, 0x55, 0xbe, 0x77, 0xde, 0x1c, 0x3c, 0x9c, 0xb1, 0x5f, 0x3e,
  0xa9, 0x51, 0x98, 0xbf, 0xdb, 0x7a, 0x3b, 0xbe, 0xe5, 0x65, 0x02, 0x3e,
  0x17, 0xbf, 0x9c, 0x3d, 0xd5, 0x0d, 0xae, 0xbe, 0x0d, 0xe7, 0x52, 0x3b,
  0x5d, 0x7d, 0x2f, 0x3d, 0x0e, 0x50, 0xe6, 0xbd, 0x67, 0xd4, 0xa4, 0xbf,
  0x57, 0x10, 0x91, 0xbe, 0x92, 0xc6, 0x3c, 0xbe, 0xc2, 0xea, 0xb8, 0x3d,
  0x8b, 0xa4, 0xdb, 0xbe, 0xa0, 0xf7, 0x13, 0xbd, 0x4d, 0x76, 0xf5, 0x3d,
  0xf7, 0x76, 0x9e, 0x3e, 0xb7, 0x36, 0x8c, 0xbf, 0x78, 0x4e, 0xc7, 0xbe,
  0xfb, 0x86, 0x13, 0x3d, 0x17, 0xb6, 0xa2, 0xbd, 0x1b, 0xef, 0xef, 0x3c,
  0xb0, 0x7a, 0x0e, 0xbe, 0xbc, 0xe4, 0xa3, 0x3d, 0x15, 0x47, 0xa4, 0x3e,
  0x0d, 0x64, 0x4f, 0xbc, 0x29, 0xa2, 0xd0, 0x3d, 0x3c, 0x06, 0x35, 0x3e,
  0x8c, 0x6b, 0xa6, 0xbe, 0x37, 0x45, 0xac, 0x3d, 0xa8, 0x97, 0x92, 0xbd,
  0x0c, 0x0e, 0xdc, 0xbe, 0xd1, 0x75, 0x9a, 0x39, 0xf2, 0xe1, 0x0f, 0xbc,
  0x0f, 0xfd, 0x48, 0xbe, 0xc7, 0xfb, 0x3b, 0x3e, 0x31, 0x1d, 0x26, 0xbe,
  0x3e, 0xef, 0xc3, 0x3d, 0x78, 0x8e, 0xee, 0xbe, 0xe7, 0x94, 0xd7, 0x3e,
  0x41, 0x2b, 0x6e, 0xbd, 0x3d, 0xdf, 0x0a, 0x3e, 0x4e, 0xc4, 0xe2, 0xbb,
  0x23, 0xc9, 0x40, 0xbe, 0x98, 0x7a, 0xb7, 0xbe, 0xdb, 0x27, 0x35, 0xbe,
  0xae, 0x1c, 0x07, 0x3e, 0x0e, 0x53, 0x45, 0xbe, 0x73, 0x68, 0x53, 0xbe,
  0x63, 0x37, 0xfe, 0xbd, 0x19, 0x14, 0xac, 0xbe, 0xb0, 0xc6, 0x04, 0xbe,
  0xc9, 0x99, 0x1f, 0xbd, 0xff, 0xcf, 0x94, 0x3c, 0xd0, 0x8d, 0x33, 0x3e,
  0x5f, 0xef, 0xfb, 0xbd, 0x81, 0x45, 0x15, 0x3e, 0x78, 0x30, 0xa4, 0xbe,
  0xb9, 0x99, 0x9f, 0xbd, 0xcb, 0x94, 0x0a, 0xbe, 0x9b, 0xe1, 0x65, 0x3d,
  0xdc, 0xaa, 0x89, 0x3e, 0xfd, 0xc3, 0x5f, 0x3e, 0x5f, 0x62, 0xdd, 0x3d,
  0xa1, 0x98, 0xb2, 0x3d, 0x51, 0x85, 0x29, 0xbe, 0xea, 0x5a, 0x4e, 0x3e,
  0xb4, 0x18, 0x11, 0xbe, 0x2b, 0x89, 0x05, 0xbc, 0xa8, 0xd4, 0x25, 0x3e,
  0x67, 0x78, 0xe9, 0x3d, 0x0d, 0x4d, 0x24, 0xbe, 0x83, 0xd6, 0x6f, 0x3d,
  0x7f, 0x62, 0x9a, 0xbd, 0x83, 0x76, 0x9b, 0x3e, 0xe7, 0x4e, 0xf2, 0xbd,
  0xa0, 0xca, 0xc6, 0x3d, 0x43, 0xda, 0xe1, 0x3d, 0xb3, 0xe1, 0x83, 0xbe,
  0x95, 0xc5, 0x2a, 0x3e, 0x59, 0x34, 0x86, 0xbd, 0xe5, 0x15, 0x03, 0xbe,
  0x7d, 0x08, 0x98, 0x3e, 0xa8, 0xb0, 0x8b, 0xbc, 0xa1, 0x6d, 0xa6, 0x3e,
  0x9e, 0x35, 0x71, 0x3b, 0x05, 0x66, 0xb6, 0xbe, 0x0e, 0x12, 0x88, 0x3e,
  0x2e, 0xd1, 0xfd, 0x3c, 0x88, 0x9f, 0xb2, 0x3c, 0x7c, 0x78, 0x1c, 0x3d,
  0x96, 0xdd, 0xd0, 0x3e, 0x04, 0x4f, 0xd3, 0x3e, 0x43, 0x2c, 0x66, 0x3e,
  0x29, 0x0f, 0xb9, 0xbd, 0x3f, 0xd6, 0x3b, 0x3c, 0x8a, 0xd1, 0x23, 0x3d,
  0xcf, 0x72, 0xf3, 0x3d, 0x8c, 0x9b, 0x0a, 0xbc, 0x3a, 0x74, 0x9c, 0x3e,
  0x73, 0x1b, 0xf8, 0x3d, 0x29, 0xe2, 0x97, 0x3d, 0x24, 0xfc, 0xb5, 0xbd,
  0x54, 0xdf, 0xb4, 0x3d, 0xf4, 0xb0, 0xf3, 0xbd, 0x13, 0x4a, 0x92, 0xbd,
  0xe6, 0x45, 0x61, 0xbd, 0xc1, 0xd1, 0x13, 0x3e, 0x47, 0x9d, 0x07, 0x3e,
  0x3f, 0xf3, 0x0c, 0x3e, 0xef, 0xba, 0x8f, 0xbe, 0x84, 0x55, 0xc7, 0x3d,
  0x2b, 0x4c, 0x40, 0x3e, 0xf9, 0xd2, 0x75, 0xbd, 0x20, 0x16, 0x2f, 0x3e,
  0xcf, 0x80, 0x3c, 0x3e, 0x68, 0x3e, 0x11, 0x3e, 0xd0, 0x7e, 0x49, 0x3d,
  0x73, 0xd4, 0xa3, 0xbe, 0x0b, 0xf7, 0x6d, 0x3b, 0x20, 0x64, 0x1c, 0xbd,
  0x64, 0x37, 0x94, 0x3e, 0xec, 0x03, 0x04, 0xbe, 0x9e, 0x92, 0x8b, 0xbe,
  0xf7, 0xde, 0x70, 0x3e, 0xe1, 0xa4, 0x44, 0xbd, 0xa2, 0x75, 0x91, 0xbe,
  0xf5, 0x4e, 0x37, 0xbe, 0x9d, 0xa4, 0xb5, 0x3d, 0x3d, 0xf7, 0xf7, 0xbd,
  0xfe, 0xe9, 0x04, 0xbe, 0x48, 0x2d, 0xae, 0x3d, 0xb1, 0x52, 0xd7, 0xbd,
  0xaa, 0x9e, 0xc4, 0xbc, 0x7b, 0x44, 0x14, 0xbf, 0xb7, 0x22, 0x95, 0xbc,
  0x53, 0x1b, 0x0f, 0x3e, 0x97, 0x8f, 0xa3, 0x39, 0xb9, 0x91, 0x66, 0x3d,
  0x2e, 0x97, 0x19, 0x3e, 0x09, 0xe0, 0xa0, 0x3e, 0x3b, 0x6c, 0x42, 0xbe,
  0xf6, 0x52, 0xe1, 0xbe, 0xc0, 0x7c, 0xab, 0xbd, 0x35, 0xde, 0xbf, 0xbd,
  0x1f, 0xa1, 0x66, 0x3e, 0xcc, 0x5c, 0xd0, 0xbd, 0x1d, 0x00, 0xe7, 0x3d,
  0x45, 0x2d, 0x65, 0x3e, 0x0c, 0xbc, 0x6a, 0x3c, 0x2a, 0xe5, 0xb4, 0x3d,
  0x66, 0x08, 0x8c, 0x3e, 0x55, 0x06, 0x2b, 0x3e, 0xbe, 0x29, 0xa9, 0x3d,
  0xda, 0x80, 0xab, 0xbe, 0x6d, 0x9a, 0x91, 0xbd, 0xde, 0x4c, 0x87, 0x3e,
  0x35, 0x8c, 0x88, 0xbd, 0x87, 0x35, 0x8a, 0xbe, 0xce, 0x77, 0xba, 0xbc,
  0x69, 0x7d, 0x0b, 0x3e, 0xdc, 0x9b, 0x0d, 0xbd, 0x6a, 0xc4, 0x90, 0xbe,
  0x08, 0xd6, 0x6f, 0xbd, 0x4c, 0x2c, 0x99, 0x3e, 0x47, 0x7c, 0x48, 0xbe,
  0xc1, 0x5b, 0x30, 0xbe, 0xff, 0x86, 0xee, 0x3d, 0xd1, 0xef, 0xc3, 0xbb,
  0x39, 0xe6, 0x59, 0x3c, 0x01, 0x4a, 0xae, 0xbe, 0xcf, 0x6a, 0x78, 0xbd,
  0x80, 0xff, 0x1a, 0xbe, 0xaf, 0xc4, 0x85, 0xbe, 0x35, 0xd7, 0x42, 0xbe,
  0x71, 0x4f, 0xec, 0xbd, 0xc1, 0x21, 0xf1, 0x3c, 0x3a, 0x68, 0x43, 0x3e,
  0x15, 0xc3, 0x86, 0xbe, 0x14, 0xdd, 0xc6, 0x3d, 0x5d, 0x06, 0x35, 0xbe,
  0xbb, 0xd8, 0xca, 0xbd, 0x38, 0x22, 0xbb, 0xbd, 0x6f, 0xee, 0xdc, 0x3d,
  0x2c, 0x8c, 0x8e, 0xbe, 0xe1, 0x4d, 0x09, 0xbe, 0xa9, 0xab, 0x91, 0x3d,
  0xb2, 0x4f, 0x1a, 0xbe, 0x17, 0xbc, 0x60, 0xbe, 0x61, 0xb4, 0x39, 0xbe,
  0x51, 0xef, 0x06, 0xbe, 0x38, 0x13, 0x28, 0xbe, 0x89, 0x77, 0x5d, 0x3c,
  0xbf, 0x8e, 0x57, 0xbe, 0x76, 0x03, 0x9d, 0xbd, 0x94, 0x5b, 0x10, 0x3d,
  0xf4, 0x6d, 0x0e, 0xbd, 0x5c, 0x74, 0x90, 0xbe, 0x8b, 0x45, 0x1e, 0xbe,
  0x89, 0xa1, 0xf0, 0xbd, 0x26, 0xba, 0x42, 0xbe, 0xdf, 0xed, 0xba, 0x3d,
  0xdd, 0x24, 0x14, 0xbe, 0xfa, 0xda, 0x5f, 0xbe, 0xbf, 0x44, 0x48, 0xba,
  0x13, 0xc6, 0xfc, 0xbd, 0x57, 0x30, 0x46, 0xbe, 0xd1, 0x44, 0x88, 0x3c,
  0x79, 0x46, 0xa5, 0xbd, 0xb7, 0x9f, 0x99, 0xbe, 0x36, 0x05, 0xbd, 0xbd,
  0x95, 0x1a, 0x76, 0x3d, 0x43, 0xc3, 0x78, 0xbd, 0xa7, 0x01, 0xa2, 0xbd,
  0x9c, 0xa9, 0xf7, 0xbe, 0xbf, 0x2b, 0x43, 0x3d, 0xe0, 0x2d, 0x18, 0xbf,
  0x41, 0xf2, 0x3a, 0x3e, 0xeb, 0x86, 0x86, 0x3e, 0xaf, 0xa8, 0xe8, 0xbe,
  0x6d, 0x48, 0x68, 0x3d, 0x21, 0x24, 0x12, 0xbe, 0xa8, 0x97, 0xcc, 0xbd,
  0xa0, 0x7a, 0x97, 0x3d, 0x5f, 0x48, 0xd5, 0xbe, 0x4f, 0xb1, 0xb9, 0x3d,
  0x05, 0x03, 0x37, 0x3e, 0x7a, 0x91, 0x19, 0xbe, 0xf5, 0x5e, 0x30, 0xbe,
  0xb6, 0x09, 0x2f, 0xbc, 0x0b, 0x1d, 0x98, 0xbe, 0x82, 0xc3, 0x06, 0xbd,
  0x09, 0x11, 0x34, 0xbf, 0xb3, 0x33, 0xea, 0x3d, 0x23, 0xb8, 0x09, 0x3e,
  0xaa, 0x2f, 0xc5, 0xbd, 0x7d, 0xbd, 0xbf, 0xbe, 0x9f, 0x7a, 0x9b, 0x3e,
  0x75, 0x8a, 0x75, 0x3e, 0x55, 0xf1, 0xc5, 0x3d, 0x8a, 0xe2, 0x02, 0xbf,
  0x7f, 0x80, 0x75, 0xbd, 0xfb, 0xee, 0x08, 0xbc, 0x13, 0x08, 0xca, 0x3d,
  0x25, 0xc8, 0x59, 0x3d, 0x98, 0x0a, 0x23, 0x3e, 0x93, 0x47, 0x30, 0x3d,
  0x28, 0x1b, 0x36, 0x3e, 0x85, 0x48, 0xb1, 0x3d, 0x89, 0x64, 0x1e, 0xbe,
  0x9b, 0x43, 0x5a, 0x3d, 0x6e, 0xe0, 0xa7, 0x3e, 0x84, 0xfc, 0x0a, 0x3e,
  0x6e, 0xc3, 0xe7, 0x3b, 0x09, 0x66, 0x85, 0xbc, 0x1b, 0xa6, 0x57, 0x3d,
  0x23, 0xd3, 0x9f, 0xbd, 0xcc, 0x3d, 0x6a, 0x3d, 0xad, 0x45, 0xa4, 0x3e,
  0x64, 0x91, 0x82, 0x3e, 0xef, 0xc0, 0x2b, 0x3c, 0x13, 0xf9, 0x9b, 0x3e,
  0x4b, 0x60, 0x95, 0x3d, 0x7e, 0x23, 0xa5, 0x3e, 0xe4, 0x07, 0x82, 0x3e,
  0xa5, 0x5b, 0xda, 0xbd, 0x04, 0xc0, 0xec, 0x3e, 0xda, 0x70, 0x3f, 0xbd,
  0x74, 0x33, 0x3e, 0x3e, 0x6a, 0xc4, 0xab, 0x3e, 0xa7, 0x5f, 0x3f, 0x3d,
  0x3f, 0xa3, 0x7d, 0x3e, 0x57, 0x66, 0x09, 0xbe, 0xc9, 0xe3, 0x17, 0xbe,
  0x91, 0x44, 0xc2, 0x3e, 0x92, 0x83, 0xaf, 0x3e, 0x88, 0xf4, 0x16, 0xbe,
  0xcd, 0x92, 0xb6, 0xbe, 0x14, 0x90, 0x8c, 0xbe, 0xa0, 0xfa, 0xe7, 0xbe,
  0x45, 0xf6, 0x12, 0x3f, 0x07, 0x2a, 0x78, 0xbf, 0x4b, 0x9b, 0x45, 0xbd,
  0x98, 0xae, 0xa3, 0xbe, 0xf7, 0xd8, 0x6b, 0x3d, 0x62, 0xd9, 0xf3, 0x3c,
  0xbc, 0xce, 0xa2, 0xbd, 0x3b, 0xd1, 0x6e, 0x3d, 0xb5, 0x42, 0xfe, 0x3c,
  0x8a, 0xe6, 0x86, 0xbf, 0xde, 0x08, 0x2a, 0xbb, 0x14, 0x06, 0xbc, 0xbd,
  0x2a, 0xb7, 0xcd, 0x3c, 0x2d, 0x2e, 0x9f, 0xbe, 0x4c, 0x9c, 0x3b, 0x3d,
  0x5f, 0x17, 0x99, 0xba, 0x52, 0x39, 0x31, 0xbe, 0xa3, 0xa1, 0x77, 0xbf,
  0xb1, 0x86, 0x30, 0x3e, 0x73, 0x09, 0x8e, 0xbe, 0x5e, 0xac, 0x02, 0xbe,
  0x44, 0xc3, 0x33, 0x3c, 0x00, 0xd7, 0x11, 0xbe, 0x93, 0x8d, 0xd8, 0x3e,
  0x4e, 0xf3, 0x9d, 0xbd, 0xd0, 0x90, 0x34, 0xbf, 0xc2, 0x07, 0x93, 0xbc,
  0xb6, 0xb5, 0x82, 0xbe, 0x22, 0xfc, 0xff, 0xff, 0x04, 0x00, 0x00, 0x00,
  0x80, 0x01, 0x00, 0x00, 0x77, 0xe6, 0xb8, 0xbd, 0x08, 0x06, 0x1c, 0xbe,
  0xd2, 0xb4, 0x8d, 0x3e, 0x15, 0xeb, 0xd4, 0xbc, 0x69, 0x02, 0xc6, 0xbd,
  0xbd, 0xcf, 0x92, 0x3e, 0xf4, 0x03, 0xe2, 0xbb, 0xa4, 0xfe, 0x87, 0xbd,
  0x04, 0x69, 0x09, 0x3e, 0x79, 0x03, 0x93, 0xbd, 0x5f, 0xaa, 0x90, 0xbe,
  0x80, 0xff, 0xd5, 0x3d, 0x58, 0xbc, 0x0a, 0xbe, 0xdd, 0xed, 0x1c, 0x3e,
  0xed, 0xc5, 0x6b, 0xbe, 0xeb, 0xd0, 0xbe, 0xbd, 0x0c, 0xe7, 0x85, 0x3e,
  0x70, 0xf9, 0x8a, 0x3d, 0x4f, 0x89, 0x80, 0xbe, 0x6d, 0xb4, 0x7f, 0x3e,
  0x6c, 0x45, 0x20, 0x3e, 0x0b, 0x0d, 0xf7, 0xbd, 0x90, 0x53, 0xb4, 0x3d,
  0x01, 0xd1, 0x22, 0xbe, 0x92, 0x02, 0xaf, 0x3e, 0x9b, 0x52, 0xbe, 0x3d,
  0x98, 0xb8, 0xdb, 0xbd, 0x2e, 0x71, 0x90, 0xbd, 0xa3, 0x4e, 0x90, 0xbe,
  0x1f, 0x44, 0x8e, 0x3e, 0x83, 0x3f, 0x41, 0xbd, 0x1f, 0xd3, 0x43, 0xbc,
  0xcc, 0x6f, 0x1b, 0x3d, 0x3e, 0xce, 0x9a, 0x3e, 0x67, 0xd0, 0xa0, 0xbe,
  0xc3, 0x71, 0x91, 0x3d, 0x4a, 0x8c, 0x95, 0x3c, 0xa5, 0x99, 0x4f, 0x3e,
  0x83, 0x56, 0xa8, 0xbd, 0xb2, 0x5c, 0xa2, 0xbd, 0x34, 0x36, 0x1a, 0x3d,
  0x31, 0xa6, 0x17, 0xbe, 0x0a, 0x59, 0x4e, 0xbd, 0x33, 0x1b, 0x47, 0xbd,
  0x93, 0x53, 0x06, 0x3e, 0x97, 0x36, 0x48, 0xbd, 0x17, 0xda, 0x86, 0x3d,
  0xe7, 0x66, 0x5b, 0x3e, 0xe1, 0x91, 0x2b, 0x3d, 0xa8, 0xbd, 0x11, 0xbd,
  0xbf, 0x39, 0xa2, 0x3d, 0x0d, 0x10, 0x54, 0xbd, 0x62, 0x38, 0xc1, 0xbd,
  0x4e, 0xef, 0x0f, 0x3e, 0xa9, 0xef, 0xd5, 0xbd, 0x2d, 0x45, 0xb0, 0xbd,
  0x4f, 0xc7, 0x94, 0x3d, 0xa3, 0x7f, 0xd6, 0xbd, 0x4c, 0xcc, 0x06, 0xbe,
  0x8f, 0xbc, 0x60, 0x3d, 0x89, 0x13, 0x28, 0x3e, 0x93, 0x7b, 0xe5, 0x3d,
  0xc1, 0xfb, 0x85, 0x3e, 0x8b, 0xdc, 0xfa, 0x3d, 0xf8, 0xa1, 0x92, 0xbc,
  0xc8, 0xe6, 0x21, 0x3d, 0xa4, 0x65, 0xbb, 0x3c, 0xdf, 0x1c, 0x99, 0xbc,
  0x68, 0xe3, 0xbe, 0x3c, 0xf2, 0xa4, 0x50, 0x3e, 0xc8, 0xc9, 0x20, 0x3d,
  0x37, 0x97, 0x8d, 0x3e, 0x8f, 0x36, 0x22, 0xbe, 0xa7, 0x2e, 0x02, 0x3e,
  0x5f, 0x1f, 0x32, 0xbe, 0xe7, 0x0a, 0x92, 0xbd, 0x36, 0xa0, 0x7b, 0x3e,
  0x8c, 0xd1, 0x4a, 0xbe, 0x84, 0x4b, 0xaf, 0x3c, 0x94, 0x9b, 0xae, 0x3e,
  0x79, 0x61, 0x56, 0xbe, 0x8f, 0x36, 0xc9, 0xbd, 0xaa, 0x85, 0x8e, 0x3e,
  0xbf, 0xdd, 0x2f, 0xbe, 0xca, 0x41, 0x57, 0x3e, 0x4d, 0xab, 0x64, 0xbe,
  0xd9, 0xb4, 0xa9, 0xbc, 0xe9, 0x31, 0x59, 0x3e, 0x5d, 0x27, 0x09, 0xbe,
  0x78, 0x55, 0x31, 0x3d, 0x33, 0x13, 0x4c, 0x3d, 0xbb, 0xce, 0x5f, 0xbe,
  0xec, 0x15, 0x14, 0x3c, 0xf2, 0x07, 0x8f, 0x3e, 0x01, 0x9c, 0x33, 0xbe,
  0x5a, 0x92, 0xbe, 0xbd, 0xae, 0xfd, 0xff, 0xff, 0x04, 0x00, 0x00, 0x00,
  0xc0, 0x00, 0x00, 0x00, 0x45, 0x2e, 0x13, 0x3f, 0x4d, 0xd4, 0x30, 0x3f,
  0x8d, 0x59, 0x0b, 0xbf, 0xdd, 0xef, 0xe4, 0x3e, 0x28, 0x11, 0x3c, 0x3e,
  0x9f, 0x99, 0x89, 0xbf, 0x4c, 0x8a, 0x56, 0x3e, 0x3c, 0xfb, 0xb7, 0xbd,
  0x64, 0xab, 0x2a, 0xbf, 0x80, 0x26, 0xfd, 0x3e, 0xf5, 0x6d, 0xaa, 0xbd,
  0x48, 0x17, 0xbd, 0xbf, 0xfe, 0x47, 0x4e, 0x3f, 0xf4, 0xca, 0xf8, 0xbe,
  0x48, 0xca, 0x3e, 0x3f, 0x5d, 0x23, 0xd9, 0xbe, 0xed, 0x0d, 0x6c, 0xbe,
  0x9f, 0xf6, 0x46, 0xbe, 0x66, 0xf9, 0x1f, 0x3f, 0x79, 0xe9, 0xa5, 0x3e,
  0xc5, 0x2f, 0xcb, 0x3e, 0x6a, 0xb6, 0x4a, 0x3f, 0x10, 0xb2, 0x4f, 0x3e,
  0x0e, 0x64, 0xed, 0xbd, 0x3e, 0xa0, 0x01, 0xbc, 0xe3, 0x2d, 0x91, 0xbf,
  0x06, 0x63, 0x92, 0xbd, 0x72, 0x0c, 0x3f, 0x3f, 0x9c, 0xc7, 0x40, 0xbf,
  0x4b, 0xbf, 0x3d, 0xbe, 0x8d, 0x31, 0x2f, 0xbe, 0x34, 0x36, 0x0a, 0x3f,
  0xdc, 0x6f, 0xa9, 0x3d, 0xfc, 0xef, 0x2e, 0xbf, 0x68, 0x7c, 0x3f, 0xbe,
  0x84, 0x5c, 0xab, 0xbf, 0xa1, 0x10, 0x01, 0xbe, 0xb1, 0x1e, 0x10, 0xbf,
  0xfa, 0x3b, 0x99, 0x3e, 0x2a, 0x32, 0xa3, 0xbb, 0xf6, 0x91, 0xf2, 0x3d,
  0x22, 0x13, 0x72, 0xbf, 0xf2, 0x62, 0x28, 0xbc, 0x77, 0xb2, 0x4e, 0xbf,
  0x3c, 0x5a, 0x88, 0xbf, 0x3b, 0x1e, 0xc5, 0x3e, 0xba, 0x69, 0x79, 0xbf,
  0x38, 0xb8, 0x3d, 0xbf, 0x7a, 0xfe, 0xff, 0xff, 0x04, 0x00, 0x00, 0x00,
  0x08, 0x00, 0x00, 0x00, 0xff, 0xff, 0xff, 0xff, 0xe0, 0x00, 0x00, 0x00,
  0x8e, 0xfe, 0xff, 0xff, 0x04, 0x00, 0x00, 0x00, 0x40, 0x00, 0x00, 0x00,
  0xc4, 0x97, 0x79, 0xbf, 0x2c, 0x91, 0x51, 0x3f, 0xcc, 0x6a, 0x95, 0xbe,
  0xb6, 0x17, 0x9f, 0x3f, 0xb9, 0x8f, 0x44, 0xc0, 0x31, 0xf7, 0x50, 0x3f,
  0xe3, 0x2c, 0x01, 0x3f, 0x0a, 0xaf, 0x13, 0xbe, 0x30, 0x81, 0xd0, 0xbf,
  0xdf, 0x5e, 0x09, 0xc0, 0x2e, 0xca, 0xa6, 0xbf, 0xe6, 0xd3, 0x47, 0x3f,
  0x8b, 0xec, 0xc5, 0xbe, 0xca, 0x11, 0x7d, 0x3e, 0x34, 0x13, 0x8d, 0xc0,
  0x53, 0x2d, 0x61, 0x3f, 0xda, 0xfe, 0xff, 0xff, 0x04, 0x00, 0x00, 0x00,
  0x20, 0x00, 0x00, 0x00, 0x1d, 0xdb, 0x44, 0xbf, 0xc5, 0x92, 0x87, 0xbf,
  0x59, 0xe2, 0xc8, 0xbf, 0xe6, 0x0b, 0x9a, 0xbe, 0x12, 0xf5, 0x27, 0x3e,
  0xd2, 0x63, 0xce, 0xbd, 0x01, 0xd5, 0x9c, 0xbf, 0x14, 0x21, 0xdf, 0xbf,
  0x06, 0xff, 0xff, 0xff, 0x04, 0x00, 0x00, 0x00, 0x0c, 0x00, 0x00, 0x00,
  0xa2, 0xfc, 0x10, 0x3f, 0xec, 0x28, 0x24, 0x3f, 0x52, 0xe4, 0x89, 0xc0,
  0x1e, 0xff, 0xff, 0xff, 0x04, 0x00, 0x00, 0x00, 0x40, 0x00, 0x00, 0x00,
  0x4c, 0x9f, 0xef, 0xbd, 0x76, 0xc0, 0x2b, 0x3f, 0xc2, 0x75, 0x5f, 0x3f,
  0x88, 0x6a, 0x0e, 0x40, 0xa3, 0xa2, 0x85, 0xbe, 0xbd, 0x83, 0x8c, 0x3f,
  0x8d, 0xc8, 0xbc, 0xbf, 0x5f, 0x90, 0x7e, 0xc0, 0xbc, 0x0a, 0x13, 0x3f,
  0x26, 0xb7, 0xc6, 0x3e, 0xf1, 0x71, 0x51, 0xc0, 0x48, 0x4c, 0x74, 0x3f,
  0x65, 0xae, 0x0c, 0xbf, 0x86, 0x40, 0x50, 0xbd, 0x65, 0xd8, 0x09, 0x3f,
  0xe3, 0x08, 0x1e, 0x3f, 0xec, 0xf5, 0xff, 0xff, 0xf0, 0xf5, 0xff, 0xff,
  0x0f, 0x00, 0x00, 0x00, 0x4d, 0x4c, 0x49, 0x52, 0x20, 0x43, 0x6f, 0x6e,
  0x76, 0x65, 0x72, 0x74, 0x65, 0x64, 0x2e, 0x00, 0x01, 0x00, 0x00, 0x00,
  0x14, 0x00, 0x00, 0x00, 0x00, 0x00, 0x0e, 0x00, 0x18, 0x00, 0x14, 0x00,
  0x10, 0x00, 0x0c, 0x00, 0x08, 0x00, 0x04, 0x00, 0x0e, 0x00, 0x00, 0x00,
  0x14, 0x00, 0x00, 0x00, 0x1c, 0x00, 0x00, 0x00, 0x5c, 0x02, 0x00, 0x00,
  0x60, 0x02, 0x00, 0x00, 0x64, 0x02, 0x00, 0x00, 0x04, 0x00, 0x00, 0x00,
  0x6d, 0x61, 0x69, 0x6e, 0x00, 0x00, 0x00, 0x00, 0x08, 0x00, 0x00, 0x00,
  0xf8, 0x01, 0x00, 0x00, 0x94, 0x01, 0x00, 0x00, 0x44, 0x01, 0x00, 0x00,
  0xf4, 0x00, 0x00, 0x00, 0xcc, 0x00, 0x00, 0x00, 0x78, 0x00, 0x00, 0x00,
  0x40, 0x00, 0x00, 0x00, 0x04, 0x00, 0x00, 0x00, 0x96, 0xfe, 0xff, 0xff,
  0x1c, 0x00, 0x00, 0x00, 0x00, 0x00, 0x00, 0x09, 0x1c, 0x00, 0x00, 0x00,
  0x20, 0x00, 0x00, 0x00, 0x04, 0x00, 0x00, 0x00, 0x00, 0x00, 0x06, 0x00,
  0x08, 0x00, 0x04, 0x00, 0x06, 0x00, 0x00, 0x00, 0x00, 0x00, 0x80, 0x3f,
  0x01, 0x00, 0x00, 0x00, 0x11, 0x00, 0x00, 0x00, 0x01, 0x00, 0x00, 0x00,
  0x10, 0x00, 0x00, 0x00, 0xce, 0xfe, 0xff, 0xff, 0x14, 0x00, 0x00, 0x00,
  0x00, 0x00, 0x00, 0x08, 0x10, 0x00, 0x00, 0x00, 0x14, 0x00, 0x00, 0x00,
  0x03, 0x00, 0x00, 0x00, 0xb8, 0xf6, 0xff, 0xff, 0x01, 0x00, 0x00, 0x00,
  0x10, 0x00, 0x00, 0x00, 0x03, 0x00, 0x00, 0x00, 0x0f, 0x00, 0x00, 0x00,
  0x06, 0x00, 0x00, 0x00, 0x02, 0x00, 0x00, 0x00, 0x02, 0xff, 0xff, 0xff,
  0x20, 0x00, 0x00, 0x00, 0x00, 0x00, 0x00, 0x08, 0x20, 0x00, 0x00, 0x00,
  0x24, 0x00, 0x00, 0x00, 0x03, 0x00, 0x00, 0x00, 0x0c, 0x00, 0x08, 0x00,
  0x07, 0x00, 0x00, 0x00, 0x00, 0x00, 0x06, 0x00, 0x0c, 0x00, 0x00, 0x00,
  0x00, 0x00, 0x01, 0x01, 0x01, 0x00, 0x00, 0x00, 0x0f, 0x00, 0x00, 0x00,
  0x03, 0x00, 0x00, 0x00, 0x0e, 0x00, 0x00, 0x00, 0x09, 0x00, 0x00, 0x00,
  0x01, 0x00, 0x00, 0x00, 0x00, 0x00, 0x0a, 0x00, 0x10, 0x00, 0x0c, 0x00,
  0x08, 0x00, 0x04, 0x00, 0x0a, 0x00, 0x00, 0x00, 0x0c, 0x00, 0x00, 0x00,
  0x10, 0x00, 0x00, 0x00, 0x02, 0x00, 0x00, 0x00, 0x01, 0x00, 0x00, 0x00,
  0x0e, 0x00, 0x00, 0x00, 0x02, 0x00, 0x00, 0x00, 0x0d, 0x00, 0x00, 0x00,
  0x05, 0x00, 0x00, 0x00, 0x76, 0xff, 0xff, 0xff, 0x24, 0x00, 0x00, 0x00,
  0x00, 0x00, 0x00, 0x05, 0x30, 0x00, 0x00, 0x00, 0x34, 0x00, 0x00, 0x00,
  0x01, 0x00, 0x00, 0x00, 0x00, 0x00, 0x0e, 0x00, 0x14, 0x00, 0x00, 0x00,
  0x10, 0x00, 0x0c, 0x00, 0x08, 0x00, 0x04, 0x00, 0x0e, 0x00, 0x00, 0x00,
  0x03, 0x00, 0x00, 0x00, 0x01, 0x00, 0x00, 0x00, 0x03, 0x00, 0x00, 0x00,
  0x01, 0x00, 0x00, 0x00, 0x01, 0x00, 0x00, 0x00, 0x0d, 0x00, 0x00, 0x00,
  0x01, 0x00, 0x00, 0x00, 0x0c, 0x00, 0x00, 0x00, 0x62, 0xff, 0xff, 0xff,
  0x10, 0x00, 0x00, 0x00, 0x00, 0x00, 0x00, 0x01, 0x18, 0x00, 0x00, 0x00,
  0x1c, 0x00, 0x00, 0x00, 0x54, 0xff, 0xff, 0xff, 0x00, 0x00, 0x00, 0x01,
  0x01, 0x00, 0x00, 0x00, 0x01, 0x00, 0x00, 0x00, 0x01, 0x00, 0x00, 0x00,
  0x0c, 0x00, 0x00, 0x00, 0x03, 0x00, 0x00, 0x00, 0x0b, 0x00, 0x00, 0x00,
  0x08, 0x00, 0x00, 0x00, 0x04, 0x00, 0x00, 0x00, 0x00, 0x00, 0x0e, 0x00,
  0x1a, 0x00, 0x14, 0x00, 0x10, 0x00, 0x0c, 0x00, 0x0b, 0x00, 0x04, 0x00,
  0x0e, 0x00, 0x00, 0x00, 0x24, 0x00, 0x00, 0x00, 0x00, 0x00, 0x00, 0x05,
  0x34, 0x00, 0x00, 0x00, 0x38, 0x00, 0x00, 0x00, 0x01, 0x00, 0x00, 0x00,
  0x00, 0x00, 0x0e, 0x00, 0x18, 0x00, 0x17, 0x00, 0x10, 0x00, 0x0c, 0x00,
  0x08, 0x00, 0x04, 0x00, 0x0e, 0x00, 0x00, 0x00, 0x03, 0x00, 0x00, 0x00,
  0x03, 0x00, 0x00, 0x00, 0x03, 0x00, 0x00, 0x00, 0x03, 0x00, 0x00, 0x00,
  0x00, 0x00, 0x00, 0x01, 0x01, 0x00, 0x00, 0x00, 0x0b, 0x00, 0x00, 0x00,
  0x01, 0x00, 0x00, 0x00, 0x0a, 0x00, 0x00, 0x00, 0x00, 0x00, 0x0e, 0x00,
  0x14, 0x00, 0x00, 0x00, 0x10, 0x00, 0x0c, 0x00, 0x0b, 0x00, 0x04, 0x00,
  0x0e, 0x00, 0x00, 0x00, 0x1c, 0x00, 0x00, 0x00, 0x00, 0x00, 0x00, 0x01,
  0x24, 0x00, 0x00, 0x00, 0x28, 0x00, 0x00, 0x00, 0x0c, 0x00, 0x10, 0x00,
  0x00, 0x00, 0x0c, 0x00, 0x08, 0x00, 0x07, 0x00, 0x0c, 0x00, 0x00, 0x00,
  0x00, 0x00, 0x00, 0x01, 0x01, 0x00, 0x00, 0x00, 0x01, 0x00, 0x00, 0x00,
  0x01, 0x00, 0x00, 0x00, 0x0a, 0x00, 0x00, 0x00, 0x03, 0x00, 0x00, 0x00,
  0x00, 0x00, 0x00, 0x00, 0x07, 0x00, 0x00, 0x00, 0x03, 0x00, 0x00, 0x00,
  0x01, 0x00, 0x00, 0x00, 0x11, 0x00, 0x00, 0x00, 0x01, 0x00, 0x00, 0x00,
  0x00, 0x00, 0x00, 0x00, 0x12, 0x00, 0x00, 0x00, 0x38, 0x07, 0x00, 0x00,
  0xd4, 0x06, 0x00, 0x00, 0x70, 0x06, 0x00, 0x00, 0x1c, 0x06, 0x00, 0x00,
  0xc8, 0x05, 0x00, 0x00, 0x80, 0x05, 0x00, 0x00, 0x28, 0x05, 0x00, 0x00,
  0xd8, 0x04, 0x00, 0x00, 0x88, 0x04, 0x00, 0x00, 0x14, 0x04, 0x00, 0x00,
  0x54, 0x03, 0x00, 0x00, 0xe4, 0x02, 0x00, 0x00, 0x1c, 0x02, 0x00, 0x00,
  0xac, 0x01, 0x00, 0x00, 0x54, 0x01, 0x00, 0x00, 0xd0, 0x00, 0x00, 0x00,
  0x5c, 0x00, 0x00, 0x00, 0x04, 0x00, 0x00, 0x00, 0x24, 0xf9, 0xff, 0xff,
  0x14, 0x00, 0x00, 0x00, 0x1c, 0x00, 0x00, 0x00, 0x1c, 0x00, 0x00, 0x00,
  0x12, 0x00, 0x00, 0x00, 0x34, 0x00, 0x00, 0x00, 0x02, 0x00, 0x00, 0x00,
  0xff, 0xff, 0xff, 0xff, 0x03, 0x00, 0x00, 0x00, 0x08, 0xf9, 0xff, 0xff,
  0x19, 0x00, 0x00, 0x00, 0x53, 0x74, 0x61, 0x74, 0x65, 0x66, 0x75, 0x6c,
  0x50, 0x61, 0x72, 0x74, 0x69, 0x74, 0x69, 0x6f, 0x6e, 0x65, 0x64, 0x43,
  0x61, 0x6c, 0x6c, 0x3a, 0x30, 0x00, 0x00, 0x00, 0x02, 0x00, 0x00, 0x00,
  0x01, 0x00, 0x00, 0x00, 0x03, 0x00, 0x00, 0x00, 0x78, 0xf9, 0xff, 0xff,
  0x14, 0x00, 0x00, 0x00, 0x1c, 0x00, 0x00, 0x00, 0x1c, 0x00, 0x00, 0x00,
  0x11, 0x00, 0x00, 0x00, 0x50, 0x00, 0x00, 0x00, 0x02, 0x00, 0x00, 0x00,
  0xff, 0xff, 0xff, 0xff, 0x03, 0x00, 0x00, 0x00, 0x5c, 0xf9, 0xff, 0xff,
  0x34, 0x00, 0x00, 0x00, 0x73, 0x65, 0x71, 0x75, 0x65, 0x6e, 0x74, 0x69,
  0x61, 0x6c, 0x2f, 0x64, 0x65, 0x6e, 0x73, 0x65, 0x5f, 0x31, 0x2f, 0x4d,
  0x61, 0x74, 0x4d, 0x75, 0x6c, 0x3b, 0x73, 0x65, 0x71, 0x75, 0x65, 0x6e,
  0x74, 0x69, 0x61, 0x6c, 0x2f, 0x64, 0x65, 0x6e, 0x73, 0x65, 0x5f, 0x31,
  0x2f, 0x42, 0x69, 0x61, 0x73, 0x41, 0x64, 0x64, 0x00, 0x00, 0x00, 0x00,
  0x02, 0x00, 0x00, 0x00, 0x01, 0x00, 0x00, 0x00, 0x03, 0x00, 0x00, 0x00,
  0xe8, 0xf9, 0xff, 0xff, 0x14, 0x00, 0x00, 0x00, 0x1c, 0x00, 0x00, 0x00,
  0x1c, 0x00, 0x00, 0x00, 0x10, 0x00, 0x00, 0x00, 0x60, 0x00, 0x00, 0x00,
  0x02, 0x00, 0x00, 0x00, 0xff, 0xff, 0xff, 0xff, 0x10, 0x00, 0x00, 0x00,
  0xcc, 0xf9, 0xff, 0xff, 0x46, 0x00, 0x00, 0x00, 0x73, 0x65, 0x71, 0x75,
  0x65, 0x6e, 0x74, 0x69, 0x61, 0x6c, 0x2f, 0x64, 0x65, 0x6e, 0x73, 0x65,
  0x2f, 0x4d, 0x61, 0x74, 0x4d, 0x75, 0x6c, 0x3b, 0x73, 0x65, 0x71, 0x75,
  0x65, 0x6e, 0x74, 0x69, 0x61, 0x6c, 0x2f, 0x64, 0x65, 0x6e, 0x73, 0x65,
  0x2f, 0x52, 0x65, 0x6c, 0x75, 0x3b, 0x73, 0x65, 0x71, 0x75, 0x65, 0x6e,
  0x74, 0x69, 0x61, 0x6c, 0x2f, 0x64, 0x65, 0x6e, 0x73, 0x65, 0x2f, 0x42,
  0x69, 0x61, 0x73, 0x41, 0x64, 0x64, 0x00, 0x00, 0x02, 0x00, 0x00, 0x00,
  0x01, 0x00, 0x00, 0x00, 0x10, 0x00, 0x00, 0x00, 0x68, 0xfa, 0xff, 0xff,
  0x14, 0x00, 0x00, 0x00, 0x1c, 0x00, 0x00, 0x00, 0x1c, 0x00, 0x00, 0x00,
  0x0f, 0x00, 0x00, 0x00, 0x34, 0x00, 0x00, 0x00, 0x02, 0x00, 0x00, 0x00,
  0xff, 0xff, 0xff, 0xff, 0xe0, 0x00, 0x00, 0x00, 0x4c, 0xfa, 0xff, 0xff,
  0x1a, 0x00, 0x00, 0x00, 0x73, 0x65, 0x71, 0x75, 0x65, 0x6e, 0x74, 0x69,
  0x61, 0x6c, 0x2f, 0x66, 0x6c, 0x61, 0x74, 0x74, 0x65, 0x6e, 0x2f, 0x52,
  0x65, 0x73, 0x68, 0x61, 0x70, 0x65, 0x00, 0x00, 0x02, 0x00, 0x00, 0x00,
  0x01, 0x00, 0x00, 0x00, 0xe0, 0x00, 0x00, 0x00, 0xbc, 0xfa, 0xff, 0xff,
  0x14, 0x00, 0x00, 0x00, 0x24, 0x00, 0x00, 0x00, 0x24, 0x00, 0x00, 0x00,
  0x0e, 0x00, 0x00, 0x00, 0x44, 0x00, 0x00, 0x00, 0x04, 0x00, 0x00, 0x00,
  0xff, 0xff, 0xff, 0xff, 0x0e, 0x00, 0x00, 0x00, 0x01, 0x00, 0x00, 0x00,
  0x10, 0x00, 0x00, 0x00, 0xa8, 0xfa, 0xff, 0xff, 0x22, 0x00, 0x00, 0x00,
  0x73, 0x65, 0x71, 0x75, 0x65, 0x6e, 0x74, 0x69, 0x61, 0x6c, 0x2f, 0x6d,
  0x61, 0x78, 0x5f, 0x70, 0x6f, 0x6f, 0x6c, 0x69, 0x6e, 0x67, 0x32, 0x64,
  0x5f, 0x31, 0x2f, 0x4d, 0x61, 0x78, 0x50, 0x6f, 0x6f, 0x6c, 0x00, 0x00,
  0x04, 0x00, 0x00, 0x00, 0x01, 0x00, 0x00, 0x00, 0x0e, 0x00, 0x00, 0x00,
  0x01, 0x00, 0x00, 0x00, 0x10, 0x00, 0x00, 0x00, 0x28, 0xfb, 0xff, 0xff,
  0x14, 0x00, 0x00, 0x00, 0x24, 0x00, 0x00, 0x00, 0x24, 0x00, 0x00, 0x00,
  0x0d, 0x00, 0x00, 0x00, 0x9c, 0x00, 0x00, 0x00, 0x04, 0x00, 0x00, 0x00,
  0xff, 0xff, 0xff, 0xff, 0x2a, 0x00, 0x00, 0x00, 0x01, 0x00, 0x00, 0x00,
  0x10, 0x00, 0x00, 0x00, 0x14, 0xfb, 0xff, 0xff, 0x7a, 0x00, 0x00, 0x00,
  0x73, 0x65, 0x71, 0x75, 0x65, 0x6e, 0x74, 0x69, 0x61, 0x6c, 0x2f, 0x63,
  0x6f, 0x6e, 0x76, 0x32, 0x64, 0x5f, 0x31, 0x2f, 0x52, 0x65, 0x6c, 0x75,
  0x3b, 0x73, 0x65, 0x71, 0x75, 0x65, 0x6e, 0x74, 0x69, 0x61, 0x6c, 0x2f,
  0x63, 0x6f, 0x6e, 0x76, 0x32, 0x64, 0x5f, 0x31, 0x2f, 0x42, 0x69, 0x61,
  0x73, 0x41, 0x64, 0x64, 0x3b, 0x73, 0x65, 0x71, 0x75, 0x65, 0x6e, 0x74,
  0x69, 0x61, 0x6c, 0x2f, 0x63, 0x6f, 0x6e, 0x76, 0x32, 0x64, 0x5f, 0x31,
  0x2f, 0x43, 0x6f, 0x6e, 0x76, 0x32, 0x44, 0x3b, 0x73, 0x65, 0x71, 0x75,
  0x65, 0x6e, 0x74, 0x69, 0x61, 0x6c, 0x2f, 0x63, 0x6f, 0x6e, 0x76, 0x32,
  0x64, 0x5f, 0x31, 0x2f, 0x42, 0x69, 0x61, 0x73, 0x41, 0x64, 0x64, 0x2f,
  0x52, 0x65, 0x61, 0x64, 0x56, 0x61, 0x72, 0x69, 0x61, 0x62, 0x6c, 0x65,
  0x4f, 0x70, 0x00, 0x00, 0x04, 0x00, 0x00, 0x00, 0x01, 0x00, 0x00, 0x00,
  0x2a, 0x00, 0x00, 0x00, 0x01, 0x00, 0x00, 0x00, 0x10, 0x00, 0x00, 0x00,
  0xec, 0xfb, 0xff, 0xff, 0x14, 0x00, 0x00, 0x00, 0x24, 0x00, 0x00, 0x00,
  0x24, 0x00, 0x00, 0x00, 0x0c, 0x00, 0x00, 0x00, 0x44, 0x00, 0x00, 0x00,
  0x04, 0x00, 0x00, 0x00, 0xff, 0xff, 0xff, 0xff, 0x2a, 0x00, 0x00, 0x00,
  0x01, 0x00, 0x00, 0x00, 0x08, 0x00, 0x00, 0x00, 0xd8, 0xfb, 0xff, 0xff,
  0x20, 0x00, 0x00, 0x00, 0x73, 0x65, 0x71, 0x75, 0x65, 0x6e, 0x74, 0x69,
  0x61, 0x6c, 0x2f, 0x6d, 0x61, 0x78, 0x5f, 0x70, 0x6f, 0x6f, 0x6c, 0x69,
  0x6e, 0x67, 0x32, 0x64, 0x2f, 0x4d, 0x61, 0x78, 0x50, 0x6f, 0x6f, 0x6c,
  0x00, 0x00, 0x00, 0x00, 0x04, 0x00, 0x00, 0x00, 0x01, 0x00, 0x00, 0x00,
  0x2a, 0x00, 0x00, 0x00, 0x01, 0x00, 0x00, 0x00, 0x08, 0x00, 0x00, 0x00,
  0x58, 0xfc, 0xff, 0xff, 0x14, 0x00, 0x00, 0x00, 0x24, 0x00, 0x00, 0x00,
  0x24, 0x00, 0x00, 0x00, 0x0b, 0x00, 0x00, 0x00, 0x94, 0x00, 0x00, 0x00,
  0x04, 0x00, 0x00, 0x00, 0xff, 0xff, 0xff, 0xff, 0x80, 0x00, 0x00, 0x00,
  0x03, 0x00, 0x00, 0x00, 0x08, 0x00, 0x00, 0x00, 0x44, 0xfc, 0xff, 0xff,
  0x72, 0x00, 0x00, 0x00, 0x73, 0x65, 0x71, 0x75, 0x65, 0x6e, 0x74, 0x69,
  0x61, 0x6c, 0x2f, 0x63, 0x6f, 0x6e, 0x76, 0x32, 0x64, 0x2f, 0x52, 0x65,
  0x6c, 0x75, 0x3b, 0x73, 0x65, 0x71, 0x75, 0x65, 0x6e, 0x74, 0x69, 0x61,
  0x6c, 0x2f, 0x63, 0x6f, 0x6e, 0x76, 0x32, 0x64, 0x2f, 0x42, 0x69, 0x61,
  0x73, 0x41, 0x64, 0x64, 0x3b, 0x73, 0x65, 0x71, 0x75, 0x65, 0x6e, 0x74,
  0x69, 0x61, 0x6c, 0x2f, 0x63, 0x6f, 0x6e, 0x76, 0x32, 0x64, 0x2f, 0x43,
  0x6f, 0x6e, 0x76, 0x32, 0x44, 0x3b, 0x73, 0x65, 0x71, 0x75, 0x65, 0x6e,
  0x74, 0x69, 0x61, 0x6c, 0x2f, 0x63, 0x6f, 0x6e, 0x76, 0x32, 0x64, 0x2f,
  0x42, 0x69, 0x61, 0x73, 0x41, 0x64, 0x64, 0x2f, 0x52, 0x65, 0x61, 0x64,
  0x56, 0x61, 0x72, 0x69, 0x61, 0x62, 0x6c, 0x65, 0x4f, 0x70, 0x00, 0x00,
  0x04, 0x00, 0x00, 0x00, 0x01, 0x00, 0x00, 0x00, 0x80, 0x00, 0x00, 0x00,
  0x03, 0x00, 0x00, 0x00, 0x08, 0x00, 0x00, 0x00, 0xb2, 0xfe, 0xff, 0xff,
  0x20, 0x00, 0x00, 0x00, 0x40, 0x00, 0x00, 0x00, 0x0a, 0x00, 0x00, 0x00,
  0x00, 0x00, 0x00, 0x09, 0x50, 0x00, 0x00, 0x00, 0x0c, 0x00, 0x0c, 0x00,
  0x00, 0x00, 0x00, 0x00, 0x08, 0x00, 0x04, 0x00, 0x0c, 0x00, 0x00, 0x00,
  0x08, 0x00, 0x00, 0x00, 0x14, 0x00, 0x00, 0x00, 0x01, 0x00, 0x00, 0x00,
  0x00, 0x00, 0x00, 0x00, 0x00, 0x00, 0x00, 0x00, 0x00, 0x00, 0x00, 0x00,
  0x01, 0x00, 0x00, 0x00, 0x79, 0x2c, 0xe9, 0x3c, 0x17, 0x00, 0x00, 0x00,
  0x73, 0x65, 0x71, 0x75, 0x65, 0x6e, 0x74, 0x69, 0x61, 0x6c, 0x2f, 0x64,
  0x65, 0x6e, 0x73, 0x65, 0x2f, 0x4d, 0x61, 0x74, 0x4d, 0x75, 0x6c, 0x00,
  0x02, 0x00, 0x00, 0x00, 0x10, 0x00, 0x00, 0x00, 0xe0, 0x00, 0x00, 0x00,
  0xde, 0xfd, 0xff, 0xff, 0x10, 0x00, 0x00, 0x00, 0x10, 0x00, 0x00, 0x00,
  0x09, 0x00, 0x00, 0x00, 0x28, 0x00, 0x00, 0x00, 0x58, 0xfd, 0xff, 0xff,
  0x1a, 0x00, 0x00, 0x00, 0x73, 0x65, 0x71, 0x75, 0x65, 0x6e, 0x74, 0x69,
  0x61, 0x6c, 0x2f, 0x63, 0x6f, 0x6e, 0x76, 0x32, 0x64, 0x5f, 0x31, 0x2f,
  0x43, 0x6f, 0x6e, 0x76, 0x32, 0x44, 0x00, 0x00, 0x04, 0x00, 0x00, 0x00,
  0x10, 0x00, 0x00, 0x00, 0x04, 0x00, 0x00, 0x00, 0x01, 0x00, 0x00, 0x00,
  0x08, 0x00, 0x00, 0x00, 0x2a, 0xfe, 0xff, 0xff, 0x10, 0x00, 0x00, 0x00,
  0x10, 0x00, 0x00, 0x00, 0x08, 0x00, 0x00, 0x00, 0x28, 0x00, 0x00, 0x00,
  0xa4, 0xfd, 0xff, 0xff, 0x18, 0x00, 0x00, 0x00, 0x73, 0x65, 0x71, 0x75,
  0x65, 0x6e, 0x74, 0x69, 0x61, 0x6c, 0x2f, 0x63, 0x6f, 0x6e, 0x76, 0x32,
  0x64, 0x2f, 0x43, 0x6f, 0x6e, 0x76, 0x32, 0x44, 0x00, 0x00, 0x00, 0x00,
  0x04, 0x00, 0x00, 0x00, 0x08, 0x00, 0x00, 0x00, 0x04, 0x00, 0x00, 0x00,
  0x03, 0x00, 0x00, 0x00, 0x01, 0x00, 0x00, 0x00, 0x76, 0xfe, 0xff, 0xff,
  0x10, 0x00, 0x00, 0x00, 0x10, 0x00, 0x00, 0x00, 0x07, 0x00, 0x00, 0x00,
  0x28, 0x00, 0x00, 0x00, 0xf0, 0xfd, 0xff, 0xff, 0x19, 0x00, 0x00, 0x00,
  0x73, 0x65, 0x71, 0x75, 0x65, 0x6e, 0x74, 0x69, 0x61, 0x6c, 0x2f, 0x64,
  0x65, 0x6e, 0x73, 0x65, 0x5f, 0x31, 0x2f, 0x4d, 0x61, 0x74, 0x4d, 0x75,
  0x6c, 0x00, 0x00, 0x00, 0x02, 0x00, 0x00, 0x00, 0x03, 0x00, 0x00, 0x00,
  0x10, 0x00, 0x00, 0x00, 0x00, 0x00, 0x0e, 0x00, 0x18, 0x00, 0x14, 0x00,
  0x13, 0x00, 0x0c, 0x00, 0x08, 0x00, 0x04, 0x00, 0x0e, 0x00, 0x00, 0x00,
  0x14, 0x00, 0x00, 0x00, 0x14, 0x00, 0x00, 0x00, 0x06, 0x00, 0x00, 0x00,
  0x00, 0x00, 0x00, 0x02, 0x28, 0x00, 0x00, 0x00, 0x48, 0xfe, 0xff, 0xff,
  0x18, 0x00, 0x00, 0x00, 0x73, 0x65, 0x71, 0x75, 0x65, 0x6e, 0x74, 0x69,
  0x61, 0x6c, 0x2f, 0x66, 0x6c, 0x61, 0x74, 0x74, 0x65, 0x6e, 0x2f, 0x43,
  0x6f, 0x6e, 0x73, 0x74, 0x00, 0x00, 0x00, 0x00, 0x01, 0x00, 0x00, 0x00,
  0x02, 0x00, 0x00, 0x00, 0x0e, 0xff, 0xff, 0xff, 0x10, 0x00, 0x00, 0x00,
  0x10, 0x00, 0x00, 0x00, 0x05, 0x00, 0x00, 0x00, 0x38, 0x00, 0x00, 0x00,
  0x88, 0xfe, 0xff, 0xff, 0x2a, 0x00, 0x00, 0x00, 0x73, 0x65, 0x71, 0x75,
  0x65, 0x6e, 0x74, 0x69, 0x61, 0x6c, 0x2f, 0x63, 0x6f, 0x6e, 0x76, 0x32,
  0x64, 0x5f, 0x31, 0x2f, 0x42, 0x69, 0x61, 0x73, 0x41, 0x64, 0x64, 0x2f,
  0x52, 0x65, 0x61, 0x64, 0x56, 0x61, 0x72, 0x69, 0x61, 0x62, 0x6c, 0x65,
  0x4f, 0x70, 0x00, 0x00, 0x01, 0x00, 0x00, 0x00, 0x10, 0x00, 0x00, 0x00,
  0x5e, 0xff, 0xff, 0xff, 0x10, 0x00, 0x00, 0x00, 0x10, 0x00, 0x00, 0x00,
  0x04, 0x00, 0x00, 0x00, 0x38, 0x00, 0x00, 0x00, 0xd8, 0xfe, 0xff, 0xff,
  0x28, 0x00, 0x00, 0x00, 0x73, 0x65, 0x71, 0x75, 0x65, 0x6e, 0x74, 0x69,
  0x61, 0x6c, 0x2f, 0x63, 0x6f, 0x6e, 0x76, 0x32, 0x64, 0x2f, 0x42, 0x69,
  0x61, 0x73, 0x41, 0x64, 0x64, 0x2f, 0x52, 0x65, 0x61, 0x64, 0x56, 0x61,
  0x72, 0x69, 0x61, 0x62, 0x6c, 0x65, 0x4f, 0x70, 0x00, 0x00, 0x00, 0x00,
  0x01, 0x00, 0x00, 0x00, 0x08, 0x00, 0x00, 0x00, 0xae, 0xff, 0xff, 0xff,
  0x10, 0x00, 0x00, 0x00, 0x10, 0x00, 0x00, 0x00, 0x03, 0x00, 0x00, 0x00,
  0x38, 0x00, 0x00, 0x00, 0x28, 0xff, 0xff, 0xff, 0x29, 0x00, 0x00, 0x00,
  0x73, 0x65, 0x71, 0x75, 0x65, 0x6e, 0x74, 0x69, 0x61, 0x6c, 0x2f, 0x64,
  0x65, 0x6e, 0x73, 0x65, 0x5f, 0x31, 0x2f, 0x42, 0x69, 0x61, 0x73, 0x41,
  0x64, 0x64, 0x2f, 0x52, 0x65, 0x61, 0x64, 0x56, 0x61, 0x72, 0x69, 0x61,
  0x62, 0x6c, 0x65, 0x4f, 0x70, 0x00, 0x00, 0x00, 0x01, 0x00, 0x00, 0x00,
  0x03, 0x00, 0x00, 0x00, 0x00, 0x00, 0x0e, 0x00, 0x14, 0x00, 0x10, 0x00,
  0x00, 0x00, 0x0c, 0x00, 0x08, 0x00, 0x04, 0x00, 0x0e, 0x00, 0x00, 0x00,
  0x10, 0x00, 0x00, 0x00, 0x10, 0x00, 0x00, 0x00, 0x02, 0x00, 0x00, 0x00,
  0x34, 0x00, 0x00, 0x00, 0x88, 0xff, 0xff, 0xff, 0x27, 0x00, 0x00, 0x00,
  0x73, 0x65, 0x71, 0x75, 0x65, 0x6e, 0x74, 0x69, 0x61, 0x6c, 0x2f, 0x64,
  0x65, 0x6e, 0x73, 0x65, 0x2f, 0x42, 0x69, 0x61, 0x73, 0x41, 0x64, 0x64,
  0x2f, 0x52, 0x65, 0x61, 0x64, 0x56, 0x61, 0x72, 0x69, 0x61, 0x62, 0x6c,
  0x65, 0x4f, 0x70, 0x00, 0x01, 0x00, 0x00, 0x00, 0x10, 0x00, 0x00, 0x00,
  0x14, 0x00, 0x18, 0x00, 0x14, 0x00, 0x00, 0x00, 0x10, 0x00, 0x0c, 0x00,
  0x08, 0x00, 0x00, 0x00, 0x00, 0x00, 0x04, 0x00, 0x14, 0x00, 0x00, 0x00,
  0x14, 0x00, 0x00, 0x00, 0x28, 0x00, 0x00, 0x00, 0x28, 0x00, 0x00, 0x00,
  0x01, 0x00, 0x00, 0x00, 0x44, 0x00, 0x00, 0x00, 0x04, 0x00, 0x00, 0x00,
  0xff, 0xff, 0xff, 0xff, 0x80, 0x00, 0x00, 0x00, 0x03, 0x00, 0x00, 0x00,
  0x01, 0x00, 0x00, 0x00, 0x04, 0x00, 0x04, 0x00, 0x04, 0x00, 0x00, 0x00,
  0x1e, 0x00, 0x00, 0x00, 0x73, 0x65, 0x72, 0x76, 0x69, 0x6e, 0x67, 0x5f,
  0x64, 0x65, 0x66, 0x61, 0x75, 0x6c, 0x74, 0x5f, 0x63, 0x6f, 0x6e, 0x76,
  0x32, 0x64, 0x5f, 0x69, 0x6e, 0x70, 0x75, 0x74, 0x3a, 0x30, 0x00, 0x00,
  0x04, 0x00, 0x00, 0x00, 0x01, 0x00, 0x00, 0x00, 0x80, 0x00, 0x00, 0x00,
  0x03, 0x00, 0x00, 0x00, 0x01, 0x00, 0x00, 0x00, 0x05, 0x00, 0x00, 0x00,
  0x60, 0x00, 0x00, 0x00, 0x44, 0x00, 0x00, 0x00, 0x34, 0x00, 0x00, 0x00,
  0x20, 0x00, 0x00, 0x00, 0x04, 0x00, 0x00, 0x00, 0xc0, 0xff, 0xff, 0xff,
  0x19, 0x00, 0x00, 0x00, 0x00, 0x00, 0x00, 0x19, 0x0c, 0x00, 0x10, 0x00,
  0x0f, 0x00, 0x00, 0x00, 0x08, 0x00, 0x04, 0x00, 0x0c, 0x00, 0x00, 0x00,
  0x09, 0x00, 0x00, 0x00, 0x09, 0x00, 0x00, 0x00, 0x00, 0x00, 0x00, 0x09,
  0xe8, 0xff, 0xff, 0xff, 0x16, 0x00, 0x00, 0x00, 0x00, 0x00, 0x00, 0x16,
  0xf4, 0xff, 0xff, 0xff, 0x11, 0x00, 0x00, 0x00, 0x00, 0x00, 0x00, 0x11,
  0x0c, 0x00, 0x0c, 0x00, 0x0b, 0x00, 0x00, 0x00, 0x00, 0x00, 0x04, 0x00,
  0x0c, 0x00, 0x00, 0x00, 0x03, 0x00, 0x00, 0x00, 0x00, 0x00, 0x00, 0x03
};
unsigned int g_magic_wand_model_data_len = 9768;
